#version: 0.2 - Trained by `huggingface/tokenizers`
e n
e r
a n
Ã ¤
Ġ s
a r
d e
Ã ¶
i n
Ã ¥
Ġ f
e t
Ġ o
l l
s t
a t
Ġ m
o m
c h
Ã¶ r
Ġ t
Ġ h
Ġ v
Ġo ch
Ġ i
o r
o n
Ġ b
Ã¤ r
Ġ a
Ġ k
s k
in g
Ġ d
Ġ p
e d
Ġ 1
i g
Ġa v
Ġf Ã¶r
a l
a de
a m
Ġ u
Ġ S
Ġ de
i ll
at t
Ġ en
c k
e l
n a
Ġs om
Ġ l
Ġ g
i t
n d
r e
Ġt ill
r a
i l
t er
n ing
i d
i k
an d
Ġ in
Ġ att
Ġm ed
Ġ n
o l
Ġ D
Ġ H
Ġs t
Ġp Ã¥
p p
r Ã¥
n g
Ġv ar
Ġ1 9
Ġ Ã¤r
s s
sk a
t t
Ġ A
r o
Ġ M
a g
Ġd en
Ġ B
k t
v er
a d
Ã¥ r
Ġ e
ar e
i on
i s
Ġ (
Ġ 2
r u
e m
a s
Ġ F
Ġs k
e s
et t
Ġ T
Ġ E
Ġ K
o t
r i
Ġu t
Ã¤ n
Ġ L
l ig
Ġ I
an de
Ġ P
u r
Ġ an
Ġh an
0 0
u s
Ġ G
u n
nd er
Ġb l
r Ã¤
Ġde t
v en
Ġ C
Ġ R
Ġ N
t e
Ġ ett
u t
i v
Ġo m
o g
i st
Ã¶ d
Ġh ar
en s
rÃ¥ n
Ġ Ã¶
Ġ V
f Ã¶r
ade s
e ll
en t
Ġu pp
f ter
st a
Ġ r
Ġf rÃ¥n
a v
u l
Ġ Ã¤
Ġs am
a ll
Ã¥ ng
e v
Ġ U
Ġ J
b er
ar t
d en
Ġ1 8
Ġv id
d er
Ġ re
an s
y g
i ska
Ġ j
ĠS t
e st
i sk
ning s
at ion
o ck
et er
Ġf l
om m
Ã¤ l
u m
de s
a k
Ġu nder
t al
Ã¤ ll
f t
n s
p el
or t
o s
Ġ Ã¥r
l and
Ġ Ã
Ġs in
Ġd Ã¤r
Ã¤ g
Ã¥ g
i ck
u d
de t
ĠÃ¶ ver
Ġ O
e k
l ing
de l
Ġs ig
e g
er na
ĠH an
ar na
Ġde l
r in
a st
r am
Ã¤ nd
â Ģ
Ġe fter
it t
om rÃ¥
at s
n e
s am
Ġs l
or d
y r
i c
Ġ W
ll er
o d
Ġm en
h et
Ã¤ m
ĠD en
er s
Ġ "
v ar
Ã¤ st
ar k
i r
Ġk on
Ġbl ev
r ik
s l
0 1
o k
Ġ2 00
Ġ Ã¥
Ġg en
i en
Ġin te
nings omrÃ¥
yg g
e f
s p
Ã¤ tt
er a
i m
Ġt id
el s
d a
i a
ĠÃ¤ ven
rin ningsomrÃ¥
Ġv il
Ġf in
k et
l a
b et
Ġp ro
Ġm ot
ning en
or g
y ck
Ġ c
Ġh on
tal et
) .
f f
m an
Ġh ade
a p
Ġ ar
Ġs j
Ġk an
1 9
v Ã¥
Ġk omm
Ġ and
Ġ 3
Ã¥ l
Ġe ller
Ġ2 01
r an
m a
o v
r Ã¶
u st
y t
u ll
Ã¤ ng
Ġa ll
ed an
o p
Ġgen om
Ġd Ã¥
Ġm an
Ġs p
lig a
am n
k a
r at
u nd
âĢ ĵ
Ã ©
b l
r ig
g er
e ck
Ġf ram
an t
or m
u ng
Ġs Ã¥
g en
Ġh Ã¶
e kt
ska p
ĠD e
Ġk v
Ġand ra
r ed
i er
ĠD et
Ġsam t
t s
il d
lig t
Ġg ru
ĠfÃ¶r sta
Ġo r
ar en
l d
ar i
er ade
ol m
Ġfin ns
e b
ning ar
et s
Ġk om
st er
u g
ĠÃ ħ
Ġn Ã¤r
Ã¶r j
Ġn y
ck s
) ,
n at
Ġs pel
Ġ1 7
Ġvil ket
Ġf Ã¶d
i f
ik a
a kt
Ġe x
i ss
p l
er i
b b
Ġk all
e x
o tt
h olm
an n
Ġst or
Ġ19 9
ell an
ar l
Ġd Ã¶d
Ġs y
ik t
Ġv att
Ġt vÃ¥
h e
Ã¶ n
Ġbl and
m er
Ġan v
ver k
er k
r ing
il j
al a
cks Ã¥
om eter
Ã¶ p
Ġo cksÃ¥
il ometer
ĠE n
al t
Ġb Ã¶rj
Ġp l
yr k
Ġs ven
Ġf ick
Ġ ing
a b
st Ã¤ll
ist or
ra f
ber g
s en
Ġ 4
in d
n an
Ġde ss
em ber
o h
j or
t en
Ġn Ã¥g
ri v
Ġm ellan
s er
ig t
r on
n ar
ĠF Ã¶r
rinningsomrÃ¥ det
rÃ¤ tt
Ġ19 7
Ã¶ j
Ġk l
ĠfÃ¶d d
Ġl ed
ss on
s b
ol k
Ġs en
o pp
e p
Ġb ygg
Ġhan s
ver ig
Ġs edan
k l
ra g
e del
Ġb est
Ġst ad
ĠS verig
Ġv Ã¤r
Ġ1 6
Ġ19 6
o ll
u v
Ġar bet
ĠC h
ĠhÃ¶ g
ig a
j Ã¤r
Ġb ar
Ġan nat
p er
Ġh a
Ġo l
y d
f att
Ġ19 8
Ġgru nd
s on
Ġ 5
s m
c i
Ġkomm un
ĠSt ock
ull e
v is
o st
ar s
y tt
Ġb e
ĠA l
Ã¶ l
Ġin ne
ĠStock holm
Ġv erk
ĠÃ¥ ter
n en
it et
ĠÃ ĸ
m en
1 8
Ġsk ulle
ri st
ĠÃħ r
Ġ19 4
ra d
Ġ19 5
Ġ %
Ġh el
Ġvatt en
ande t
Ġsl ut
na d
Ġb et
ĠfÃ¶r s
ĠU nder
ar d
n t
re v
Ġf il
Ã¥ ll
ĠE fter
f l
ĠA r
Ã¥ng a
in n
ĠS k
i e
Ã¤ ck
Ġn amn
lig en
or s
tt a
Ġ Ã¤n
ag et
Ġkv ad
ĠH on
rÃ¶ m
Ġkvad rat
er n
ĠA v
ing en
Ġl and
Ġb er
ĠI n
en de
ol og
ion en
Ġut an
n et
Ġs itt
s om
e ss
a ss
k ilometer
Ġkvadrat kilometer
rÃ¤ d
Ġb r
na s
ul t
Ġst Ã¶r
Ã¥r d
Ġkon st
ver s
Ġre g
Ġh av
d u
Ġ19 3
Ã¤ k
m ans
at ur
h us
v eck
en n
i ft
Ġk un
t a
Ġsen are
Ġsin a
d ag
Ġt y
m ar
Ġ 6
t id
uv ud
Ġd ock
Ġu r
Ã¶ k
a ck
Ġfl era
Ġp ol
Ġin om
an ska
o b
l e
ĠJ oh
st e
Ġ19 2
Ġ1 5
sam ling
r it
n i
ĠSverig e
us ik
j e
an g
og raf
ell a
Ġol ika
c ent
ro p
Ã¤ t
i o
k en
Ġanv Ã¤nd
Ã¤ v
y m
jor de
er as
m in
Ġm est
Ġhav et
ers on
Ġ ru
Ġvar a
Ġut g
Ġs v
isk t
y n
yck et
Ã¶l j
re s
Ã¤l v
Ġsam ma
ra kt
a j
Ã¥ t
u k
Ġt re
Ġ yt
l ed
Ġde tta
Ã¤ x
ig are
Ġg Ã¥ng
r Ã¤n
i et
b org
st rÃ¶m
Ġ 7
l ag
ĠA n
k on
Ġh uvud
Ġb es
y s
Ġm in
i an
sk ol
r en
r id
Ġf Ã¥
s h
Ġ Y
f orm
Ġm eter
l Ã¶
al en
Ġsven sk
Ġk yrk
er ing
em pel
ĠAv rinningsomrÃ¥det
a c
rinningsomrÃ¥ de
s v
Ġm ycket
Ã¤g g
Ġb Ã¥
st en
or n
s e
Ġsj Ã¤lv
Ġv is
Ġa l
re ss
00 0
Ġl ig
sam mans
st ad
d rag
âĢ Ŀ
u p
Ġo ft
o f
ĠP Ã¥
r is
av rinningsomrÃ¥de
ru k
h Ã¥ll
Ġt og
al m
l ar
ĠB er
Ġin nan
Ġin t
Ġb ild
er ades
Ġm Ã¥nga
in a
Ġ Ġ
Ġs m
Ġden na
Ġf ort
Ġm at
Ġ 8
o der
Ã¥ n
or na
Ã¤ nder
Ġom rÃ¥
u bb
ni vers
ĠM ar
ro tt
g Ã¥ng
h eter
Ã¤n n
Ġm Ã¥l
Ġm er
Ġbest Ã¥r
ast e
o w
Ġl iv
Ġd ag
an u
r ar
Ġp erson
Ġn or
Ġan s
r y
Ġg jorde
i b
Ġ el
Ġh Ã¤r
Ġ19 1
" .
Ġo f
het en
Ġstor a
els e
Ġd i
h Ã¶r
Ġ ro
l em
an sk
s a
Ġall a
Ġv al
ĠL e
ĠfÃ¶r st
Ġu ng
Ġl Ã¤ng
ĠF ran
Ġm Ã¥
a u
er ad
Ġv an
Ġs ock
Ġt r
Ġex empel
i p
n ade
ĠV id
el n
e fter
anu ari
ĠU t
pp en
Ġh istor
ĠS p
b ild
Ġkon t
h Ã¶
Ġtid igare
Ġj anuari
Ġde m
d om
ĠbÃ¶rj ade
ra v
u rop
Ġsven ska
ug ust
ĠT he
Ġ -
m ed
Ġg er
s att
o ber
Ġpl ats
Ã¤ son
ru m
Ġtill sammans
Ã¤r k
ter n
a h
Ġr ik
Ġf y
un kt
u bl
j Ã¤n
rÃ¤ m
Ã¤st er
ĠÃ¤ g
Ġsl Ã¤
Ġor d
Ġl Ã¥ng
Ġsk og
l s
st em
Ġm usik
ik er
Ġ 9
S A
Ġbl ir
Ġinne b
Ġlig ger
at er
h and
ation en
Ġhon om
ĠÃ¥ t
g an
Ġ19 0
en skap
ik en
Ġl ag
s f
ĠN or
Ġf orm
ĠG u
Ġg Ã¶r
Ġ1 2
an k
ĠvÃ¤r ld
it ion
Ġny a
enn es
ep t
Ġb ef
v Ã¤r
ist er
b y
ĠÃ Ħ
ar bet
us e
Ġh em
Ġ18 9
Ġdess a
Ġh and
ra ft
i ch
els en
j a
Ġf Ã¶lj
ĠG Ã¶
land s
k om
a y
ĠN Ã¤r
sl ag
v Ã¤g
Ġ art
Ġ Z
rÃ¥ k
Ġv ill
g ru
Ġ1 4
Ġut veck
Ġpol it
rig et
ro g
ĠS ch
j Ã¤l
Ġs on
am m
un i
Ġoft a
ĠH ans
Ġt ot
Ġre p
Ġh os
Ġkun de
ĠU SA
ĠfÃ¶r samling
l in
u der
ell t
s Ã¤tt
st Ã¥
ĠbÃ¶rj an
Ġ1 0
Ġl ik
on t
na den
ograf i
Ġn u
Ġ18 8
Ġl it
Ġk Ã¤nd
Ã© n
Ġf rÃ¤m
Ġk ung
am p
Ġb eg
c e
u b
j ur
n er
s ak
s j
ul i
sp ru
Ġ1 3
var ande
ĠfÃ¶r b
ett a
Ã¶d er
Ã¤r n
Ġav rinningsomrÃ¥det
ed er
t og
Ã¶ t
ĠS ven
Ġvar it
o ur
Ġing Ã¥r
Ġg ick
ĠT h
o ci
y sk
am ilj
Ġa p
s pel
b um
an ns
ĠN e
o u
ter ade
Ġfl yg
er ar
m ark
l ade
Ġ18 6
ut om
Ã¶ m
Ġin d
r il
er at
Ġde c
Ġfl ytt
spru ng
v an
Ã ¼
Ġm aj
b ygg
ter na
iv a
Ġf Ã¤r
Ġf or
Ġl Ã¤r
ĠF l
la ss
ĠD el
Ġt e
Ġsock en
n are
ĠstÃ¶r re
Ġs Ã¤son
ĠfÃ¶r l
ĠnÃ¥g ra
s y
g el
Ġsk a
l as
Ġst Ã¤ll
mer ik
Ġm ark
Ġp re
ugust i
Ġpro du
Ġu nivers
Ġv Ã¤l
ar a
Ġa ugusti
r al
ation er
e y
Ġj uni
Ã¤n de
id a
rik t
Ġ 000
Ġe g
s fÃ¶r
Ġv ann
ĠSt or
Ġn ov
rÃ¤ ck
Ġst ud
Ġl Ã¤m
Ġverk sam
Ġ18 7
Ġhel a
Ġ er
Ġm ars
ist a
ĠD etta
ar ri
Ġ 0
Ġf anns
ĠfÃ¶r et
Ġkomm er
ĠG e
Ġf olk
ĠK arl
Ġv Ã¤g
ig het
Ġg av
Ġinneb Ã¤r
ĠA d
on d
on g
ind re
h Ã¶j
Ġv iss
ĠH istor
omm un
fÃ¶r des
na der
Ġa merik
Ġo ff
at or
Ġsk rev
v al
ĠE l
Ġbar n
Ġmed lem
Ġv Ã¤x
ĠU pp
Ġj uli
l ut
u pp
ĠS am
re kt
1 7
Ġupp g
m Ã¤n
Ġc ent
Ã¶ v
Ġt rÃ¤
Ġp art
Ġdec ember
Ġo kt
v att
Ġfy ra
Ġur sprung
Ġe gen
ept ember
s n
Ġnamn et
Ġ ra
er t
un n
ion er
Ġ rÃ¤tt
ĠT ill
Ã¤ der
ing s
Ġf em
Ġokt ober
Ġh ennes
Ġs eptember
Ġall t
" ,
y l
e c
ĠD Ã¤r
Ġm indre
Ġm ilj
il t
Ġ ch
p t
ĠbÃ¥ de
Ġtot alt
ĠfÃ¶r fatt
ĠO m
a pp
ĠS M
te borg
Ġd om
eb ru
Ġk ilometer
Ġsk ol
ĠP ar
q u
Ġbar a
in e
Ġa kt
Ã¤ s
arri Ã¤r
Ġan t
b and
Ġp ar
Ġstad en
Ġm edel
ĠfÃ¶r ek
g ar
Ġg Ã¥r
Ġap ril
ur g
u ss
Ġspel ade
ĠnÃ¥g ot
Ġ1 1
ĠB i
j Ã¶r
ebru ari
Ġr el
Ġ2 0
Ġbl i
ĠÃ¥r s
ĠC arl
r and
Ġpro f
Ġtill hÃ¶r
ĠGÃ¶ teborg
on s
v a
Ġst at
Ġf Ã¥r
an a
sk ri
Ġf ebruari
Ġl Ã¤n
Ġsk ap
pl ats
Ġb ak
Ġt ro
Ġnov ember
Ġv ikt
ell er
strÃ¶m s
Ġt v
in t
ĠM edel
Ġk var
r et
Ġom fatt
r ade
ĠE urop
is m
ĠDe ss
Ġf ran
e j
ĠÃ¤ ld
tern ation
Ġin vÃ¥
Ġ rad
ĠM an
Ġk m
ĠF in
Ġc ir
ot ter
Ġpl an
ĠJoh an
t es
Ġh us
a ch
Ġsam man
et enskap
ĠdÃ¤r efter
Ġunivers itet
Ġk ort
iv it
or p
ĠÃ¤ nd
em ent
ĠanvÃ¤nd s
yr ka
Ġf ar
Ġh jÃ¤l
st ra
kt e
Ġ ark
m et
ling en
Ã¤r a
p ro
ade ls
Ġkall ar
ĠO r
Ġs er
ek n
Ġst uder
b o
ĠS h
Ġmest adels
ĠstÃ¶r sta
Ġl Ã¥g
id an
ol d
Ġyt an
Ġ âĢĵ
Ġfil m
ĠO l
re g
Ġf ot
Ġre s
i us
Ġt jÃ¤n
ĠD an
Ġb ok
Ġd eras
Ġmed an
ult ur
Ġn ed
Ã¤r sk
Ġen d
Ġtill b
i um
il it
on er
Ġt a
ĠGu sta
Ã¤n t
Ġ% .
ĠE tt
1 6
Ġ et
l Ã¤nd
Ġv in
rÃ¥ d
Ġor gan
t rÃ¤d
Ã¶d ra
ru kt
am la
r om
v in
al s
Ġm oder
yt or
ĠinvÃ¥ nare
Ġs Ã¤tt
Ġb el
Ġst art
hÃ¶j den
or k
ĠA nd
H I
Ġn Ã¥r
ord ning
Ġupp strÃ¶ms
ra s
Ġend ast
Ġvatt net
iv t
Ġre ger
Ġprof ess
Ġr om
sk riv
ĠomrÃ¥ det
ak a
ĠSM HI
rik e
Ã¶p ro
Ġdel avrinningsomrÃ¥de
Ġ% ).
ĠF rÃ¥n
o den
1 5
e ver
ĠDel avrinningsomrÃ¥de
ĠNe w
Ġl j
Ġf ast
Ġslut et
Ġvatten ytor
am ot
Ġa d
Ã¶pro cent
Ġf amilj
Ġsj Ã¶procent
Ã¤ sta
Ġb il
h Ã¤ll
l Ã¤gg
op ul
Ġt ur
fÃ¶r ande
Ã¶ g
o de
n Ã¤r
ĠMedel hÃ¶jden
Ġm Ã¶j
Ġk Ã¶p
ĠFran k
Ġp o
Ġn atur
ĠM ed
ĠB l
Ġ18 5
it s
ĠN y
Ġm Ã¤nn
ĠfÃ¶rek omm
Ġt he
en d
k ring
m i
Ġp ubl
Ġv on
Ġcir ka
ĠA ll
Ġvatten drag
skol an
f ar
Ã¥ d
n Ã¤m
Ġn ord
Ġn ation
g Ã¥rd
rÃ¥ g
Ġefter som
ĠI I
Ġr edan
Ġgen er
Ġin v
Ġkv inn
Ġdel en
Ġl ok
ĠN ord
Ã¤n des
ĠS om
Ġg e
ĠnÃ¥g on
Ġkom p
Ġ are
olog i
un t
Ġvil ken
sk e
Ã¤ kt
j ekt
Ġb if
Ġ Â
Ġan tal
Ġ âĢĿ
g e
stÃ¥ nd
ĠslÃ¤ pp
h er
at an
l opp
i z
ĠF il
Ġen ligt
ig heter
Ġs ista
re k
al ist
Ġst ort
Ġfl er
al d
Ġs ex
rinningsomrÃ¥ den
Ġmat ch
1 4
Ġdel ar
k Ã¶p
Ġ2 5
Ġf all
Ġ3 0
Ġbet y
it ekt
ĠÃ¶ v
r yck
ĠE ng
Ã¥ ende
Ġb ev
Ġg od
ĠÃ¥r en
am en
Ġe m
iv e
b ruk
p art
Ġk at
Ġgru pp
rÃ¤ k
a x
Ġl yck
ol f
en ing
Ġf ri
k ade
ĠK l
ig en
Ã¥ s
al v
Ġk rig
Ġsm Ã¥
2 00
o ss
Ġ201 0
Ġk raft
ĠK on
sl ut
en a
ĠT ysk
Ġav rinningsomrÃ¥den
Ġj ord
ĠmÃ¤nn isk
Ġs Ã¤rsk
Ġt Ã¤v
min ist
Ġs Ã¤g
ĠfrÃ¤m st
b land
Ġ18 4
Ã¶ tt
Ã¤l t
Ġn um
Ġtid en
tal ien
Ġfl Ã¶d
ĠÃ¶ pp
Ã¤st ra
Ġn er
Ġt al
Ġm itt
Ġb i
ĠF red
k omm
st it
Ġav vatt
ĠhjÃ¤l p
ag n
i de
Ġrik s
ĠhÃ¶g sta
ĠT V
b ol
Ġg ift
Ġbif lÃ¶
ĠflÃ¶d ar
ĠK ung
Ġavvatt nar
Ġi d
en ne
y p
ĠfÃ¶r e
ĠSverig es
e sta
ĠBi ografi
des ordning
ĠbiflÃ¶ desordning
Ġu nd
it y
Ġsk riv
in s
Ġs ak
Ġs n
a z
Ġj Ã¤rn
t on
els er
ll en
Ġsk ri
Ġr Ã¶r
Ġom kring
ning arna
l ades
hus et
kon om
Ã ¡
Ã¤g en
ĠA nder
ĠL und
Ġ200 6
erna s
ag en
Ġkall as
ĠB e
f in
Ġs Ã¥ng
Ġsj uk
Ġs oci
lig are
s g
f Ã¤r
Ã¥ ller
Ġb as
Ġhel t
Ġfor sk
ĠG en
Ġviss a
m Ã¤rk
or e
ĠC o
j ort
Ġi dag
Ġp opul
ĠB o
er ens
s st
Ġin fÃ¶r
Ġm ilit
em per
sk riget
Ġg amla
lig het
Ġupp t
or ter
ĠStockholm s
Ġ200 8
amn et
Ġfram fÃ¶r
Ġ200 7
Ġh ur
ĠdÃ¤r fÃ¶r
Ġru nt
Ġk ap
h a
ru n
ill a
Ġk ro
ande l
ĠsÃ¤son gen
Ġ200 9
Ġl Ã¥
Ã¤ d
Ġall mÃ¤n
Ġb ruk
ĠL a
Ã ¸
Ġorgan is
h am
ĠgÃ¥ng en
Ġdi rekt
Ġh Ã¥ll
l an
ĠE d
stÃ¤ll et
org e
ok rat
f il
Ġ w
Ġde b
ĠH en
id en
e ci
Ġut bild
Ġal bum
i pp
Ġm et
pl an
al k
id ent
ĠA B
y ss
t or
Ġbl ivit
Ġr ed
un det
ĠH er
la c
m e
l er
ĠP ro
ser v
ĠnÃ¤r a
Ġen gel
Ġo b
ul d
Ġ X
ĠbÃ¥ da
i el
ling ar
Ġperson er
Ã¶ st
Ġsam band
Ġtill verk
rÃ¤n s
f all
ĠSven ska
ĠÂ °
Ġe konom
Ġp er
Ġd otter
Ġh enne
Ġing a
b oll
ad en
c en
Ġbygg des
Ġt red
Ġtillb aka
f ors
u e
Ġv ad
n es
ĠP er
1 3
ĠM alm
ĠHistor ia
Ġinne h
Ġpro g
ĠfÃ¶rekomm er
Ġstuder ade
at en
ĠB ar
des pel
ĠÃĦ ven
Ġkyrk an
k e
Ã¥ despel
ĠgÃ¥ng er
ĠE rik
Ã¶ s
Ġar m
ĠJoh n
Ġu tt
Ġyt ter
Ġb ort
i ot
j er
v id
Ġh Ã¶r
s ala
skol a
use um
ĠP ol
Ã¥r den
Ġg Ã¥
u re
ist rikt
Ã¤ ss
ĠPar is
ef olk
yd d
Ġvil ka
satt e
ut veck
Ġ201 1
Ġv it
Ġdel tog
b ar
al is
ĠI nd
n ande
al er
at a
ĠTysk land
Ġs Ã¥l
ĠgÃ¶r a
sk ommun
Ġh ot
Ġkommun en
j Ã¶n
j Ã¶
ĠBer g
Ġfram gÃ¥ng
emper atur
Ġvar je
k el
Ġi gen
im at
Ġst yr
ĠM en
Ġty ska
Ġ ers
ft en
Ġk lass
ĠH e
Ġk rit
Ġn Ã¤m
s ch
ĠK rist
ĠR e
Ġk ring
skap et
Ġkl ubb
Ġled amot
a sk
Ġ200 0
Ġt it
Ġkun na
l den
Ġut fÃ¶r
ĠtjÃ¤n st
Ã¥g s
Ġ2 2
Â ²
Ġr ikt
Ġin ternation
Ġm iss
Ġs eg
t ag
ĠS l
Ġ2 4
rik a
b urg
am er
Ġprofess or
Ġkall ade
Ġut b
Ġ18 3
l ek
Ġa m
ĠH ar
Ġan nan
raf ik
art yg
Ġsy d
ĠUpp sala
Ġflytt ade
els ing
ĠDen na
ĠR o
k er
del se
res ident
ĠÃ¤ld re
ri c
ĠS an
Ġled de
stit ut
Ġmed verk
Ġvid are
Ġf ull
ĠB land
ĠÃĸ ster
ĠNor r
Ġut s
Ġm or
am ent
ĠSt at
s var
r ades
u x
ĠI s
ĠS a
Ġfil men
ĠfÃ¶rs var
Ġs Ã¶dra
1 2
ĠS edan
Ġsv art
Ġprog ram
Ġbr itt
ic e
b an
and er
Ġty sk
n u
ing ar
Ġl Ã¤g
Ġn Ã¤st
Ġutg Ã¶r
ĠFrank rike
Ġkonst nÃ¤r
id igt
ap en
Ġbild ades
Ġ y
Ġtill f
h el
y nd
Ġs na
Ġpubl ic
lopp et
ĠH elsing
ĠM o
i x
Ġk ultur
rÃ¤ v
ĠfÃ¶r m
Ġt ex
ĠS te
Ġm Ã¶r
r or
Ġber Ã¤tt
1 0
Ġ200 5
u c
Ġbes lut
p ort
Ġint ress
ĠÃ¤ m
ĠP eter
arna s
g Ã¶r
Ġ196 0
Ġv Ã¤n
Ġ197 0
Ġark itekt
Ġb en
Ġnor ra
Ġsp eci
Ġord fÃ¶rande
Ġp rÃ¤
i at
Ġ201 6
Ġ201 2
j u
Ã¶ ck
rog ram
19 9
ĠÃ¶v rig
Ġh itt
ĠP a
Ġl ev
rÃ¤ ng
hÃ¶ ll
Ġst en
ĠL in
Ġj Ã¤m
Ġt er
bl em
berg s
Ġre v
ven t
on en
r ans
Ġber g
ĠfÃ¥ tt
kl ar
Ġ2 3
ĠEn ligt
Ġ199 0
Ġan stÃ¤ll
5 0
2 0
Ġarbet ade
Ġch ef
and en
ĠslÃ¤ kt
far ande
c o
Ġk ol
Ġi stÃ¤llet
unkt en
y ska
Ġk ron
Ġk ar
Ġsna bb
Ġk Ã¶r
ĠÃ¶ ster
Ġt eck
Ġp ass
Ġ201 4
Ġsk Ã¥despel
in er
ĠS Ã¶der
Ġt rÃ¤d
p Ã¥
Ġin led
l ad
Ġk yrka
2 01
v Ã¤x
Ġk or
Ã¶ kte
Ġ18 00
Ġriks dag
r ets
v e
ĠA nt
Ġsp rÃ¥k
ĠI ng
Ġl ever
Ġtred je
i j
Ġfl esta
Ġing en
Ġ Q
Ġare an
ru pp
est er
iv is
os of
ĠmÃ¥ ste
v et
ĠR om
ĠA m
Ġutan fÃ¶r
g ick
Ġst Ã¶d
Ġp lac
Ġs ol
Ġ198 0
ri m
ĠÃ¶ n
Ġd o
att en
Ġl Ã¤nder
sen ter
ari e
Ġl Ã¥t
am mar
ĠCh rist
Ġst rid
Ġ &
Ã¤st are
Ġsam hÃ¤ll
g a
Ġ2 8
c ess
Ġen da
g iv
Ġny tt
at et
Ġamerik ansk
ĠH and
utveck ling
ab rik
Ġ19 00
ar m
Ġg Ã¤ll
Ġoff ic
ĠEurop a
ĠDess a
Ġt ekn
kt ion
ĠB en
rÃ¥ det
Ġs Ã¶der
Ġa ck
ĠT ro
t h
Ġb y
Ġ2 6
Ġ2 7
Ã¤ng d
sn itt
kt or
Ġfort farande
g i
ĠlÃ¤ng re
Ġ rÃ¤k
Ġp eri
ĠFin land
l ev
ust ri
ĠT e
Ġb and
Ġ201 3
al j
Ġ200 4
id er
et ter
w e
Ġb ed
ĠsÃ¤rsk ilt
Ġty p
u nder
Ã¥r en
b art
f Ã¶lj
Ġland skommun
ĠvÃ¤rld skriget
Ġt rad
Ġr it
org an
ul erade
Ġrep re
ld rig
ĠB efolk
l ats
Ġmedel tid
ig h
y ll
ĠfÃ¶rfatt are
j ut
Ġsamt idigt
ĠC ar
ch en
Ġl andet
ĠK yrk
ĠN il
um ent
Ġm Ã¤n
Ġin s
s man
r Ã¶r
ĠH el
ĠsÃ¥ d
Ġnor r
Ġv ers
ĠfÃ¶ret ag
at h
ri sk
o ff
ĠU nivers
s d
Ġi m
y stem
Ġsl ott
g ren
Ġ2 1
ĠÃ¥ter v
st Ã¤nd
ĠT id
Ġvar s
Ġg rav
att e
ĠY ork
u ter
ĠE x
m Ã¥l
gru nd
Ġanv Ã¤ndes
19 7
i ens
n ades
ĠkÃ¤nd a
ĠdÃ¤r med
eri e
k ar
Ġa ldrig
Ã¤m p
ef Ã¤r
sp ekt
Ġlit ter
Ġb id
Ġsk all
ĠR ef
ĠS m
Ġf rÃ¥g
b in
ĠW ill
k ter
Ġamerik anska
Ġs ek
a f
Ġm on
19 8
p h
Ġytter ligare
minist rat
Ġd ra
sj Ã¶n
ĠÃ¥r et
Ġnu varande
ĠD Ã¥
mi Ã¤r
h amn
or i
Ġ199 9
Ġsam arbet
Ġmilj oner
v ik
Ġmilit Ã¤r
Ġsj Ã¶
ĠMalm Ã¶
Ġhistor ia
ĠfÃ¶rl or
Ã¶r en
t rÃ¤
Ġfran ska
l und
S E
ol it
Ġst od
b ro
eri al
Ġk arriÃ¤r
o ende
Ġlj us
jÃ¤r n
re pp
Ġb Ã¤sta
ol ut
j et
if te
Ġfort satte
i am
k an
Ġs idan
Ġsl ag
ĠL ond
Ã¤m t
Ġsy stem
ĠU n
Ġk riget
Ġh amn
ĠĠ ĠĠ
ĠB r
k or
Ġin fl
a w
c t
t ill
it ter
Ġhuvud sak
Ġro ll
Ġd jur
s c
ĠGusta f
Ġi bland
Ġbe skriv
an c
Ġack um
ĠDan mark
ĠfÃ¶r v
Ġ201 5
Ġru m
is a
Ġsy n
ĠK al
Ġ1 00
ĠEng land
rakt en
ber t
ĠV Ã¤ster
Ġ195 0
de m
ĠB ro
ĠL and
19 6
ĠL ind
Ġp resident
Ġfil osof
. .
Ġl u
Ġh Ã¤n
om b
Ġb ek
Ġg jort
ĠN ation
Ġackum ulerade
Ã¶ ver
ĠT or
Ġvikt ig
i re
ar in
en ingen
u den
ĠlÃ¤m nade
ĠÃ¥ l
Ġs Ã¤k
ĠE r
Ġsv Ã¥r
Ġ200 2
jÃ¤r nen
ĠBefolk nings
ĠLond on
Ġv etenskap
v ist
ĠM a
Ġv ia
on e
ĠS en
Ġ18 2
ĠW il
ĠhÃ¶ ll
emperatur en
ĠAn talet
h ov
Ġk Ã¤n
Ġans var
ig ur
ĠC on
o x
ĠvÃ¤r lden
Ġslut ade
ĠBefolknings utveckling
Ġuppt Ã¤ck
il da
ĠV Ã¤r
Ġin ter
Ġh er
Ġ2 9
Ġbe hand
ĠMar ia
ĠsÃ¥ som
ĠBer lin
v ig
Ġstad s
ĠH all
ĠfÃ¶rs Ã¶k
and ra
ĠFred rik
Ġkall ad
ĠmÃ¤nnisk or
sk an
ek ter
Ġs e
Ã¥ tt
Ġp riv
Ġg ifte
Ã ³
om p
ad s
Ġh alv
i erna
ist iska
Ġunder s
re p
ĠÃ¥l der
Ġh ov
Ġeg na
ĠRef erens
ĠR os
Ġvis ar
sam het
Ġsk ick
ĠfÃ¤r g
Ã¤nd a
v Ã¤l
Ġp ris
Ġtrad ition
ag e
m at
o od
Ã¤k nas
N SE
Ã¶ck er
rit ann
it h
Ġm Ã¶
NSE E
iv et
Ġinneh Ã¥ller
Ġp unkten
n y
Ġr Ã¶d
Ġr en
Ġgrund ades
Ġmitt en
ic a
Ġstud ier
ig e
ĠP h
al e
inn er
lÃ¤nd ska
Ġc a
Ġv eck
Ġ200 3
gru pp
Ġg Ã¥rd
eb ygg
Ġt ar
' s
ĠM ot
Ġverksam het
Ġbr or
Ġ18 0
ĠjÃ¤rn vÃ¤g
en ter
rÃ¶ n
ad a
Ġb org
Ġ17 9
Ġsy m
Ġsk iv
Ġt on
ĠStor b
isk op
Ġl Ã¤tt
ĠD av
Ġsj u
ĠnÃ¤r m
ĠV Ã¤st
os it
red ning
Ġv Ã¤ster
ing e
f or
j en
Ġt ag
Ġuppg ick
ĠnÃ¤st an
ĠomrÃ¥ den
Ġst ra
Ġo per
ĠE m
eri et
Ġ197 1
o ver
Ġo van
3 0
Ġ5 0
Ġst Ã¥r
u sk
ĠStorb ritann
19 4
ov jet
der n
Ġav s
Ġan g
rÃ¤tt ades
ri ch
jor des
an ter
os ition
st id
ott en
Ġlyck ades
Ġl in
Ġvill e
ĠCh arl
o c
Ġav slut
Ġh Ã¤l
og s
Ġut nÃ¤m
Ġengel ska
Ġarbet e
Ġexempel vis
h em
Ġind iv
ĠS c
Ġkont ro
if rÃ¥n
ion s
Ġv i
ĠM ich
Ġtillf Ã¤ll
ĠN orge
7 0
ĠJ on
ĠJ os
ĠN amnet
Ġspel a
Ġs Ã¤ll
Ġp rin
ĠM on
Ġprodu c
Ġung efÃ¤r
Ġh Ã¤st
ill e
st ol
u terade
ĠJ an
ĠH Ã¤r
ej s
av s
1 1
Ġbe hÃ¶
Ġb red
t emperaturen
Ġpro blem
b undet
Ġb rÃ¶
Ġupp fÃ¶rdes
Ġp ort
Ġs ing
Ġb os
ĠS u
Ġ% )
ans en
Ġ195 2
ĠtillhÃ¶r de
ĠÃ¶vrig a
ĠHand ling
Ġbet yd
Ġi h
our n
ĠGusta v
Ġupp drag
Ġbest Ã¤m
ĠUt loppet
as h
olog iska
Ġbygg nad
Ã¤l j
Ġst rÃ¤ck
Ġrel ig
Ġst ats
e pp
Ġrom an
ĠR yss
ĠslÃ¤pp tes
Ġ na
Ġbef olk
j up
sy k
Ġ200 1
Ġe ff
Ġ193 0
ff Ã¤r
Ġpolit iska
Ġtr ol
Ġfot boll
ĠhÃ¶ j
Ġ rÃ¥d
ĠB jÃ¶r
Ġd og
samling en
rik es
l at
h istor
Ġpre miÃ¤r
kÃ¶p ing
ement et
b ok
omrÃ¥ det
and id
ĠfÃ¤r d
Ã ¨
Ġd u
Ġel ekt
Ġdag ar
ĠE k
is h
in ska
sÃ¤tt ning
att es
j ord
Ġ192 0
Ġt or
Ġst ark
Ã ¦
ĠPa ul
Ġt rakten
Ġex p
ĠÃĸ st
Ġl Ã¤k
ĠV ar
Ã¥ nd
b il
a bl
ro du
ĠK Ã¶p
Ġf jÃ¤r
Ġlit en
ĠM art
ag er
on i
Ġm ode
ĠR Ã¤knas
Ġst il
Ġvar av
ĠÃ¤n nu
in al
hel m
Ġg l
o ut
Ġ201 7
Ġj ag
ĠhÃ¶g re
in o
i ber
Ġg amm
Ġb ost
e iska
ring ar
trÃ¤d de
Ġb or
ur en
ĠfÃ¶r hÃ¥ll
ru s
Ġm akt
Ġutveck ling
ĠI talien
ĠK an
ad er
a i
ĠR eg
Ġkvinn or
Ġpro cent
Ã¤l d
h av
Ġpo Ã¤ng
ande ts
bl iot
h l
Ġde s
Ġtr ans
Ġung dom
Ġf isk
oll eg
Ġoft ast
c is
est iv
em ot
ĠU ng
k ur
ĠS er
el t
or a
b j
ver ket
ĠavrinningsomrÃ¥den a
ĠF ri
ĠomrÃ¥ de
ĠJoh ann
19 5
ĠGen om
ministrat iv
Ġg em
ĠA b
arl ament
res ent
Ġtro ts
Ġvan ligt
ĠStorbritann ien
Ġor sak
Ġstart ade
Ġin kl
2 5
ĠS e
lÃ¤nd sk
en te
Ġf ung
Ġv er
ĠAn na
p en
Ġ17 8
er ska
Ġk Ã¤r
organ is
ĠfÃ¶d des
yn nar
ĠU l
ĠF or
it z
Ġha ft
Ġut stÃ¤ll
Ġmot or
ark en
Ġk rist
al bum
sk att
Ġkon s
Ã¶ sa
ĠH am
Ġp en
ĠAnd ra
Ġtv ing
Ġv apen
Ġsk ill
ĠA ng
Ġkro pp
i as
Ġf artyg
at ern
sp ir
ĠsÃ¤g a
Ġrepre senter
Ġmedverk ade
Ġ194 0
Ġmedlem mar
or den
Ġlik som
Ġmed ic
ĠKon st
Ġpolit iker
Ġk opp
y kt
Ġsom m
Ġmatch er
ĠanvÃ¤nd a
o ster
hÃ¶ g
Ġu n
6 0
Ã Ń
Ġnum era
bliot ek
Ġi talien
v Ã¤nd
ĠanvÃ¤nd as
ĠfÃ¶r Ã¤nd
b e
Ã¶ ka
Ġt j
Ġvan lig
Ġb ra
i ver
ĠHelsing fors
Ġans es
Ġ199 8
ig heten
4 0
ĠR ik
Ġm ag
Ġfler tal
ĠK ar
Ġupp mÃ¤rk
Ġ4 0
Ġb ru
ĠsÃ¤son g
Ġav led
ĠC l
Ġ201 8
it ar
7 5
Ġa f
Ġursprung ligen
Ġvar andra
Ġoffic i
ĠWill iam
ver n
f ull
ĠStor a
ett e
Ġm Ã¤rk
Ġlitter atur
ĠAl ex
i es
ĠI F
Ġreger ing
Ġr Ã¶st
ch e
am es
ĠGÃ¶teborg s
Ġsam ling
19 0
Ġin f
ation s
ĠV al
nd a
o j
ĠsjÃ¤lv a
ch er
sj Ã¶
Ġk ust
Ġh und
7 2
Ġart en
Ġk Ã¤ll
Ġkomm a
Ġ3 1
Ġv Ã¤stra
ser ien
6 5
ĠS v
er ingen
akt Ã¤r
k n
om en
ĠR ober
Ġupp fÃ¶r
in es
ist an
et a
Ġl Ã¥nga
Ġdess utom
Ġjord bruk
ig n
ĠK at
ĠSt en
Ã¤r t
Ġex t
Ġdel s
19 3
el d
ĠS j
ĠS y
sl aget
bygg nad
kade m
Ġk n
Ġre spekt
Ġc m
ĠÃ¶ stra
Ġoff ent
Ġt Ã¤ck
il a
ll a
in na
Ġb andet
Ġfran sk
Ġut om
ĠS yd
sm edel
ĠGe org
r eter
ĠC ol
Ġl ika
ens am
b und
Ġgenom fÃ¶r
em pl
l es
v i
ar kt
Ġh Ã¥r
Ġvis ade
Ġsk ydd
Ġbak om
i ff
Ã¤nn er
ĠIn ternation
Ġg rÃ¤n
il ver
. "
Ġin form
n des
Ġy ng
t n
ru st
ĠAnder s
Ġgru ppen
Ġ17 00
Ġpol is
Ġklubb en
ag a
Ġbritt iska
Ġmoder n
Ġf Ã¤ng
Ġb ol
ĠRyss land
ust ral
sp rÃ¥k
Ġcent r
u na
ĠvÃ¤x te
Ġtr yck
ĠmÃ¥ nader
sk ar
ed de
e an
Ġkv al
or is
Ġk ejs
om as
Ġd ubb
Ġs cen
Ġreger ingen
un k
Ġeff ekt
6 3
Ġsk ad
b i
Ġn orm
ĠH a
ĠT ur
Ġ '
Ġ199 4
od de
il e
ĠH Ã¶g
Ã¥d de
Ġbeg rav
r arna
sk og
Ġeg et
le y
Ġj ur
Ġp ast
ĠUnivers ity
ĠfÃ¶r es
Ġg uld
w ard
ĠJ o
Ġ rÃ¥
ĠII I
d jur
ol a
ĠlÃ¥ ten
Ġf red
6 8
ĠFil men
Ã¤t ter
Ġd istrikt
Ġgener al
Ġs Ã¥g
talet s
Ġk andid
ĠKung liga
Ġanv Ã¤nder
ivis ion
ĠpÃ¥ verk
ĠlÃ¥ng t
Ġinternation ella
Ġf unkt
Ġr yska
ol v
Ġkall ades
em Ã¥l
fl yg
re m
6 9
ĠH ennes
Ġp rakt
Ġp ost
ĠtrÃ¤ ff
or er
ĠM ellan
18 9
ĠAr ten
Ġ5 00
Ġtex t
ĠR a
iv Ã¥
Ġin st
te ck
ĠÃ¶ k
g on
Ġm ak
Ġtog s
Ġp at
7 3
Ġ199 7
man n
Ġspel ar
I I
ĠfÃ¶r t
Ġfamilj en
19 2
Ġtill del
ul pt
Ġi s
ĠS im
ĠHen rik
Ġg ran
sy stem
Ġ199 2
Ġb ytt
min ister
Ġskol an
t ar
yrk an
Ġ194 5
ĠÃ¥terv Ã¤nde
Ġbe sk
Ġg rek
Ã¶ ll
pro du
Ġv Ã¤st
Ġe urop
u tt
ĠG ud
Ġ z
ĠV M
s el
Ġ rÃ¤d
Ġm a
Ġl Ã¤t
Ġomfatt ande
ar at
rott ning
Ġres ult
Ġnation al
8 0
m ot
ul a
g Ã¥rden
ĠfÃ¶r klar
Ã¶n ster
se ende
ah l
ĠK n
ĠlÃ¤ng e
Ġkat eg
Ġp syk
ent en
Ġt im
r yt
ĠKÃ¶p en
f Ã¶d
Ġ199 6
Ġind ustri
Ġinv ig
Ġd ansk
Ġvar m
Ġ199 5
I NSEE
Ġf ys
Ã¤ck en
omrÃ¥ de
Ġdel st
ĠB ak
Ġ at
Ġt Ã¤n
at ivt
dem okrat
del ning
Ġpro jekt
Ġspel ades
ck e
mark er
Ġd er
Ġb an
ĠlÃ¤r are
unn it
ĠS and
ar p
ĠbÃ¶rj ar
ĠsÃ¤k er
Ġih op
ĠDÃ¤r efter
Ġbety delse
Ġa b
Ġs id
Ġa ss
am b
Ġt io
Ġrespekt ive
ĠM e
ĠÃ¤ kt
Ġd ri
del en
Ġgamm al
b rott
Ġsoci al
ĠfÃ¶rlor ade
Ġk ors
all en
Ġm ass
m usik
ĠS und
use et
if ic
ĠB ygg
sta ur
o bb
an ien
Ġd at
Ġh ust
e ende
k all
Ġin rÃ¤ttades
Ġart ik
Ġg u
Ġakt iv
d ar
ug g
u ella
Ġs old
Ġsnabb t
ĠA ugust
ĠM c
m Ã¤stare
ĠA f
ĠL ud
Ġst Ã¤der
ĠL ar
6 4
Ġ196 2
gru ppen
s ut
an i
ĠJ ap
ĠC ent
reter are
Ġ197 4
f rÃ¥n
j ung
Ã¤nder na
Ġg jordes
ex amen
form en
Ġpart i
K r
em at
ri p
Ġen g
Ġmat erial
Ġreg iss
7 4
om in
sk l
Ġtit eln
Ġd riv
Ġbest od
Ġfin ans
is men
Ġ199 1
Ġ( "
it al
Ġsn art
ĠS al
ĠNy a
Ġsk ilj
ĠÃ¤ld sta
ch ef
Ġd isk
ĠN Ã¥g
ĠÃ¥ tta
Ġtid igt
o ol
ĠfÃ¶r est
fil m
Ġgem ensam
Ġd ok
ĠG ru
Ġarbet en
in en
Ġhistor ik
ĠfÃ¶r k
p rogram
Ġbok en
Ġb Ã¤r
Ġpro te
Ġben Ã¤m
ĠL ars
Ġs ida
ĠlÃ¤ng s
ym p
Ġlik nande
ĠRober t
ĠHistor ik
ĠDav id
x el
ĠÃ¤ l
eg el
b Ã¶rj
ĠD ag
ĠfÃ¶ret aget
ĠfÃ¶rs v
ĠM ag
kom st
ert ig
Ġnum mer
Ġkom pl
ĠsjÃ¤lv stÃ¤nd
h o
Ġ .
Ġte ater
Ġs ett
Ġb o
m ent
sl ed
Ġsp Ã¥r
ĠR ad
s ven
Ġb ron
sk ott
Ġmot svar
Ġd jup
ĠW e
Ġgav s
u el
Ã¶r d
Ġupp lag
Ġst ift
ĠA t
Ġing ick
ri ska
Ġbet rakt
j an
ĠSen are
Ã¶ ld
i fter
b en
l iv
ĠK ommun
it e
Ġall tid
Ġar ran
is e
Ġd rog
f te
Ġalbum et
ĠAd olf
Ġl eg
l Ã¤m
Ġt opp
Ġf Ã¥ng
isk e
ĠUt b
Ġsk edde
Ġf Ã¥g
ĠG l
em ente
Ġ16 00
stad s
ĠM or
fÃ¶r ening
ĠGe ografi
Ã¶r er
Ġpro vin
ĠG un
b as
on st
p ris
Ġhuvudsak ligen
ourn alist
s ats
Ġbygg nader
u ro
f Ã¤lt
Ġs ch
u ck
Ġsjuk dom
ĠM usik
it a
ĠjÃ¤m fÃ¶r
h r
ol ket
Ġn Ã¥dde
f ord
Ġbygg a
ĠB el
Ġ199 3
ĠskÃ¥despel are
ol e
b ru
c c
ĠrÃ¤k nas
ĠR ich
Ġt rafik
Ġrep resent
Ġmed del
kl ag
Ã¶ ts
Ġmin st
Ġm era
Ġt rupp
ĠA g
Ġkar aktÃ¤r
Ġpast or
g atan
ĠW est
del s
ant a
Ġarm Ã©n
j Ã¤ll
Ġperi od
Ġb rott
ort en
Ġj ud
ĠB ir
ra k
Ġb ro
Ġre staur
Ġl at
Ã¤r d
ik ter
Ġj ust
Ġl y
ĠTro ts
Ġmedeltid a
sk t
Ġfl ott
Ġd ans
ĠsÃ¥ vÃ¤l
r Ã©
ĠM Ã¥nga
ĠL ou
on om
ĠfÃ¶r Ã¤ld
Ġbety der
Ġarm Ã©
Ġtur n
6 6
Ġt yd
Ġm y
Ġb Ã¶cker
ĠJ ac
Ġh ed
âĢ Ļ
ĠQ u
ĠV er
Ġser ien
g jorde
tog s
Ġcent ral
an en
u kt
Ġk ur
ĠM agn
Ġdra bb
p ar
Ġmot stÃ¥nd
Ġyt a
Ġspel are
Ġar ter
ĠmÃ¶j lig
Ġr ym
ĠfjÃ¤r de
at e
Ġf as
yg d
ort h
Ġer bj
Ġvan ligen
Ġtrol igen
st od
2 3
k rets
Ġ Ð
er ats
Ġk rÃ¤v
Ġo p
ĠgÃ¤ll er
Ġbev ar
itet en
ts Ã¥
jÃ¤r t
Ġutt ryck
7 8
v s
Ġled are
lÃ¶ s
Ġreg el
Ã¤tt re
ym nas
y a
in i
c y
Ġl a
on a
Ġbes Ã¶k
k lass
Ġkon kur
ĠutnÃ¤m ndes
kl ubb
inn es
Ġlu ft
l andet
ĠM ark
at iv
eller tid
b el
ĠpÃ¥ bÃ¶rj
Ġinfl yt
Ġc iv
ĠhÃ¤r ad
m or
l y
Ġf akt
Ġsp rid
ag ue
ant en
Ġh opp
Ã¤l s
ĠprÃ¤ st
ĠAl f
Ġg rÃ¥
Ġ6 0
Ġm m
o ter
Ġ196 7
ĠF olk
ĠU r
Ġet abl
Ġkl ar
Ġ198 9
Ġd anska
ed d
Ġb odde
Ġen bart
Ġbild ade
ĠD al
Ġval de
Ġa ffÃ¤r
qu e
Ġanv Ã¤nde
Ġd ikt
Ġcentr ala
skap er
q vist
ĠFÃ¶r samlingen
Ġarbet ar
Ġb Ã¤ttre
Ġst arkt
Ġm ott
Ġkont rakt
r ym
em ang
ĠOl of
ĠAd ministrativ
Ġdel tag
a el
ĠfÃ¶lj ande
Ġl ades
ĠG re
ĠF er
ĠB or
Ġursprung liga
ĠP et
7 9
Ġ196 9
ĠM ad
Ġ196 8
Ġkung en
ĠDess utom
2 4
ĠE g
ĠfÃ¶lj d
18 8
Ġin spir
ĠfrÃ¤m sta
y ra
im m
na pp
ĠstÃ¤ll et
Ġp arlament
Ġkron or
Ġvar i
Ġf att
Ġunder vis
k v
ĠTh omas
Ġutbild ning
Ġin stitut
Ġt el
ĠKÃ¶pen hamn
b ut
at iva
j uk
Ġra pp
Ġl ant
b ara
h an
u ri
plats en
Ġbet eck
v Ã¥rd
Ġm ynd
l Ã¤g
ĠÃ¤g de
r ation
ek an
ĠS w
Ġ198 6
ĠT re
stad en
Ġ193 9
ĠF ram
ĠfÃ¶lj de
Ġem ot
fÃ¶r s
m Ã¤r
on y
ering ar
t ter
ĠNor ra
Ġhus et
ĠNil s
Ġav snitt
Ġpart iet
i rekt
Ġ194 4
sk ade
Ġgrund ade
Ġo d
ade m
kon st
ĠframgÃ¥ng s
Ġall tsÃ¥
2 1
Ġ197 2
Ġhand lar
ĠH ed
Ġbes eg
ĠS oci
Ġm Ã¤ngd
sk Ã¤r
sam ma
Ã¥ k
Ġh andel
Ġs var
4 5
Ġsk er
Ġtill s
o ch
ĠL iv
Ġv Ã¥
ĠT er
hand ling
ens ion
bild ning
Ã¤ster skap
Ġdeb uterade
Ġb iskop
ĠS pel
ĠLe ague
is p
Ġ197 5
Ġcent rum
ĠMart in
Ġbid rag
it ets
Ã¥ ten
Ġk ost
Ġpriv at
Ġprodu kt
Ġvar ier
ĠSp anien
ĠM el
ĠW al
we iz
on de
Ġg ud
ĠL u
Ã¥l dern
Ġkon ser
Ġm ask
jÃ¤n st
Ġg ra
it u
Ġ19 18
Ġinneb ar
ĠJ es
Ġstad ens
ĠKl imat
ĠJap an
omrÃ¥ den
kÃ¶p ings
ĠA mer
Ġupp skatt
ĠP re
stÃ¤ll ning
Ġl aget
Ġ197 9
un ionen
igh t
Ġled ning
v Ã¤st
Ġt ak
Ġbeg rÃ¤ns
ĠH us
ĠH olm
Ġeg ent
6 7
Ġ194 1
Ġen er
Ġ17 5
Ġi ll
Ġeng ag
f erens
Ġdel vis
Ġ198 2
ĠA ustral
Ġskap a
ĠhÃ¶g a
ĠfÃ¶rst Ã¶r
Ġfl ick
Ã¥ng en
ot h
Ġd ram
u det
drag et
Ġh al
Ġutg av
Ġd rag
ud d
ri ck
ne y
i ra
sk i
ĠhÃ¶ sten
Ġbel Ã¤g
am in
ĠK ro
part iet
ĠP e
Ġh Ã¤v
ĠSan kt
Ġ198 5
Ġd Ã¶m
Ġtid skri
3 5
Ġ198 8
ĠA tt
Ġsomm aren
ĠÃ¶ st
ĠÃ¤kt enskap
Ġl Ã¤
ĠR es
Ġdeb ut
ĠdÃ¥ varande
Ġ197 3
ĠCo unt
Ġhust ru
Ġ194 8
Ġ198 7
ĠWil helm
a ff
vÃ¤g en
ĠM et
ĠmÃ¶j ligt
Ġs ank
er ande
ĠUtb redning
Ġland skap
Ã¥l d
og en
ĠK ina
ef f
Ġbruk ar
Ġkont akt
sk raft
ĠS Ã¶dra
ĠdÃ¤r pÃ¥
2 9
Ġ197 6
ĠfÃ¶rs Ã¶kte
Ġsy ft
i ven
is st
ĠS ol
Ġk em
ro s
g Ã¶t
hÃ¥ll a
Ġsy ster
ĠÃ¥ter upp
Ġ194 7
Ġin spel
stÃ¥ ende
U C
ĠfÃ¶r ste
ĠhÃ¶j d
Ġreg ion
ru t
ter nat
Ġ196 4
ĠG er
Ġ198 4
Ġplats en
te x
ĠB ill
ĠF al
at iska
st ed
l or
Ġem ellertid
it ed
Ġskill nad
rÃ¥ gan
ĠP art
s ar
4 8
Ġsamarbet e
ĠS ovjet
ur t
Ġf Ã¤lt
ĠAnd re
ĠTill sammans
akt Ã¶r
2 8
p ass
Ġupp f
d ade
Ġ194 6
ĠP ort
Ġn e
ro ll
Ġv itt
im eter
Ġsk ulpt
ĠN eder
ring en
Ġin it
yt a
Ġ19 19
Ġ196 5
Ġk Ã¤nt
7 6
Ġsl og
at erna
Ã¤l ven
ĠJ ames
ĠV en
Ġsank marker
ak ter
Ã¶j tn
ĠPh il
if ier
ist en
Ġb Ã¶r
and ard
Ġt ron
Ġher r
7 1
Ã© er
ĠAnder sson
ĠC la
Ġkl ock
Ġt yck
Ġc y
it er
am a
Ġs ist
al et
Ã¥n det
ĠV il
ĠOm rÃ¥det
Ġh Ã¤ck
Ġg rÃ¤
Ġ197 7
ĠmÃ¥ naden
Ġt o
ubl ik
Ġ198 3
ĠD on
ĠM ont
ĠSa int
an na
Ã¤ sen
l et
Ġav g
Ġan slut
Ġan talet
h und
in nan
fÃ¶r et
Ġsk Ã¤r
Ġ196 6
Ġdem okrat
ĠV as
o y
Ġk amp
Ġma jor
Ġsam mans
Ġupp hÃ¶r
ĠG ra
ĠB ra
et en
2 2
Ġans Ã¥g
Ġlok ala
g ande
rÃ¥ ket
ĠSt ud
Ġstud ent
Ġid ent
Ġsk epp
Ã¶ ns
i al
l ik
ĠL ov
ĠSt ad
Ġval des
Ġ186 2
ĠM ari
ma kt
Ġ196 3
Ġfil mer
Ġj u
holm s
Ġt unn
Ġber Ã¶m
Ġekonom iska
ĠG ar
ĠG ro
ĠB ur
an o
Ġh ertig
Ġden nes
Ġj ap
it ionen
Ġuts Ã¥gs
ĠV in
Ġ196 1
ĠB Ã¥
ĠT el
UC N
Ġber oende
Ġg anska
Ġs em
Ġyng re
and s
ĠO tt
us l
ĠT im
Ġb rev
Ġvit a
Ġg rev
Ġim p
i os
Ġuppg ift
ande ls
Ġprodu ktion
ĠP ri
ĠI UCN
ung en
Ġskriv it
na st
Ġs ep
l arna
Ġn eder
âĢĿ .
Ġbl Ã¥
Ġ197 8
Ġer hÃ¶ll
Ġg ro
ĠÃĸ re
Ã¶ ter
ĠJ ean
ĠIn om
ĠfÃ¶r ening
Ġf abrik
Ġ191 7
Ġl andets
ĠfÃ¶r ut
Ġ3 5
g t
Ġam b
Ġfunkt ion
ĠTid igare
Ġlit e
ĠvÃ¤g en
yck en
ĠV an
Ġvers ion
Ġd ist
Ġst uden
p e
Ġ Ã¶r
ĠtÃ¤v ling
7 7
Ġo k
Ġstra x
Ġbl od
Ġs erie
Ġforsk ning
p unkt
3 4
Ġe j
6 2
Ã¤ pp
iss a
ĠAr t
ĠM er
rum ent
Ġd r
rodu c
Ġ erk
Ġgu vern
Ġan l
Ġs ilver
ĠA xel
Ġ194 2
Ġi cke
g Ã¤ng
Ġrel ativt
us en
Ġrev olut
Ġ191 0
Ġskol a
u per
Ġb yn
Ġr ygg
Ġin b
ĠÃħr en
gÃ¥ng en
and a
Ġers Ã¤tt
l en
u ra
Ġs ub
Ġ198 1
ĠmÃ¤rk s
ĠJohann es
Ġj ournalist
Ġ7 0
Ġlok al
ĠNÃ¥g ra
Ġtilldel ades
" )
c a
Ã¼ r
Ġdo ktor
Ġv ux
Ġ8 0
ĠmÃ¶r k
Ġo g
Ġflyg plan
Ã¤g are
Ġkol on
Ġh eter
Ġ194 3
sp lan
ĠG i
Ã¤son gen
ĠSam ma
Ġ195 8
Ġm useum
ĠEfter som
Ġsamt liga
ĠutgÃ¶r s
Ġex empl
h all
Ġkomm it
Ġ195 6
ĠR edan
ĠU ts
ĠKrist ian
Ġa g
ĠsÃ¤ker het
Ġkandid at
Ġtid ningen
man nen
Ġ193 8
Ġtill kom
ib land
ĠL ill
Ġmoder na
Ġbytt e
ĠV i
ress en
Ġspel at
ĠUn ited
n amn
ĠB re
Ġsl aget
Ġen kel
Ġ195 7
ĠSt aden
Ġliv et
Ġval et
Ġinvig des
ag o
st ill
ĠÃ¤m bet
Ġbeg repp
um p
Ġg ul
Ġ194 9
2 000
ĠfÃ¶r utom
Ġsk ild
ĠI dag
ver ka
ĠfÃ¶r eg
Ġan lÃ¤gg
3 9
Ã¤r are
ĠB ol
satt es
Ġarbet a
he im
Ġ193 6
o ft
or ld
sk ont
Ã¶jtn ant
lÃ¶ st
Ġg las
Ġl Ã¤gg
Ġhistor iska
del ningen
ĠhÃ¥ll a
ĠlÃ¥t ar
ĠB u
Ġf Ã¤st
sen terade
ĠsÃ¥d an
rukt ur
ĠÃ¶ver g
ĠM Ã¼
Ġsym bol
Ġav sk
ĠM al
ĠvÃ¤x t
ĠH o
Ġ risk
ĠM in
ad d
ĠsvÃ¥r t
dag en
Ã¶ kt
ĠL Ã¥ng
st rÃ¤ck
ock ey
ĠstÃ¤ll de
ĠO sc
Ġunders Ã¶k
Ã¤n k
Ġmilj Ã¶
ĠGe orge
Ġt Ã¥g
Ġupp fatt
am e
Ġinform ation
4 4
Ġled er
ĠÃĸre bro
ag nar
Ġm isst
n or
ĠfÃ¶rb Ã¤tt
Ġkom bin
sam m
ĠvÃ¤rld ens
v all
Ġj akt
ĠW h
Ã¤ng den
ack en
Ġ195 9
Ġans Ã¥gs
l yck
3 8
or f
l are
es lut
ĠhÃ¶ll s
ĠÃĸster rike
ĠB la
Ġd rev
Ġp app
Ġsj Ã¶n
ĠE ric
ĠC ity
ĠCount y
Ġn Ã¶d
Ġf igur
Ġ195 5
ist isk
k ro
Ġst ab
l av
ĠmÃ¥l are
ad ern
Ġ3 00
p erson
p olit
ep h
9 0
Ġ15 00
Ġt est
Ġplats er
Ġers attes
ĠSam tid
Ġt olk
l Ã¤nderna
Ġung a
Ġex per
Ġd ig
Ġre form
b ord
Ġvin ter
ter i
Ġ193 7
5 5
Ð °
ĠkÃ¤r lek
s sk
ĠfÃ¶rv alt
ed en
ĠCharl es
st yr
Ġefter trÃ¤d
Ġintress e
Ġv Ã¥r
Ġt rÃ¤n
und s
Ġbeskriv s
r ens
del sen
k ra
Ġlj ud
Ġslut ligen
ĠPol en
ĠT vÃ¥
Ġmark nad
Ġbetyd ande
Ġstor lek
ĠM at
Ġer Ã¶v
Ġskrev s
ĠRich ard
h opp
Ġb it
r ande
Ġg Ã¤st
ĠF re
verk samhet
m era
ĠD jur
Ġt ra
Ã¶ nder
Ġh um
Ġskriv a
Ġo v
Ġ195 3
Ġ195 4
out h
Ġdom in
ĠS ock
Ġs es
ill s
ĠNation al
Ġde fin
ar b
j ul
ĠV atten
n Ã¤s
ĠFl yg
ĠR ec
ĠvÃ¤r de
rÃ¤ kt
Ġbef Ã¤l
Ġnor ska
ĠW ien
Ġresult at
ĠMich ael
ĠH ol
Ġtid iga
2 7
Ġ191 4
Ġskap ade
ĠAll a
Ġdok ument
Ġl ans
Ġvan liga
Ġg rÃ¤ns
r el
ste in
Ġ193 3
ik ation
ĠG ot
ĠsÃ¥l des
Ã¥ ne
Ġe p
Ġtag it
ĠM att
Ġ192 8
Ġv Ã¥ld
c er
ĠB on
Ġfram tid
Ã¤n ts
ok us
ar n
Ġin val
isa bet
3 3
fl ytt
Ġn Ã¤t
ĠFÃ¶r sta
l aget
Ġkat ol
fÃ¶r samling
Ġg rad
ĠMagn us
fÃ¶d d
sp ro
is en
ĠkÃ¶p te
ĠlÃ¤n s
v etenskap
ĠStat us
4 9
iel d
Ġ195 1
h ard
Ġmark en
2 6
sv Ã¤g
bl ad
ĠJ ul
igheter na
or in
ĠT j
ĠVÃ¤r m
Ġinled de
ĠP at
ĠÃ¶ver gick
Ġf el
u f
Ġverk ade
Ã¶d a
Ġ191 2
ar ina
Ġrelig i
f ri
Ġspel et
Ġan al
Ġk art
if orn
Ġvarm aste
Ġt ack
Ġbi bliotek
Ġs att
ĠfÃ¶r slag
ĠT ekn
ĠtjÃ¤nst gjorde
Ġkall aste
ĠA s
om er
h ang
us ive
ĠvÃ¤l d
ĠM ynnar
vÃ¤x t
Ġ yrk
Ġ201 9
ebygg elsen
ĠlÃ¤m na
ade t
l i
Ġmedel temperaturen
ing ton
Ġval krets
ron a
ĠSamtid igt
st ud
er sk
Ġbel Ã¤gen
t ion
e z
Ġ192 4
ar ens
ĠallmÃ¤n na
ĠJ u
Ġv Ã¥ren
amer ika
ĠAng el
Ġb ad
sson s
ĠhÃ¶g t
sÃ¤tt a
ĠV ic
st ation
Ã¥t ar
Ã¥g a
Ġk oll
Ġutg iv
Ġin rikt
eb y
6 1
smedel temperaturen
pel are
org s
Ġ192 1
Ã¶ stra
Ġflytt ades
bygg naden
ĠG rand
h Ã¤ng
Ġpro cess
sm Ã¥l
ĠJac ob
Ġomfatt ade
Ġen sk
ikt en
ĠÃħr smedeltemperaturen
Ġc o
ĠB ru
ĠÃ¶ kade
5 8
ĠG o
ĠChrist ian
Ġpopul Ã¤r
sb urg
st ift
re formen
Ġint roduc
Ġgrupp er
ĠSt ra
ĠfÃ¶rest Ã¤ll
Ġarran ger
Ġav lade
Ġ192 9
Ġv ice
ur n
w a
ug h
Ġpen gar
Ġtving ades
v and
rÃ¤ ft
ĠJ ak
Ġh y
lag t
ĠEr n
ĠEl isabet
Ġfilosof ie
â Ĥ
Ġre sa
ĠFil m
Ã¶ de
bol ag
Ġviktig aste
ĠS ig
la y
ma sk
ĠfÃ¶r del
Ġst jÃ¤rn
Ġund ant
Ġinflyt ande
ĠUts eende
tal en
4 3
ĠFl era
f rÃ¥g
s in
ok en
ĠIs land
t z
sb ygg
eder mera
ik e
ĠÃ¤g g
ĠfÃ¶rhÃ¥ll ande
Ġmiss lyck
k o
Ġkraft igt
ul e
ĠfÃ¤rd ig
sp lats
Ġ ytt
Ġi de
Ġk ines
Ġbygg de
Ġdag ens
ĠB ay
Ġre k
4 7
Ġo n
Ġb Ã¤st
all er
Ġutb red
ĠfÃ¶r emÃ¥l
ĠM il
ag t
Ġ193 4
Ġdr yg
Ġlev de
ra el
ĠL ev
Ġtit el
Ġk al
Ġvetenskap liga
Ġengel sk
Ġ193 5
il en
Ġst eg
ett s
sk omm
Ġt Ã¤t
f er
Ġutveck lades
led are
4 2
Ġindiv ider
c ept
op h
ĠG ran
iss ion
Ġinkl uder
ĠP o
b or
Ġor det
Ġ193 2
Ġ192 5
Ġupp rÃ¤tt
Ð ¾
ĠÃ¶ ppen
rÃ¶ st
an er
Ġport rÃ¤tt
en g
Ġins ats
Ġant ingen
ĠN u
Ġg itar
Ġsen aste
sk on
ban an
en der
Ġden ne
Ġbefolk ningen
Ġeurop eiska
holm en
er al
Ġo ck
Ġ9 0
fÃ¤r g
3 7
ĠlÃ¤g re
ord s
Ġorganis ation
Ġkon fl
Ġl Ã¶s
ĠT om
und a
ven s
Ġomfatt ning
ning ss
ĠgÃ¥r den
k raft
ang el
Ġs ade
v Ã¤stra
Ġb ank
st Ã¥r
Ġindiv id
Ġm Ã¶tt
Ġ192 2
ac e
Ġutg jorde
3 6
Ġl opp
Ġi frÃ¥n
Ġg ymnas
8 5
ĠV Ã¤stra
Ġkateg oris
r itt
ĠI d
ĠsÃ¤g er
ĠH uvud
Ġn io
ĠHelsing borg
4 6
u ell
m Ã¤kt
ĠJ Ã¤rn
j Ã¶l
ist r
in sk
ĠP l
Ġ192 7
Ġbritt isk
ĠM arie
Ġigen om
ĠA ss
Ã¥ng are
ĠW orld
t jÃ¤rnen
ag g
Ġskri ft
ĠvÃ¤n ster
ĠÃĸ ver
ĠAnt on
Ġbygg naden
ev is
Ġitalien ska
eg er
Ġsvart a
ĠÃĸ v
Ġbr and
sb y
Ġi sl
Ġstra ff
ĠGun nar
Ġj obb
Ġverksam heten
ry ss
ĠgrÃ¤n sen
Ġd y
ĠH em
ĠB org
Ġsp anska
Ġrepresenter ad
Ġut rikes
bol aget
ĠM y
d de
3 1
4 1
Ð ¸
Ġid rott
ĠnÃ¤r heten
Ġ190 8
Ġd it
ĠSm Ã¥
Ġkrit ik
for sk
ĠrÃ¥ der
ĠN ik
kon tor
ĠAlex ander
ar ter
fÃ¶r fatt
ĠAr m
st iden
Ġarbet et
del ser
3 2
ĠÃ¶ gon
ĠÃ¤nd a
ĠÃ¤nd Ã¥
Ġ192 3
z a
ĠÃĦ l
sted t
Ã¤st aren
Ġs al
ĠJohan sson
ĠI r
ĠLou is
Ġr id
jÃ¤r na
Ġel d
Ġen t
ĠFÃ¶r et
Ġv ist
ar g
ĠMar gar
Ġstat en
Ġprin s
ĠlÃ¤k are
ĠBak grund
ĠfrÃ¥g or
ĠÃ¶pp na
Ġ192 6
Ġsk att
Ġomfatt ar
Ġav gÃ¶r
ĠM oder
an j
is ering
ĠInd ien
Ġg rÃ¶
ĠH ot
Ġmat emat
m arna
ift et
Ġ190 7
S t
ĠP ark
ĠBen gt
ĠhÃ¶ ger
fÃ¶r bundet
Ġ190 5
ĠDan iel
Ġv Ã¤ck
Ġo rig
unn its
Ã¤k are
ĠK arriÃ¤r
ex ik
Ġ193 1
i eb
ĠdÃ¤r ibland
ĠE U
al iska
ĠAl bert
lig heten
Ġal ternat
ĠNeder lÃ¤nderna
Ġrik et
j ud
Ġst Ã¤m
Ġprin ci
ĠsÃ¥d ana
pl om
Ġ190 6
Ġveck or
ĠFÃ¶r utom
Ġexempl ar
ĠF ort
ĠtÃ¤v lingen
w ood
org et
Ġ191 1
ĠfÃ¶rsamling en
ĠJ Ã¶n
v ok
Ġd rottning
Ġsy fte
n ytt
ĠM us
var d
z e
ĠfÃ¶r en
ĠsamhÃ¤ll et
ĠgÃ¥ tt
s an
b Ã¤cken
ord on
ĠNil sson
Ġut form
amer ik
Ġciv il
op er
ĠB rand
Ġm and
Ġh Ã¥rd
ĠslÃ¤pp te
Ġ190 9
im ent
b ud
n um
Ġuppg ifter
s al
Ġn att
Ġs ats
ĠfÃ¶rsÃ¶k er
Ġriksdag en
Ġn og
Ġtill stÃ¥nd
ĠD o
ĠH oll
Ġdag en
Ġbygg er
Ġs Ã¤
Ġ4 00
j us
Ġst ann
Ġen a
Ġtid ig
Ġbil der
Ġfin alen
ĠmÃ¤n sk
is erade
up en
ed ag
Ġp osit
ĠG Ã¶r
t Ã¤v
Ġe v
Ġ Ã¥ng
ig er
in der
Ġf okus
ĠN ic
ĠS jÃ¶
Ġav sl
Ã¤n kt
um b
Ġk rav
Ġkv inna
or et
Ġdirekt Ã¶r
Ġdelst aten
Ġst rand
i ella
Ġt ank
Ġgrek iska
Ġv et
Ġn ivÃ¥
.. .
all t
Ġan fall
Ġext ra
Ġm un
ĠF amilj
in av
ĠF Ã¥g
Ġr ysk
ĠKan ada
d o
Ġall var
Ġgod k
ier ade
Ġg ren
9 9
Ġf ru
k ap
at ik
al ats
ĠlÃ¤ng d
u ellt
ĠFl or
Ġh Ã¤ng
ĠuppmÃ¤rk samm
ĠT ex
Ã §
Ġpolit ik
ĠS Ã¥
Ġvar fÃ¶r
l og
Ġin del
Ġuniversitet et
Ġskri fter
rÃ¤ ff
ĠIn ter
ĠLund s
ĠRo y
ĠvÃ¤ld igt
en den
estiv alen
Ġa cc
ĠÃ¤ tt
Ġmed borg
ĠsÃ¥l de
fÃ¤r d
ĠInternation al
Ġ189 0
ap net
8 8
Ġjur id
w ay
ĠOsc ar
Ã «
ĠR am
p rÃ¥k
Ġfram stÃ¤ll
ĠA ir
ĠR ed
ĠV erk
ĠW all
in k
Ġp j
Ġdel as
ĠSk Ã¥ne
ska ff
Ã¶ arna
ning ens
Ġmen ar
ĠfÃ¶r lag
ĠFri ed
Ġing et
Ġst Ã¤ng
Ġh ette
ung a
rÃ¶r elsen
ĠN orth
ĠK a
Ġtill rÃ¤ck
ĠKyrk an
Ġ191 3
Ġs eri
r ol
Ġdryg t
ann ol
ĠÃĸ stra
ĠutfÃ¶r de
Ġvikt iga
ow n
Ġa del
Ġr ing
and inav
jÃ¤r vi
Ġk amm
Ġp ark
Ġh Ã¥ller
ĠM ax
ell e
te kn
Ġpublic erade
ĠV issa
Ġ17 0
st one
Ġd isp
Ġb al
alist iska
Ã¶n er
ĠfÃ¶lj er
Ġdubb el
- ,
ĠvÃ¤r d
Ġw eb
ras il
H L
ĠD i
Ġh andels
u ch
Ġsom mar
Ġt em
Ġf yr
T he
ust rin
ĠS n
ĠN i
Ġkonst rukt
Ġ âĢ
Ġan sl
Ġkall at
sg atan
Ġkommun al
st at
h i
9 5
sk et
arbet are
p ol
net eck
ĠLud vig
kadem ien
ubl iken
Ġst ation
Ġverk ar
f abrik
Ġd Ã¶r
d istrikt
ĠJ er
Ġfin ska
ĠU me
Ã¤ bb
Ġv unnit
Ġ191 5
Ġinne hÃ¥ll
Ġled ande
Ġmilit Ã¤ra
ĠF Ã¤r
b run
u a
Ġen sam
ĠKal mar
Ġinit iat
ĠL app
ak e
Ġkl ipp
ĠÃ¤g are
Ġfin lÃ¤ndsk
ek reterare
Ġ191 6
dom en
Ġord in
ĠSock nen
st ron
ĠL id
Ġmot s
ĠÃĸ r
ol in
Ġt ri
k var
att a
ĠfÃ¶rek om
ĠAustral ien
Ġanv Ã¤nts
Ġst andard
sm in
satt a
az z
ĠK var
Ġmin uter
ĠfÃ¶rÃ¤ld rar
Ġn omin
Ġsig n
plats er
Ġkvinn liga
Ġinkl usive
vÃ¤r d
ĠV ir
ĠA p
Ġtot al
Ġ188 0
Ä ĩ
Ġfl oden
Ġmode ll
Ġbest Ã¥ende
sm ark
red ik
ĠC an
ĠSch weiz
Ġbe hov
ro f
ĠD em
Ġundant ag
Ġsoci ala
ĠupphÃ¶r de
adem ien
Ġs edermera
ĠAr bet
ri min
Ġkan ske
ĠP rin
Ġdom stol
ĠA c
Ġp rim
ĠD ock
v akt
Ġre ste
Ġp ian
im a
Ġg Ã¤r
ter a
Ġforsk nings
ĠT ra
ast ighet
ĠAn n
trÃ¤ ff
Ġskilj er
k yrka
ĠAr k
sta ll
ĠÃ¥ter fin
m edel
Ġvis a
Ġmotsvar ar
vatt en
f Ã¥g
8 9
ĠfÃ¶rl Ã¤ng
Ã¶ ster
Ġgenom fÃ¶rdes
Ġj orden
Ġbak grund
Ġliv skraft
5 9
at Ã¶r
ut s
el ius
Ġoffici ella
Ġsp ets
olleg e
ekt iv
Ġland st
ĠmÃ¶j lighet
5 4
Ġreg emente
s idan
raf iken
8 3
ĠV is
olog isk
ska d
Ġvin na
ĠO per
an ken
Ġro llen
Ġkvar ter
Ġdom s
ĠdÃ¤r emot
Ġkap ten
o is
ĠstÃ¤ll ning
Ġpre senter
Ġt om
Ã¤ster skapet
Ġbesk rev
Ġs ovjet
ĠR ock
Ġskap ades
Ġperi oden
8 6
Ã¤tt ning
orp s
p eri
ĠS i
Ġb ot
ĠOtt o
ĠÃ¶ver sÃ¤tt
ĠS Ã¤songen
Ġfot ograf
Ġt ing
v or
ĠfÃ¶rb und
ĠJos eph
ed s
ur s
ĠV all
Ġt u
ĠSovjet unionen
Ġoffent liga
ymp iska
or it
Ġmeddel ade
ov a
ett en
Ġf ir
ĠfÃ¶r vÃ¤r
Ġfy ll
Ġt rum
Ġutt al
5 6
ĠE st
Ġguvern Ã¶r
Ġf ien
ĠC al
ĠT our
ĠberÃ¤tt ar
ĠFin lands
Ġseg er
Ġf rukt
os a
ĠÃ¶ver lev
h andel
Ġres ul
Ġk o
ĠM ac
Ġan klag
Ġtekn iska
Ġill ust
g Ã¥
nd en
Ġor t
Ġst rÃ¶m
Ġde kor
Ġin re
del ar
Ġnation ella
Ġs itu
lÃ¤gg ning
ĠprÃ¤ g
estiv al
ĠVic tor
ĠM u
ĠAl bum
Ġkommun reformen
sl o
Ġrad io
Ġforsk are
5 2
ed ition
ĠhÃ¤r st
v ika
led ning
f art
ion ens
N A
Ġut spel
ĠS V
ĠR ud
Ġf unnits
gÃ¶t land
ar v
Ġre sten
Ġutveck lade
Ġsak nar
uss en
Ġkl art
Ġk napp
ĠL os
Ġr et
Ġatt ack
st Ã¥ndet
Ġkyrk or
Ġs Ã¤ndes
ĠMÃ¼ n
i ru
un de
ro t
oll ar
8 4
Ġfl ykt
Ġut Ã¶k
ĠÃĸst ers
Ġreg istr
ĠbehÃ¶ ver
ĠJ Ã¤mt
Ġlag en
ske pp
u ru
ĠJak ob
Ġ187 0
ĠI V
g ress
Ġupp hov
ist erna
Ġmedeltid en
Ġk ult
Ġspeci ellt
k la
Ġsp ort
ĠC up
Ġex amen
s berg
Ã¥r ing
ĠBer t
Ġ190 4
Ġtro s
Ġsing el
s id
Ġsk jut
ĠHen ry
Ġe k
5 7
d al
Ġs uc
ĠVÃ¤r ld
ug o
Ġ190 2
8 2
ĠfÃ¶rfatt aren
ĠdÃ¶d a
Ġdi plom
Ġ190 3
Ã¶t ter
ĠĠĠĠ ĠĠĠĠ
Ġ15 0
ning om
ĠMo sk
ĠC omp
Ġkategoris erar
n amnet
ĠKl ubb
ĠCh amp
ell et
Ġvar e
Ġt egel
uv udet
ĠtrÃ¤d gÃ¥rd
ĠKal iforn
5 3
ĠS o
ĠK ron
l o
val et
Ġfast stÃ¤ll
Ġut mÃ¤rk
g Ã¥r
Ġel ever
Ġhem ma
g Ã¥ende
ĠK ap
ens en
sam heten
Ġd ator
Ġpublic erades
Ġut rust
Ġrep ublik
ĠsmÃ¥ ningom
Ġom giv
ĠK v
Ġn Ã¤sta
5 1
ĠEx empel
Ġbetyd ligt
om e
Ġpo j
Ġkrist na
man land
ĠB run
ĠH Ã¶
Ġgod s
Ġp ers
ĠanstÃ¤ll da
ĠKaliforn ien
Ġingen jÃ¶r
ar skap
Ġb run
Ġfem te
Ð µ
ri en
ons in
Ġcent imeter
ĠtÃ¤ck er
ast er
Ġslott et
Ġegent ligen
ĠfÃ¶rs Ã¤lj
ĠÃ¥terfin ns
ip end
Ġprovin sen
Ġlat in
Ġl Ã¶p
ĠH ag
Ġsjuk hus
arbet e
ĠBla ck
Ġbild ar
off ic
skriv ning
Ġkl imat
Ġordin arie
Ġm ynnar
Ġh ind
part ementet
Ġs and
Ġh eller
al itet
ill er
9 8
Ġkontro ll
Ġs h
Ġin fÃ¶rdes
i or
sk iftet
ic o
ĠR ep
Ġpre cis
Ġ riv
ningsomrÃ¥ de
gÃ¥ng ar
Ġpolit isk
ĠW ar
ir k
el od
er ier
ĠN o
Ġg es
g in
Ġl ade
Ġs Ã¤l
Ġm ur
Ġb ud
stÃ¤ll ningar
b ot
ĠL ik
l ande
Ġst opp
Ġb ack
ĠS el
ĠanstÃ¤ll d
Ġlivskraft ig
Ġk ast
sk ill
Ġkomp on
Ġv Ã¤gg
ĠUme Ã¥
ĠfÃ¤ng else
ĠO S
ĠZ e
ĠSv art
g as
ĠSu per
Ġson en
da f
Ġmed fÃ¶r
Ġrev s
Ġamb ass
Ġut nytt
Ġar ab
ograf iska
ĠfÃ¶rl ust
Ġstuder a
Ġprofess ion
Ġkont in
b ryt
ĠCent ral
kl am
g u
an ger
ĠÃ¥ter igen
ĠAd am
Ã¤d d
ĠfÃ¶r h
sak ademien
trÃ¤d ande
Ġmand at
d in
p ress
het s
m on
ĠD a
Ġkon serv
ĠB a
it at
Ġman us
ĠÃ¤m nen
Ġty per
Ġvar efter
in st
ĠfÃ¶r d
Ġst ycken
Ġp osition
Ġom nÃ¤m
ĠK all
ĠRad io
Ġp il
ĠF C
Ġut kom
Ġvanligt vis
sv Ã¤gen
ĠM ars
ĠB as
ĠFried rich
ĠS of
Ġkun skap
kon t
Ġ19 01
Ã¸ r
b otten
Ġv Ã¥rd
ekt or
b ott
ed da
v apen
ĠL i
ĠSt rÃ¶m
jÃ¤r nan
Ġf ack
Ġd am
Ġl og
ĠB rit
Ġener gi
m alm
ss Ã¤tt
Ġan pass
Ġsp ec
Ġut fl
ĠÃ¶vrig t
Ġm ig
Ġv Ã¤nner
Ġmatch en
rÃ¤tt en
lig aste
ĠbehÃ¶ v
Ġk am
Ġm od
Ġrikt ning
Ġmen ade
Ġkyrk ans
Ġhamn ade
Ġbron s
Ġl ek
e e
g Ã¤r
8 7
p orter
ĠmÃ¥ nad
Ã¶r de
Ġkon cent
f ot
Ġt orn
ĠvÃ¤r v
Ġbost ads
Ġupp lev
Ġtill gÃ¤ng
Ġspel aren
ĠJes us
Ġbet al
ĠB oh
bl e
ĠnÃ¤m nas
Ġst am
ĠÃ¶pp nade
akt ion
ĠRos en
au re
9 2
ing arna
Ġav l
ĠkÃ¤n sl
Ġ =
b es
ĠL illa
a sta
sm ed
Ġre st
Ġor k
d at
ent a
ĠanvÃ¤nd ning
Ġbef ord
Ġs itter
ĠO x
Ġar v
Ġreg l
Ã¤ll a
8 1
it el
Ġst yrk
Ġdel arna
Ġrepre senterade
r ett
e des
ĠfÃ¶r rÃ¤n
Ġkyrk og
ll e
Ġren over
mÃ¤kt ige
hÃ¶g skolan
g ift
an e
ag ande
Ġsold ater
Ġskri ven
Ġvarier ar
f artyg
Ġsp rÃ¥ket
ĠBjÃ¶r n
Ġv ik
ĠÃ¶ster rik
Ġrad i
Ġprote st
ĠÃħ bo
olog in
h t
ĠO slo
Ġkrist en
ĠB et
ĠC or
ĠE t
skl imat
ĠfÃ¶r bl
ĠS outh
Ġavsl Ã¶j
Ġo s
ĠH ammar
ĠLar sson
ĠErn st
r Ã¶d
Ġs atte
ĠR ob
Ġk Ã¤rn
k ust
Ġf Ã¶
Ġhed ers
Ã¥r iga
Ġsyn ner
lig gande
sch ef
s Ã¶k
ch t
ĠL jung
ĠP al
9 7
ar y
Ġv ind
Ġarbet at
ĠIn land
ĠMar c
Ġf orn
ell en
usl im
z o
am ma
ser ver
ab ri
Ġinled des
ĠL o
ekt ion
p s
Ġpubl ik
Ġl iber
ĠK e
ystem et
Ġj ul
Ġbe skri
Ġver ket
Ġk ul
Ġru nd
9 3
Ġbol ag
Ġmot iv
ĠRec ords
Ġv Ã¥g
ĠBel g
Ġor ten
Ġkyrk oh
ĠS ve
Ġd ivision
Ġtrupp er
Ġm ekan
Ġrepresent ant
Ġl Ã¶
f isk
Ġst orm
Ġupp n
Ġad vok
Ġ [
Ġm useet
Ġel ev
organis ation
ĠstrÃ¤ck er
ob ygg
ĠFÃ¶r svar
Ġro ck
Ġark e
Ġled a
Ġt olv
ĠÃ¤g nade
Ġs annol
Ġob jekt
Ġl ast
ĠD eras
ber oende
Ġprogram met
ĠK ong
ĠG Ã¤v
pris et
a in
ĠA ward
Ġb ut
Ġmusik er
as in
p o
or ier
ĠE le
Ġinne hÃ¶ll
ĠSV T
Ġreg ionen
Ġ12 00
st rid
Ġ189 7
ĠEm il
Ġ188 5
ĠC ap
Ġan ord
ĠC ollege
Ġkro ppen
ĠD u
Ġn Ã¥
Ġsocial demokrat
ĠVatten draget
Ġav veck
p an
al an
Ġal k
Ġdi al
Ã¤n na
Ġupp ror
der a
9 6
ĠH os
Ġst y
ingen jÃ¶r
spel et
Ġl ic
ĠfrÃ¥g orna
f amilj
ĠK u
are s
ĠH it
Ġm innes
ĠG rek
sl in
d am
yd de
Ġinst rument
Ġt emperatur
Ġdistrikt et
Ġupplag an
Ġkl oster
ar der
Ġsk e
n arna
ĠnÃ¤rm are
ĠS omm
ĠV etenskap
sv all
ĠJ a
Å ¡
st rand
sk ydd
ĠL ib
ĠtillrÃ¤ck ligt
um s
ĠCar ol
ĠAf rika
slag en
Ġen het
9 1
Ġoffici ellt
r erade
Ġl Ã¤s
ĠB art
ĠslÃ¤kt et
Ġs Ã¶k
Ġmots varande
y ld
ĠB ern
Ġ186 0
9 4
ĠAlf red
Ġupp lÃ¶st
ĠSk ol
Ġut Ã¶v
m ak
Ġbol aget
Ġborg er
ĠIn fÃ¶r
Ġra s
V M
ĠG amla
fl ott
Ġs an
Ġre c
r er
il de
Ġd Ã¶tt
ĠH ell
Ġbi ograf
ĠfÃ¶r de
sm Ã¤n
r are
Ġpolit iskt
ĠVar je
fÃ¶rfatt are
ĠJ ag
Ġkontro ller
Ġa ut
ĠfÃ¶r eningen
Ã¶d s
ek onom
Ġ189 9
Ġ16 0
Ġb on
ss a
Ġbost ad
sam t
b eck
Ġnor sk
ĠSm ith
ĠW ash
Ġv ide
ĠT ot
ĠfÃ¶r ed
Ġutveck lingen
p or
Ġm yt
y per
it en
p ark
ĠhÃ¶g st
ĠInland sklimat
Ġ /
Ġass ist
id s
ĠdÃ¶m des
g ent
ĠÃ¶ver v
ack a
Ġfung erar
t ra
Ġk rets
sk rona
ĠÃ¶pp nades
Ġk rÃ¤
ĠF N
ĠMar y
Ġbid rog
ĠBygg naden
ĠFran cis
Ġtill Ã¤mp
s Ã¤tter
Ġmakt en
Ġinternation ellt
al ism
ĠS il
v alt
f igur
Ã¶j d
st ens
is ch
min stone
Ġ189 5
Ġv ol
lÃ¶ sa
Ġform er
ar ab
Ġv and
k ast
Ġtim mar
Ġb otten
ic an
ĠP alm
ron t
ĠS ong
t ryck
i ell
Ġi sh
um m
ĠSven sk
ic al
k s
ĠSch ool
e h
Ġv ack
Ã¶m et
ĠkÃ¶p tes
Ġbev is
c es
ĠE uro
f eld
un na
Ġ6 00
ĠhÃ¤l ften
ĠC om
ing sl
Ġsl Ã¥
ĠAvrinningsomrÃ¥det s
ok al
ĠD om
Ġgod a
ivis ionen
ĠFÃ¶ret aget
v ju
ĠvÃ¤x ter
l Ã¤kt
Ġtr or
Ġkort are
ĠI ns
ĠIn nan
n ens
lig heter
ĠO van
Ġol yck
b ana
Ġweb b
at i
Ġav anc
. )
Ġd on
Ġutg avs
ĠAt l
m Ã¤ss
Ġ189 8
Ã¤ cks
ĠÃ¶ver sÃ¤ttning
Ġmin ska
Ġg ett
lund a
i ans
ĠN ap
stÃ¤ll ningen
u er
ĠS S
ut h
el e
Ġjap anska
Ġh Ã¤mt
ĠD es
ĠSt an
ull a
m useum
ĠÃ¶ver st
Ġbetrakt as
st ug
st il
Ġfl y
nader na
Ġred aktÃ¶r
ot yp
Ġint ill
Ġkomp osit
sst yr
ĠT o
Ã¶v d
son s
ian a
Ã¥r et
Ġsl ogs
n de
Ġbevar ade
Ġpro v
ow er
ĠJ Ã¤r
Ġs nar
Ġd Ã¶p
ĠV ill
rat eg
Ġ188 9
f aren
ĠPro du
Ġacc ep
Ġ189 6
Ġl itet
ol ag
ĠTur k
Ġsy ns
Ð ½
Ġpl att
Ġsvensk t
p a
qu ist
Ġut seende
sf isk
Ġst av
Ã¤n sl
ur er
ĠJ ord
ĠfÃ¶r el
Ġm Ã¥ng
Ġupp stod
Ġsek reterare
fÃ¶r ord
T V
Ġs attes
ed a
rÃ¥ l
Ã¤tt e
Ġbeskri ver
Ġmet all
akt ig
Ã¤sterskap en
ĠP etter
skri ft
Ġkort a
ĠT ri
ur y
ĠG al
Ġtekn ik
k at
Ġsl av
ĠS on
Ġg ott
skott et
Ġhitt a
ĠfÃ¶r f
Ġm ar
Ġop era
ĠÃ¶v re
Ġfram Ã¥t
b a
Ġan ser
Ġf ader
m un
ĠS un
ĠF ar
Ġbr Ã¶d
ĠK o
ĠL y
ĠI m
edag og
ĠH j
skri fter
ĠF o
ĠsÃ¤ll an
Ġbehand ling
Ġbek rÃ¤ft
Ġber Ã¤k
Ġf ur
ĠM iss
Ã¤ p
Ġk ra
ĠD ahl
ĠB ure
ĠÃħr et
Ġ186 3
Ġsid or
i Äĩ
k arriÃ¤r
sk rig
ĠMosk va
ĠA I
Ġbeslut ade
ag are
Ġbed rev
ĠS ing
Ã¤ ven
Ġtillb ring
system et
Ġg as
Ġmet od
ning st
ĠD ivision
Ġskri ver
ĠtillfÃ¤ll en
Ñ Ģ
Ġf olket
i ellt
ot a
ĠrÃ¶d a
Ã© r
Ġh Ã¤m
ĠnÃ¶d vÃ¤nd
Ġl Ã¥n
ind ustri
sh Ã¶vd
ham ns
" ).
sk ning
Ġco unt
ort s
S S
der na
hav are
l ov
Ġ188 8
Ġd ollar
Ġp ension
Ġelekt ron
Ġyrk es
ĠL enn
Ġfort sÃ¤tta
ĠR y
Ġunder l
Ġbes Ã¶kte
Ã³ n
Ġtradition ella
ĠKn ut
ĠH or
ĠNor den
g es
i ent
Ġrit ningar
Ġutfl Ã¶de
i ets
Ġt akt
t ysk
Å į
Ġupp e
ĠallmÃ¤n t
ĠpÃ¥ trÃ¤ff
Ġ1 000
ĠuppmÃ¤rk samhet
Ġ3 2
Ġ189 2
ĠmÃ¶r d
stud ier
ĠbrÃ¶ st
Ġsy ss
Ġhon an
Ġ ,
. ,
y llen
ĠFÃ¶r st
ĠWash ington
am Ã¥l
is on
Ġspeci al
Ã¶ nd
Ġnorm alt
od a
ĠEurop eiska
h Ã¤st
Ġs Ã¤nd
ĠHe in
el and
Ġunder hÃ¥ll
ĠB ebyggelsen
Ġbas erad
ĠStat ens
Ġkv Ã¤ll
Ġru n
ĠAngel es
ag or
Ġspel as
ĠTekn iska
ill eri
Ġb rist
ĠbrÃ¶ t
at is
an y
Ġh yll
ĠK ultur
ĠJÃ¤rn vÃ¤g
ĠsÃ¥ng er
Ġt orp
ak et
te st
ĠA k
ĠC a
bl adet
ĠY tter
Ġg raf
ut sch
Ġg at
Ġf Ã¶ll
giv are
Ġl illa
Ġupp kall
ĠH Ã¥
ek s
sy nt
Ġn eg
Ġ189 3
grupp er
ĠM aj
os fÃ¤r
Ġk rÃ¶
ĠbÃ¶rj a
ind ustrin
Ġb ebygg
ĠhÃ¤st ar
komm ande
ĠP en
ĠK or
vis ion
Ġc ell
Ġytt re
Ġ189 1
ĠB rasil
ĠhÃ¤l s
et iska
Ġsam lade
Ġlyck as
ĠframfÃ¶r allt
Ġgrev e
y pt
ĠFÃ¶r eningen
ĠM ass
Ġare a
Ġt as
ad ens
d ens
Ġv Ã¤nt
ft a
Ġsamman hang
ĠIs rael
Ġoffic er
Ġst Ã¥nd
at alj
Ġp ress
Ġstark a
in stitut
ĠR h
yd da
ĠnÃ¤rm ast
Ġrelig ion
ĠG a
ĠO ff
ĠlÃ¤m p
ĠJos ef
ĠrÃ¤tt igheter
Ġinternation ell
ĠMÃ¼n chen
els erna
ut en
Ġ4 5
ĠVÃ¤ster Ã¥s
Ġlin je
Ã °
ĠH al
ĠtÃ¤n kt
ĠÃĦl v
Ġst all
skol or
ĠfÃ¶rm od
s verk
pp ar
Ġverk stÃ¤ll
ĠVil helm
Ġab s
vÃ¤r lden
ĠV ad
ĠlÃ¤r a
Ġvis at
Ġ14 00
Ġst Ã¥
ic s
ĠfÃ¶lj a
Ã¶t et
m ode
ĠP lan
Ġsyft ar
Ġpopul Ã¤ra
Ġin slag
ĠK ol
ĠlÃ¥ ta
yp ten
ĠI NSEE
ĠC at
orp or
Ġstyr else
ark itekt
Ġkonst ru
ĠE M
A r
v ille
ĠR id
ĠÃ¶ ka
Ġs im
ĠF a
Ġstads delen
ĠK en
ĠE v
ĠR un
tid en
ĠY ou
ĠÃ¥t minstone
ĠupplÃ¶st es
ĠR en
Ġkont or
ĠAlbum et
ĠRoy al
fÃ¶r eningen
Ġkyrkoh er
Ġg ram
ĠnÃ¥g onsin
ĠÃ¶ver tog
it i
Ġst Ã¤nd
Ġpastor atet
ro llen
ĠframgÃ¥ng ar
in as
d otter
Ġinter vju
ĠJoh ns
Ġgrund en
v iken
ott a
igen om
ĠhÃ¥r t
p rin
âĢĿ ,
Ġprinci p
Ġf rÃ¥gan
ĠEg ypten
Å Ĥ
re serv
Ġmedverk at
ĠtrÃ¤d de
Ġorig inal
Ġf Ã¶nster
ig an
r ygg
ĠV Ã¤x
ĠlÃ¤g ger
ĠB ell
Ġdo cent
Ġinfl u
f en
em in
itt Ã©n
ĠT rans
Ġakt iva
Ġock up
t yr
z er
st re
Ġen s
Ġl Ã¤gen
all eri
Ã¶n st
med alj
Ġkomm ers
hand lingar
ĠStat es
irekt Ã¶r
ĠP an
ef on
Ġlik nar
s alm
ĠÃ¤nd rades
ĠhÃ¶r de
ĠLapp land
Ġs c
Ġtr ett
Ġbos att
v it
ĠEd ward
Ġb ib
sj uk
b andet
ĠrÃ¤d d
Ġe vent
ĠÃ¶ver fÃ¶rdes
ĠPri x
ĠB al
ĠÃ¶ver l
vÃ¥ ra
Ġbed Ã¶m
sp art
Ġ8 00
Ġs Ã¶ner
Ġbl omm
nÃ¤m nda
Ġvis ades
Ġ188 7
ĠlÃ¤gg a
ĠF orm
ost ret
at isk
ss am
Ġm use
Ġmed vet
Ġinb Ã¶rde
Ġreligi Ã¶sa
ĠÃ¶ver t
Ġo pp
reg emente
Ġslag s
Ġrym d
el in
v ide
g ran
Ġut red
us in
Ġteck en
Ġna z
Ġf ann
sÃ¤tt ningar
Ġ185 0
ĠfÃ¶rb in
r ats
ĠC as
Ã¤tt a
s av
ĠeftertrÃ¤d des
Ġav stÃ¥nd
Ġa u
ĠL or
Ġtidskri ften
Ġst Ã¥l
ĠJon as
ĠSk ott
els ens
ĠfÃ¶r ber
ĠM ur
Ġs ent
Ġitalien sk
Ġanslut ning
ter ing
ir ig
rÃ¶ j
Ġ189 4
Ġt vÃ¤r
Ã¤k er
ĠL Ã¥ten
Ġsp ekt
Ġber or
ĠsÃ¤son ger
Ġs Ã¶kte
ik ern
Ġkommun er
Ġmedic in
Ġ188 4
Ġtunn el
Ġklass iska
i era
Ġut e
Ġan lades
ĠL es
Ġkines iska
Ġa stron
Ġekonom i
h jÃ¤l
em an
ĠSt ar
sven skan
Ð ²
Ġk alk
ĠL ag
Ġutbild ade
k eb
Ġt enn
Ġ188 6
mÃ¤n nen
z on
ĠE nd
ĠK ing
us h
Ġplan er
Ġint rÃ¤ff
ĠsÃ¤g s
Ġk g
ĠC ast
Ġutveck la
ĠL uc
ĠhjÃ¤lp a
if ik
ĠD ie
Ġsem if
Ġavsk ed
ĠR on
est alt
b ygd
Ġut mÃ¤r
Ġ rÃ¤
art en
Ġadvok at
Ġgenom brott
ot ek
Ġre serv
ing er
sh Ã¶g
ra den
iss ionen
m Ã¤l
Ġm elod
Ã¤ng der
Ġg jord
Ġhuvud stad
i ro
ĠM Ã¥l
ĠC amp
Ġdel ta
ans l
Ġl ov
Ġav skaff
ĠR ev
Ġet n
ĠsÃ¥l edes
berg et
ost en
Ġrapp orter
ĠB ost
itt a
Ġh ab
Ġs Ã¤lj
ĠA kt
ĠN atur
ĠSte f
Ġbefolk ning
u es
ĠG od
Ġfram stÃ¥ende
Ã¥n ska
fÃ¶ret ag
b on
Ġb Ã¥t
ĠUng ern
ĠCh ic
k Ã¥r
Ġl ock
Ġvikt igt
om i
ĠN amn
ĠkÃ¤ll or
ĠfÃ¶rvÃ¤r v
Ġ13 00
Ġf adern
sk Ã¥d
oh ol
Ġtillverk ades
kade mi
ĠtrÃ¤n are
Ġor den
ĠB eg
od or
el j
Ġpol ska
ĠnÃ¤m ligen
ĠF ors
ĠsÃ¤ll skap
ĠgenomfÃ¶r de
Ġunivers itets
Ġkap ell
an an
ĠIn stitut
un kter
Ġdeb att
sk at
histor ia
bott ens
Ġa s
ri a
Ġegen skaper
m o
Ã¤r er
ĠH ill
Ġf en
Ġh jÃ¤rt
skont rakt
y k
eg et
n o
Ġm il
Ġorganis ationen
m Ã¶
Ġtyd ligt
Ġa kadem
Ġtill gÃ¥ng
ĠvÃ¤rld s
ĠPort ug
Ġpriv ata
Ġambass ad
on es
ĠBe skrivning
s Ã¥ng
ĠD er
ĠH Ã¤ls
Ġbil da
Ġisl am
ĠnÃ¤r varande
Ġartik lar
ĠfÃ¶rh ind
Ġbild as
her re
ĠsÃ¥ng are
Ġsep ar
itt Ã©
ĠfÃ¶rsvar s
Ġm ol
ĠbÃ¶rj at
ĠallmÃ¤n het
ar er
Ġet app
Ġfl Ã¤ck
an erna
ĠM ak
ĠsÃ¤rsk ild
m Ã¤staren
Ġnord iska
re ger
Ġ Å
Ġh Ã¥l
Ġav tal
Ġstann ade
w ig
ed on
ut bildning
u ff
Ġb omb
Ġsj ung
ĠÃħ ng
Ġsk id
Ġob serv
ow s
Ġ188 3
Ġk op
Ġhistor ien
Ġlev ande
id ens
Ġlok aler
sp ort
Ġs a
Ã¤t et
ĠR og
ĠDÃ¤r fÃ¶r
ed om
Ġsk Ã¤l
Â °
oll en
Ġreg n
Ã¤nd ska
ĠG abri
lÃ¤gg ningen
ĠtÃ¤v lade
ĠP ier
ĠfÃ¶rm Ã¥ga
Ġre klam
riv ill
Ġpastor at
ĠB os
Ġtur k
ĠMargar eta
b om
rÃ¶ v
Ġm uslim
Ġtrans port
m ande
ĠErik sson
ĠV ik
i ef
Ã¶ ta
Ġm arin
Ġ188 2
Ä į
ol t
ĠD is
Ġh uvudet
re st
ĠbestÃ¤m de
el a
nar s
ĠanstÃ¤ll des
or r
ĠR as
ĠJ ack
Ã¤ll skapet
Ġbegrepp et
Ġsnar are
Ġvar vid
makt en
ra st
ĠTh or
ĠMus ic
Ġter rit
Ġpolis en
ilj Ã¶
d alen
Ġpro p
Ġex ist
sv etenskap
bru ket
k es
Ġom edel
ĠSmÃ¥ land
Ġk r
Ġpar all
ĠV it
Ġinitiat iv
Ġfin al
Ġvanlig aste
h uvud
al jer
c el
ĠJ ust
ĠP i
de partementet
Ġins ekter
ĠS ach
h al
ra c
ation erna
Ġm Ã¤stare
ag an
led en
ĠH um
ĠF rÃ¶
Ġbed riv
Ġstat us
ĠKat arina
ĠkÃ¤n neteck
Ġg ar
Ġfast ighet
Ġfri a
anc er
ĠÃĸv rig
ĠmÃ¶tt e
Ġm ik
Ġst ruktur
Ġegen dom
ĠSoci al
Ã¥r ig
ĠOr gan
ĠGrek land
ĠkÃ¶p a
Ġmy nt
ol en
ĠHar ry
Ġn oter
ĠC ro
Ã¤tt en
Ġo beroende
ĠM exik
Ġavslut ade
ĠPol it
ĠInternation ella
ĠÃ ī
sf ull
ĠfÃ¥g el
Ġenkel t
Ġinval des
ĠVid are
Ġfri het
Ġansl Ã¶t
fÃ¶r en
Ġju rist
Ġa utom
ĠfrÃ¥g a
Ġensk ilda
sk op
ĠTe ater
Ġhund ra
Ġbygg d
Ġe st
Ġk Ã¶n
Ġtex ten
Ġlant bruk
Ġstart ades
Ġteck nare
Ã¤ ver
Ġut lÃ¤ndska
iet n
Ġvux na
w er
ling s
ott e
ĠRik s
qu es
ĠS ant
Ġin rÃ¤tt
Ġk Ã¤nde
sk jut
ĠK j
Ġn atten
Ġkyrk liga
ĠOl sson
ekt ar
ĠÃ¥ s
au ri
Ġ187 8
ĠV ikt
bo ard
Ġbar nen
sm at
g et
ĠM id
em edel
ĠV D
if e
Ġa k
sk ij
Ġbes lÃ¶
rogram met
b ror
Ġres or
ĠfÃ¶r des
k rig
Ġf ant
Ġi r
Ġl ist
ĠGru nd
Ġsock nen
ĠpÃ¥ m
Ġbeseg rade
ĠB oken
ab or
ll op
ĠK er
Ġant ag
iv are
ĠÃ¶ g
ĠÃ¶ver ste
Ġbot an
ĠfÃ¶rs Ã¶ka
o ven
Ġ x
Ġl e
Ġfung erade
ĠAn vÃ¤nd
Ã¤r kt
ĠfÃ¶r var
Ġn am
Ġsm al
Ġer faren
Ġutnytt j
it eter
u te
Ġn r
ĠE va
ĠSy daf
fÃ¶lj ande
Ġd yg
ĠW ind
Ã¤r en
ĠM Ã¶r
Ã¤g er
Ġm Ã¤t
Ġkv art
ĠvÃ¤rld sm
Ġs vÃ¥ra
Ġm ord
ĠU kra
bygg d
b all
en e
ĠI K
Ġroman en
st Ã¤m
Ġb ran
ĠSt re
Ġp redik
ak er
var o
Ġtj ock
cent rum
ilt on
skri pt
ĠLin kÃ¶ping
Ġmass a
sÃ¤tt ningen
Ġ187 9
ĠSam uel
Ġel ement
ĠI nt
f a
ĠUt Ã¶ver
Ġsynner het
ĠN um
ĠT y
Ġerbj ud
Ġ187 6
Ġ rÃ¤ck
ĠL Ã¶
d Ã¶d
Ġoffent lig
iv an
Ġdel ades
Ġlag stift
Ġfort sÃ¤tter
sfÃ¶r ening
ĠLov e
Ġv ing
Ġf ordon
Ġrom erska
eb o
ĠmÃ¥l ningar
ĠO b
ĠfÃ¶d a
program met
ĠElisabet h
ĠC omm
Ġ187 7
ĠNorr kÃ¶ping
verk an
Ġlev nad
ĠM os
k yrk
Ġmin ne
ĠpÃ¥bÃ¶rj ades
av a
Ġ186 6
0 9
j Ã¤m
de b
Ġvin tern
ĠframgÃ¥ngs rika
f ield
Ġo t
Ġav gick
Ġut strÃ¤ck
Ġfram trÃ¤dande
os lav
fÃ¶r bund
Ġom bild
s ida
ĠmÃ¥ tt
Ġsamt ida
ĠS in
pro jekt
Ġgemensam ma
ĠAmer ican
Ġutbred ningsomrÃ¥de
ĠnÃ¤m ns
iru r
Ġmusik en
ĠT a
sb ygd
olut ion
ĠtillhÃ¶r ighet
Ġrevolut ionen
ĠAs ien
e ar
Ġbl ad
ĠF ot
full a
ĠGÃ¶r an
ĠS ar
Ġskiv an
ĠIn loppet
Ġprojekt et
ĠNap ole
ĠVas a
ĠS ystem
ĠG rÃ¶n
omm a
flyg plan
sfisk als
Ã¤ ter
Ġtex ter
Ġmak e
h y
Ġinte ll
Ġte olog
Ġh it
Ġflytt a
Ġsamman lagt
ĠSof ia
Ġf rig
Ã¥r s
Ġutspel ar
ĠallmÃ¤n heten
Ġsep arat
ĠPer sson
f ess
s erie
Ġsk al
Ġt app
ft on
Ġbeg Ã¤r
t o
Ã ħ
ĠÃ¥ tt
ĠH alm
ran g
Ġgenom snitt
Ġhot ad
Ġf jÃ¤ll
ri an
ens us
ĠtillhÃ¶r t
klubb en
Ġban an
w in
ĠE sk
ĠmÃ¤nnisk an
ĠberÃ¶m da
k ort
ĠmÃ¥l ade
z z
Ġsy nt
Ġstud io
sfiskals distrikt
berg a
Ġm jÃ¶l
Ġupp trÃ¤dde
ĠkrÃ¤v de
f ekt
ĠV Ã¤n
ĠÃ¥ter f
ch a
ĠtvÃ¥ a
sm Ã¤ss
Ġant ik
w n
Ġbor de
ĠBelg ien
d y
Ġk ammar
ĠBjÃ¶r k
Ġg Ã¶m
Ã º
ĠfÃ¶rsv ann
ĠL ilj
on ym
Ġstat liga
Ġut ifrÃ¥n
Ġbr ygg
Ġgift a
Ġflott an
ĠupptÃ¤ck tes
Ġd ikter
ĠLe on
Ġekonom isk
ĠsÃ¤ll synt
Ġ188 1
and o
ĠEk ologi
mot or
b ef
Ġf rit
Ġn edan
ĠChic ago
gi fter
Ġinneh ade
Ġstab il
Ġt h
Ġs Ã¥r
Ġut vid
Ġefter trÃ¤dde
Ġsp l
Ġprodu kter
Ã¶ck erna
Ġin bland
Ġfy nd
Ġfall et
Ġfull stÃ¤nd
Ġ Î
f ram
ne x
ĠBÃ¥ da
Ġkomm ande
Ġlev a
Ġsol en
Ġinf anter
sta v
ot tern
ĠW ik
Ġad ministrativ
Ġh om
led ningen
ĠFran z
alats et
ĠnÃ¤rm aste
s w
Ġbest Ã¤ll
Ġarkitekt en
tex amen
z ig
ĠÃ¤ ng
ĠutstÃ¤ll ningar
Ġm org
ĠR u
ĠÃ¥r ligen
pro cess
Ġbos atte
Ġl ett
ĠkrÃ¤ ver
ĠAl m
Ġg rÃ¶n
es i
Ã¤k ring
ĠÃ¤g s
Ġarkitekt ur
ĠSÃ¶der t
ec t
ĠvÃ¤l ja
ĠhÃ¤rst ammar
ĠsÃ¶der ut
ĠAndre as
Ġk Ã¶ns
ĠBrasil ien
y er
Ġn Ã¤bb
Ġavsnitt et
ĠfÃ¶ret rÃ¤d
ĠNord amerika
Ġp salm
as jÃ¶n
il s
Ġ3 3
Ġpris et
Ġresul terade
Ġart ister
ĠutstÃ¤ll ning
Ġsovjet iska
g r
in alen
Ġm Ã¶nster
Ġskol or
am rat
Ġexp edition
Ġsk Ã¶n
Ã¡ n
ist ik
Ġp ot
Ġper man
b Ã¤r
ol aget
ob el
ĠSim on
Ã¥g en
ĠM as
st on
B C
Ã¤l je
Ã¶r t
ip s
ĠR ing
stÃ¤ll d
c Ã©
Ġ11 00
Ġsystem et
in erna
Ġkung liga
ĠR ac
Ġdi am
ig g
ĠÃ¥ ker
Ġ187 5
reg ementet
Ġin k
ĠĠ Ġ
Ġom vand
Ġj azz
ĠIr land
Ġbeford rades
R A
Ġreg ler
yd s
Ġ187 1
ĠkonstnÃ¤r en
Ġav b
is che
Ġupp rep
Ġ184 8
ĠrÃ¶r else
Ġborger liga
Ġkl ara
V D
var a
Ġstyr elsen
ĠbelÃ¤g et
en det
med lem
ĠD ram
ĠÃ¤ ger
ade l
obygg naden
Ġm Ã¥n
Ġex pl
ĠÃ¶pp et
ĠL ad
Ġhel st
m ord
Ġfl od
Ġkult ure
Ġf j
st Ã¶d
Ġprodu cent
Ã ĸ
sk al
Ġbl om
Ġs Ã¤nde
ĠÃ¤ ter
repp et
ĠHam burg
Ġ186 7
ĠK un
Ġfilosof i
Ġplac erade
Ġinsats er
alm useum
k ul
ent al
els et
Ġ187 3
ol i
Ġtillverk ade
Ġdo kt
Ġkopp ar
ĠN ov
Ġdrabb ades
Ġm ob
Ġ187 4
Ġtal ar
Ġsing eln
ĠSk og
fil mer
p unkten
st am
Ġ7 00
Ġreg i
t yska
ĠN ed
g g
ok i
0 5
Ġmin skade
ĠDag ens
Ġav rÃ¤tt
L C
Ġmarknad sfÃ¶r
Ġst re
Ġalk ohol
Ġst rÃ¤ng
ĠX I
Ġparlament et
arbet et
ĠB ab
kt yg
ner ingen
Ġflyg plats
ĠG ott
rÃ¤d ande
ĠR um
ĠÃ¶ arna
iv ande
Ġin sta
yg den
Ġkan al
r ycket
Ġdri ft
v Ã¤n
ik op
pl ant
is era
ĠC enter
ĠhÃ¤ck ar
e in
t it
ĠsÃ¥d ant
ĠfÃ¥g lar
Ġdet alj
Ġan togs
ĠN HL
v ice
ĠAl b
Ġkung ens
it ut
Ġk rimin
Ġorganis ationer
Ġm ax
Ġan ledning
ĠI ll
ĠGÃ¤v le
ĠÃ¥ter kom
Ġte atern
ĠM useum
ĠFer din
ĠG ri
in ne
ĠlÃ¤m nat
ĠR Ã¶da
Ġtid s
ĠSund svall
ĠR i
an ne
ĠJÃ¤mt land
sk or
ist iskt
ĠgÃ¤ll ande
Ġol ympiska
itter atur
Ġfys ik
an st
ĠS av
Ġkon gress
Ġt rÃ¶
Ġfin nas
Ã¤nn ande
ĠUr sprung
ta in
ss ystem
Ġall ra
ĠgÃ¤ll de
Ġkrig s
fil men
rÃ¥ ng
ĠI l
ĠG uld
Ġte ori
Ġhem m
Ġo fÃ¶r
istrikt et
o us
Ġf Ã¶g
red s
ĠfÃ¤r ger
h m
hÃ¤ng are
Ġkun nat
Ġ186 5
Ġ187 2
Ġfort satt
Ġkat al
ĠsjÃ¤lvstÃ¤nd ighet
ĠC oll
ĠR od
sp eri
Ġext rem
ĠM ika
ĠfÃ¶rÃ¤nd ringar
ĠH av
Ġ25 0
Ġmet oder
b ev
ĠP ers
Ġs uper
Ġar g
ĠVir gin
ss p
ĠFred er
keb iskop
ĠB od
ĠO p
Ġt ung
ĠK ir
Ġkust en
gÃ¤r der
ĠB and
Ġvari ant
ĠgÃ¤r na
ĠÃ¶ver fÃ¶r
Ġfartyg et
ĠfÃ¶rklar ade
Ġb uss
ĠH u
Ġom tal
se ud
Ġkol oni
f Ã¤ll
Ġan n
ĠfÃ¶rbl ev
sh istor
h u
ĠD rottning
Ġv inn
Ġk Ã¶tt
ĠEd vard
ens ioner
ĠMc C
Ġkonser t
Ġad ministrat
red aktÃ¶r
sman nen
ĠN at
ĠÃĦ ng
ĠavgÃ¶r ande
ĠA pp
bygg da
Ġnord vÃ¤st
ĠkrÃ¤v s
Ġgrund lÃ¤gg
ĠT it
Ġmark naden
komm er
sp olit
Ġstuden texamen
Ġf rist
Ġo pt
ĠpÃ¥m inner
Ġro ller
om et
organis ationen
Ġs at
Ġstuden ter
em i
ĠÃ¥ kte
Ġor der
ĠlÃ¤r de
fÃ¶r l
ra b
ĠdÃ¶d s
Ġbil ar
ĠrÃ¤d da
sv alet
Ġlig an
jÃ¶r n
Ġmedic ine
ord fÃ¶rande
ill es
Ġkap it
A S
ĠD r
Ġfatt ig
Ġm usk
Ġst yrka
man lands
ian ter
Ġkamm aren
Ġ3 6
Ġf est
Ã¤tt ningen
Ġp rom
Ġp r
ĠB eck
Ġcount yt
Ð »
Ġ184 0
ĠM i
ĠfÃ¶rhÃ¥ll anden
rid ge
Ġsannol ikt
Ġvar dag
ĠE gen
rik anska
olog en
ĠOr det
Ġare al
Ġs iff
ĠK i
ĠtillhÃ¶r ande
Ġdec enn
Ġk Ã¤mp
ĠStef an
ĠPeter sburg
j on
Ġhon or
Ġbegrav d
Ġp ans
ĠT am
Ġre ktor
Ġ186 4
at iskt
ess an
Ġlok alt
Ġb Ã¶nder
ĠH aw
hÃ¤ll et
Ġk ull
Ġo ss
heter na
0 8
Ġperson al
ĠlÃ¤m nar
Ġers atte
Ġin ner
ass e
ĠsÃ¤l ja
s liga
f ru
ĠÃ¶ver ens
st or
ĠF F
Ġgemensam t
k as
ĠTot alt
ĠSkott land
ill verk
Ġhus hÃ¥ll
I S
ut her
ĠBl om
vis ning
f on
Ñ ģ
ĠIF K
en burg
Ġk Ã¤nner
Ġutg Ã¥
ĠNation almuseum
bild ade
Ġund an
m id
ĠS eri
Ġut man
Ã¤ te
ĠV ol
ĠM ann
Ġund vika
sprÃ¥k iga
Ġm ill
am Ã¶ter
ĠÃ¤ven tyr
Ġov ans
ĠBure au
ro d
Ġbl ock
Ġ7 5
Ġ3 7
Ġ186 8
Ġst rateg
ĠW in
ĠkÃ¶r de
Ġintroduc erades
ĠJ uli
ĠtrÃ¤ff ade
ĠmÃ¤nsk liga
Ġut eslut
bok en
Ġol ja
vent ion
Ġkall a
Ġgitar r
lag en
ĠbeslÃ¶ t
Ġovan ligt
Ġtrans porter
ĠfÃ¶res prÃ¥k
ru p
Ġupp m
ĠA la
ra ham
Ġan im
ĠB ank
ĠvÃ¤x er
Ġhov et
Ġis ol
ur ser
ĠskÃ¥despel aren
ĠDal arna
Ġinne fatt
m y
Ġbe arbet
ĠL ule
Ġarab iska
ĠTurk iet
Ġtillbring ade
v apnet
ĠjÃ¤mfÃ¶r t
rÃ¤ der
Ġkonst itut
ĠGot land
Ġty ng
ĠB il
ĠO st
Ġd op
ĠL Ã¤ng
b Ã¶cker
st jÃ¤nst
Ġd al
ra gen
sk arriÃ¤r
ĠD am
Ġprodukt ionen
b Ã¥t
kt ionen
ĠTex as
it ch
est ad
est Ã¤ll
Ġmilj on
komm a
Ġbet ala
fÃ¶r svar
C h
Ã ±
ĠAr n
Ġroman er
ans er
k i
Ġsp ansk
yn am
ĠBÃ¥ de
st orp
ĠK rig
Ġform en
ĠIng en
Ġmiss ion
ĠGru ppen
Ġf ris
ĠhÃ¶g skola
id rott
ĠslÃ¤kt en
Ġting slag
Ġtra pp
Ġk av
vÃ¥rd s
w ell
Ġpar et
eb org
a il
Ġs agt
Ġtro dde
sven ska
Ġsk ydda
Ġutbild nings
ĠÃ¶vert yg
ĠR oss
Ġhot ell
Ġlandst ing
Ã¤ll skap
ĠfÃ¶rst Ã¥
th ur
Ã¶ ket
Ġd rÃ¶m
ĠÃ¶ kar
ĠGre en
Ġfl ydde
ĠpÃ¥bÃ¶rj ade
Ġalternat iv
ĠSj Ã¤lv
Ġvill kor
ĠFerdin and
ni pp
Ġ186 9
Ġnord Ã¶stra
ĠF rit
ĠÃ¶ver lÃ¤m
Ġmedlem marna
ĠP erson
ĠE ll
Ġnor rut
Ġf ril
ter ar
ĠÃħ ke
Ð º
ĠL ang
ĠI stÃ¤llet
ĠhÃ¶g skolan
komm it
w all
Ġs ur
Ġupp en
ĠVÃ¤rm land
ter ades
st eg
Ġex akt
Ġetabl erade
0 7
Ġv Ã¤v
ol is
Ġutveck las
ĠT u
ir al
ĠTysk lands
k rit
ss en
ĠEng el
Ġtot ala
Ġk ok
bl om
ĠlÃ¤nder na
ĠsjÃ¶ ng
ator er
iz a
ĠSydaf rika
0 6
e urop
Ġpopul ation
ĠBr itt
ator iet
Ġjud ar
ĠGÃ¶ ta
ĠfÃ¶res log
Ġg ivit
ĠsÃ¤rsk ilda
ĠfÃ¶rv Ã¤nt
Ġkatol ska
c in
ĠL Ã¤n
um enter
ĠframgÃ¥ngs rik
l Ã¥
an ce
hand lingen
Ġtext il
ĠJohns on
Ġid Ã©er
ĠKyrk obyggnaden
sl Ã¤ngd
Ġkonst museum
Ġv ak
Ġb yt
Ġtillverk ning
Ġd Ã¶
Ġsm ak
Ġkrit is
Ġnam ng
ĠsÃ¤tt a
Ġsyd Ã¶stra
k yrkan
Ġherr gÃ¥rd
Ġf rivill
Ġmin ister
ĠM Ã¤l
Ġtid er
Ġan nex
rÃ¤ nder
Ġmilj arder
Ġprovin s
ĠfÃ¶r eb
Ã¶r n
Ġ3 4
ĠgÃ¶r s
ĠSl ott
s yn
an z
Ġland slag
Ġvis as
skri ften
ien ce
fÃ¶lj are
Ġbygg as
Ġsyd vÃ¤st
i i
ĠGen eral
ĠlÃ¤tt are
ĠtillfÃ¤ll e
Ġm Ã¤ngder
ik et
ĠvÃ¥ ningar
r era
ĠD NA
ro ller
ĠAn ne
by te
ĠMexik o
ul f
ĠkonstnÃ¤r er
itet et
Ġp unkt
Ġv Ã¤der
ĠfÃ¶rk ort
Ġut fÃ¶rdes
ĠO la
ĠÃ¤r kebiskop
Ġ186 1
ĠGabri el
Ġp or
ĠI bland
Ġel va
ĠMad rid
ro ck
Ġmin ist
Ġint ens
Ã ¢
Ġrad ik
ĠUl f
Ġdri ver
rÃ¤n sen
h n
ĠSk andinav
ock en
sfÃ¶r bundet
ĠdÃ¶d en
ĠkÃ¤n na
ĠCl ub
Ġs Ã¶ka
Ġi frÃ¥g
Ġb em
Ġad minist
200 6
l t
Ġan hÃ¤ngare
ĠO d
ĠhÃ¤v dade
ĠinbÃ¶rde skriget
ĠH andel
Ġlans erades
Ã¤ ts
Ã¥r skontrakt
Ġdriv s
l Ã¤n
ion de
Ġplan erade
Ġnord vÃ¤stra
b al
m und
Ġan nars
ĠG ol
ul gar
Ġo ri
Ġv em
Ġfl it
ĠvÃ¤rv ades
" ),
Ġs um
ft et
Ġarbet s
vik s
Ġslut ar
M S
Ġl ib
ab el
ĠC ensus
Ġbe hÃ¶ll
Ġspl itt
e us
t an
ĠS anta
ĠÃ¥ skÃ¥d
Ġbe h
nings vis
g uld
p re
ĠO n
ningsomrÃ¥ det
ĠstÃ¤der na
b yn
ri but
ĠmÃ¥l ar
C A
ĠAr gent
y mer
ĠB y
ĠS K
Ġprakt iken
offic er
ĠfÃ¶rb and
ĠfÃ¶rfatt ade
Ġkons ek
ĠEsk il
Ġp op
og a
Ġser ier
w en
or nas
ĠmÃ¶j ligen
Ġsak nas
ĠbrÃ¶ llop
ĠsamhÃ¤ll e
ĠSer ien
ĠHus et
ĠbehÃ¶v de
ĠPortug al
Ġtill Ã¥t
ur ch
stol en
ĠTj eck
f jÃ¤ll
borg s
Ġh Ã¤nder
Ã¤v ling
ĠÃ¤nd amÃ¥l
it j
au x
Ġdes ign
alis men
ĠHar ald
ĠpremiÃ¤r minister
Ġh ektar
Ġstud ie
Ġegen skap
ik erna
k ol
Ġn o
ĠÃ¥r ets
Ġ183 0
ĠverkstÃ¤ll ande
an al
Ã¥nd are
histor iska
ĠE in
ien ter
Ġsen at
Ġberg et
Ġombild ades
Ġbr Ã¤nsl
Ġrevolut ion
Ġb eb
o ul
es en
ĠL ager
Ã¥l der
sstyr elsen
Ġv ic
Ġinv and
Ġgl ob
Ġeffekt iv
Ġpro t
ĠF el
ĠSven sson
Ġgjort s
ĠF orn
v ida
ĠE ver
ĠK ont
Ġfl ag
um en
igt vis
Ġhab itat
ĠÃĸ n
ĠKlubb en
isk an
ef te
Ġr ank
i op
l Ã¤rare
l ok
Ä ģ
ĠKommun en
im en
kom p
Ġf Ã¤l
ĠU S
lÃ¤g s
ĠK omm
ĠutstrÃ¤ck ning
Ġmed arbetare
ol er
ri ft
vis a
ĠjÃ¤rnvÃ¤g en
Ġb om
ch ester
ĠM ats
ed ig
enn y
Ġvers ionen
l ys
Ġa pp
ĠI t
ator ium
Ġob server
Ġrek ord
Ã¤st e
ĠSc ott
ri ster
Ġtv ungen
ĠdÃ¥ ligt
Ġveck a
ĠAI K
Ã¤ ta
ss e
Ġsak rist
vis or
Ġland sfiskalsdistrikt
Ġsak er
ĠfÃ¶rmod ligen
ĠvÃ¤l k
Ġd irig
ens er
h alt
ĠCol umb
d are
st Ã¤der
O S
m ur
ro v
ĠP lay
alis ering
Ġs Ã¤m
ĠvÃ¤g rade
Ø §
Ġvar v
Ġall ierade
e i
Ġdel ade
ant iska
Ġid Ã©
ĠOrgan is
ĠH y
ret a
Ġt itt
Ġplac eras
Ġregiss Ã¶r
ĠfÃ¶r ord
Ġansvar ig
b ack
s eg
ĠR el
Ġton sÃ¤tt
ĠmÃ¥l et
ct ion
ĠAb raham
Ġsist nÃ¤mnda
sled amot
a pel
ipend ium
ĠWal ter
ĠLik som
il er
Ġ rÃ¥det
Ġord ning
r Ã¼
ĠpÃ¥ stÃ¥
i anska
ik lar
sk are
ĠÃ¶k at
Ġklock an
d s
ĠSt ig
Ġperson en
ĠhÃ¥ll s
ĠIn te
p ektiv
Ġex ister
ĠA ns
fÃ¤lt et
Ġork ester
ĠNapole on
ĠHein rich
ĠComp any
Ġsv Ã¤r
Ġkvarter et
f ur
ĠAr vid
ĠfÃ¶rstÃ¶r des
Ġskad or
Ġt org
ivit eter
mat erial
Ġ andel
ub ile
lik nande
Ġinkluder ar
ris en
sfÃ¶r bund
und en
II I
Ġf eder
Ġr ent
Ġter m
ĠT ru
yck e
Ġmen ing
ĠH art
Ġliv smedel
ĠT ok
Ġplac erades
ĠAss oci
shÃ¶vd ing
n it
Ġreger ings
ĠmÃ¶ te
200 5
Ġart illeri
ĠrÃ¶r elsen
Ġsk ada
ĠS lut
ek yl
Ġkommun ikation
jÃ¤n sten
Ġne ut
' .
0 4
ad or
Ġupplag a
Ġut rym
bet et
t Ã¥g
et y
ĠB ob
ĠK ort
Ġdem onst
Ġmedborg are
ĠD ar
Ġska ff
ĠK arin
Ġ185 9
Ġkomp osition
re ster
ĠlÃ¤k emedel
Ġmed ia
Ġst jÃ¤rna
Ġmynd igheter
ĠAr thur
f olk
Ġmode ller
ĠM itt
Ġbar nd
b acken
ug oslav
ĠGÃ¶ sta
ĠB andet
is c
et h
ĠS eg
Ġupp man
Ġbel Ã¶n
g av
v ad
ĠÃ¥terv Ã¤nda
ĠF rans
land a
ĠÃ¶ver satt
Ġkonfl ikt
c ell
ĠB ot
Ġsyd vÃ¤stra
ĠlÃ¥ng hus
Ġred a
yl t
ĠVÃ¤x jÃ¶
ss ekreterare
Ġol j
Ġta x
ĠK rit
sl Ã¶s
ĠH ugo
k Ã¤r
ah n
Ġutb rott
Ġbost Ã¤der
Ġan tog
Ġperson liga
Ġlitter Ã¤ra
ĠLenn art
Ġst ill
b Ã¶rd
ot iska
ĠstÃ¤ll des
Ġnorm al
Ġvar dera
if orm
Ġbas erat
ĠH ov
ĠfÃ¶rb i
bi bliotek
en het
ĠP riv
hÃ¶j d
ĠBl ek
ore a
sk Ã¶ld
200 7
da hl
bild ningen
lin jen
Ġfull t
ĠFÃ¥g eln
Ġkon ferens
Ġland s
Ġkraft ig
b ach
Ġb ana
ĠD istriktet
ĠC am
Ġkyrkoher de
Ġvar pÃ¥
Ġutom lands
ĠMel od
Ġg estalt
gÃ¶r a
ĠH igh
Ġfinans ier
org es
ĠutfÃ¶r a
Ġl Ã¶n
Ġg yn
rÃ¶ t
Ġre komm
ĠmotstÃ¥nd are
evis ion
ĠEuro vision
Ġutvid g
v d
Ġdisk uter
Ġmask in
Ġsub st
ĠP ris
Ġom bord
ĠB at
ad o
ul ts
Ġsold aterna
Ġ +
ĠP ost
Ġsj Ã¤tte
eller sta
ĠlÃ¥g a
Ġm juk
Ġsol ens
ĠhÃ¤n delser
Ġkejs aren
Ġkombin ation
ĠB alt
in ten
ĠK ors
ĠFil ip
ĠlÃ¤g e
Ġinv est
er o
ne ss
sh ire
ĠfÃ¶r flytt
ĠSp ort
ĠÃ¶k ad
amerik anska
ak es
Ġ3 8
Ġfolk rÃ¤k
k riget
Ġkl Ã¤d
olog iskt
Ġr Ã¶ster
Ġfamilj er
ĠBir g
rÃ¤ sket
land slag
akt en
st in
ĠHer man
Ġbef inner
v il
Ġinv as
nast in
od ox
ĠB ad
ĠSt Ã¶r
ĠSve a
Ġnatur en
ĠH omer
Ġart ist
Ġn yck
Ġkomp ani
skl ubb
ĠKonst ant
Ġartik eln
ĠÃ¶ver togs
Ġproduc erade
ĠHÃ¤ls ing
ch i
ĠH ur
Ġs ed
ern er
Ġgenom gick
ĠKar ol
y o
Ġhuvud staden
Ã¤rk e
yt an
ĠfÃ¶rb j
Ġturn Ã©
ar itet
Ġrit ade
Ġh yp
sp Ã¥r
ĠfÃ¶rs Ã¶rj
Ġl Ã¶sa
Ġupp stÃ¥r
ĠfÃ¶rekomm ande
ĠLa ur
bar n
ck er
ry ska
alist isk
Ġsk ot
ĠtrÃ¤ ng
ĠundersÃ¶k ningar
sk yrkan
ĠI ran
ĠLev nad
Ġtill trÃ¤dde
num mer
o sk
Ġvar um
bet h
on n
Ġinrikt ning
Ġg ent
Ġkval ific
I F
ĠÃ¥t skill
ot en
Ġstyrk or
Ã¤n ning
en gel
sb o
d i
t el
ĠM ay
ĠC orn
Ġarbet are
t verk
ĠF e
ĠK Ã¤r
ĠKarl sson
v ux
fl oden
ĠfÃ¶r Ã¤l
att er
Ġtill Ã¥
Ġstudier es
j i
Ġ185 7
eg Ã¥ng
ĠE p
ĠV illa
Ġkl Ã¤der
Ġbek Ã¤mp
ĠKj ell
h jul
Ġ3 9
ĠomnÃ¤m ns
ietn am
Ġartik el
c om
Ġsp rÃ¤ng
Ġ185 6
vÃ¤x ter
ĠA ri
ĠG h
ĠfÃ¶rv and
il eg
Ã© ns
ste ater
Ġbil en
Ġtor net
Ġannex fÃ¶rsamling
0 2
Ġte at
ĠlÃ¤ sa
ra der
Ġpass ager
ĠJon es
tysk land
st ierna
Ġkonser ter
Ġk il
ĠA sp
ĠBar n
Ġh astighet
ĠL eg
201 0
lÃ¤m ningar
b od
ĠfÃ¶rb undet
shÃ¶g skolan
Ġsvar ade
Ġener g
Ġomedel bart
Ġbygg t
Ġkrit iker
Ġstrid er
Ġdefin ier
y wood
0 3
Ġk olleg
u ft
Ġp ek
ol o
Ġsk yld
ĠJ ud
ĠvÃ¤ck te
ĠW ars
rÃ¤d de
b efolk
em on
Ġdokt ors
el ed
ĠM edan
rukt ion
t u
Ġanv Ã¤nt
er g
Ġv all
Ġs alt
Ġrikt igt
ĠTro ll
ĠL inn
op lats
ĠH ab
ĠW ood
200 8
o verk
ĠC D
ong ol
ĠupptÃ¤ck te
sut stÃ¤llningar
ĠRe in
Ġlin jen
Ġl ug
Ġrel ation
ĠK im
ĠLa w
ĠV Ã¥r
Ġ9 00
Ġhand ling
ĠE u
o det
ĠLe ip
Ġhitt ades
Ñ Ĥ
Ġm esta
Ġsj Ã¤l
ĠÃħ ker
ron ten
Ġanl Ã¤nde
ĠK ur
Ġrom ersk
Ġsak nade
ĠMot or
Ġp Ã¤ls
ed itionen
ĠL ed
ut a
ĠfÃ¶rk nipp
ap t
Ġs Ã¶nder
ĠD VD
ĠB K
ikt et
Ġm ult
ak s
hÃ¤ll e
o und
est en
Ġsammans lag
ĠfÃ¤rdig stÃ¤ll
Ġkyrkog Ã¥rd
ĠgrundlÃ¤gg ande
t Ã¤ck
ĠO h
Ã© s
us ch
Ġh oll
Ġproduc erades
Ġvil ja
ran ge
Ġutveck lats
ĠLid ing
Ġen kla
Ġsk ott
ĠÃ¥r hund
ĠBe at
Ġg ifter
Ġtel efon
s Ã¥
ĠVÃ¤ster gÃ¶tland
ĠT ran
ĠFÃ¶rsvar s
ĠK ra
Ġ6 5
reserv at
ĠN a
ĠDÃ¤r emot
ĠrÃ¶r ande
Ġspeci ella
Ġovan fÃ¶r
Ġb rig
el ns
ĠD ev
rin d
Ġvis st
Ġen kl
ĠB ud
Ġtid ningar
Ġlag er
Ġrestaur ang
Ġutg Ã¥ng
Ġklass isk
Ġ â
ĠF olket
ĠbrÃ¶d erna
D en
ol yck
Ġre ster
vatt net
ĠtÃ¤v lingar
ĠKarl skrona
ik ationer
ĠLe e
ingsl iv
o o
Ġr Ã¶tter
ĠfÃ¤ng sl
land er
200 9
Ġp arken
ĠO ch
ĠUkra ina
ĠberÃ¤tt elser
Ġspec if
e a
l aren
Ġro t
ĠL iber
ĠW olf
ĠG il
Ġinval d
Ġl Ã¶v
Ġplan et
ĠK ent
Ġ5 5
ym nast
Ġf al
Ġsy st
at erade
ĠD or
jor den
Ġskap ar
h en
at ien
Ġled ningen
ĠSpel et
v ikt
on gen
gi ven
Ġn Ã¶j
ro ende
as er
ĠPar et
Ġstart a
Ġsp an
Ġant as
Ġrepresenter ar
A l
b u
b ank
Ġp seud
ĠSach sen
ĠD re
ĠBar cel
Ġjud iska
kvar ter
dom ar
ĠKrist ina
ick s
ĠI van
aw a
smin ister
Ġbr yt
lag da
al es
Ã¤ng en
am at
Ġmot sats
ĠLule Ã¥
fÃ¶r are
ĠP as
al in
ĠG yllen
ĠCarol ina
Ġish ockey
b ron
Ġprogram ledare
ĠChrist ina
Ġjurid ik
Ġkl Ã¤tt
Ġhistor isk
ĠJuli us
ĠdÃ¤r ifrÃ¥n
ĠDe utsch
Ġmon ark
Ġsch weiz
ĠH ockey
Ġvar ianter
ĠPier re
ar is
Ġd ata
le ver
ĠAmer ika
ul kan
Ġsek under
Ã¤ ser
Ġhan en
t om
al ia
Ġbef ann
Ġv Ã¤t
ĠeftertrÃ¤d are
ĠgrÃ¶ na
Ġkompl ex
b ost
produ ktion
Ġprofession ell
Ġk usin
re sp
em a
ĠC ir
Ġkejs ar
Ġbred d
ĠP u
bygg nader
Ġsuc cÃ©
Ġkonstrukt ion
ĠÃ¶ ar
ĠH ow
Ġbort a
Ġtor r
ĠfÃ¥ tal
Ġresult atet
ĠNord iska
ĠBor Ã¥s
ĠinfÃ¶r liv
Ġdisk uss
Ġru ll
bil ar
Ġdes ig
Ġsk Ã¶ts
Ġstyr els
Ã ´
ĠlÃ¤ng st
Ġnatur liga
Ġd ottern
Ġav rinningsomrÃ¥de
od s
Ġ184 9
ru ppen
ĠM ol
ĠstÃ¤ll a
Ġf asta
os en
ering s
ĠutfÃ¶r da
Ġang es
ĠstjÃ¤rn or
b est
ĠR Ã¥
ĠutstÃ¤ll ningen
p rÃ¤
ĠfÃ¶r a
ĠN av
Ġr am
lag d
ĠHo use
Ġhamn ar
Ġb in
ĠS ym
ex p
spel are
Ġark iv
ĠfÃ¶rel Ã¤s
Ġform ellt
ĠvÃ¤g ar
al mar
ic ip
Ġsy nd
ĠMika el
il ed
Ġre akt
Ġc er
vis ar
Ġbet eende
uni vers
Ġlik het
t re
it erna
udd h
cer nen
Ġb u
Ġupp del
ĠS ur
ĠVen edig
Ġmajor itet
flott ilj
Ġg al
Ġan st
ĠfÃ¶lj des
Ġi vÃ¤g
Ġgra der
ĠB an
Ġinsta ller
f rid
Ġekonom iskt
ĠEgen skaper
d rÃ¤kt
Ġ185 8
Ġfader ns
c ia
m Ã¤t
os ex
Ġhistor iker
Ġlopp et
Ġf ukt
Ġsk iva
Ġut arbet
ĠSl Ã¤kt
h ugg
minist ern
ĠF ast
Ġskog s
am o
Ġallt mer
Ġ185 5
ĠP rag
b ien
Ġi gÃ¥ng
Ġhitt ills
Ġv eta
ĠkÃ¶r a
Ġgrek isk
Ġdig it
n ov
ĠS ib
ĠS van
ock ar
Ġtyck s
Ġanal ys
ĠLevnad ssÃ¤tt
ĠA bb
is cher
Ã¤v lingen
ĠÃĸster gÃ¶tland
ĠÃ¥ter kommande
Ġhand lingar
Ġtu rist
ot s
ĠR oll
k amm
um in
Ġ4 2
ĠutÃ¶k ades
ing et
is er
vers e
Ġung ar
ĠOm kring
Ġtillverk as
s und
Ġkomposit Ã¶r
ĠH orn
ĠHen ri
Ġav delning
kro pp
ĠlÃ¥ ter
ĠGud s
m s
or um
ĠL it
Ġtred j
Ã¤r ka
ĠL im
ĠI rak
Ġstad sb
ĠanstÃ¤ll ning
ĠFrancis co
ss pelare
ĠmÃ¶r ka
x id
ĠmÃ¶ ter
Ã¶ gen
Ġmon ument
ĠG all
rÃ¤ de
Ġt and
Ġsock nens
h ar
Ġv ir
opp ar
ĠSkol an
ĠC re
ĠSch w
c u
Ġf rÃ¤
ĠbegrÃ¤ns ad
b Ã¥g
t ur
Ġg ula
Ġscen en
Ġknapp t
Ġtid ens
ĠfÃ¶r ny
ĠgÃ¥rd ar
m eter
ĠG ir
Ġmin skar
f jÃ¤r
ch n
ĠrÃ¤tt en
ma ss
ĠO pen
Ġal t
Ġkra fter
ĠfÃ¶rhind ra
f undet
ĠM ilit
n ets
em o
ĠL isa
Ġkan t
Ġung e
Ġbehand las
fÃ¶r ing
ĠFran ce
efte Ã¥
ĠV I
Ġkon f
Ġkan adens
sb org
ĠHam ilton
ĠkÃ¶p ing
Ġpo et
ĠHer r
f ars
ĠO fta
Ġpre st
Ġstad splan
rott ningen
ĠQ ue
Ġkompl etter
r ationer
Ã¶r elsen
Ġf av
Ġm yn
Ġm Ã¤ss
Ġt ull
Ġh ud
Ġunder teck
iner ande
d riv
m ont
at o
bl ock
ĠT w
ĠgrÃ¤ s
art a
Ġte oret
ĠAll mÃ¤n
Ġoper an
Ġb usk
ĠbestÃ¤m mer
ĠA sk
an gen
oder na
Ġkung ar
Ġpass erar
Ġinstitut et
Ġpl ast
Ġmisslyck ades
b ad
ĠE ast
Ġro bot
Ġr Ã¶
Ġr yss
vis ades
ĠG reg
Ġfung era
Ġsjukdom ar
Ġerbj uder
ĠVikt or
jÃ¤n ster
tekn ik
l istan
styr elsen
ĠG ull
Ġciv ila
ĠWal es
Ġmatemat ik
ĠRob in
Ġr Ã¶tt
ĠJ ung
ĠInter net
m od
id erna
ĠfÃ¶d s
Ã© e
k od
ĠS ec
sta ka
Ġbr yta
Ġmeter s
Ġakt ivt
ĠÃ¶ster ut
ĠFamilj en
sk ytt
Ġskog ar
200 1
ĠsÃ¤ te
Ġskulpt ur
Ġa ustral
ĠI sl
Ġsam la
Ġoff er
Ġ185 4
ĠmÃ¤nn iska
ĠVÃ¤rm lands
ĠWh ite
Ġf ruk
Ġp edagog
ĠS ir
ĠH ass
ĠK y
album et
Ġframtid a
ĠB ig
ĠHit ler
s ur
Ġkl in
ĠhÃ¤l sa
ĠuppfÃ¶r a
Ġengag erad
rÃ¥ ken
ĠÃ¤tt en
ĠmedfÃ¶r de
Ġfrist Ã¥ende
ĠLeip zig
st ar
201 1
Ġutg iven
200 4
dels ef
ĠfÃ¶reg Ã¥ngare
ĠBrit ish
ĠAssoci ation
ĠM ah
ion sh
Ġtro ll
Ġp ri
bl er
Ġb Ã¤ra
ĠfÃ¶r r
ĠK om
Ġrit ades
ĠCon test
or terade
Ġl ad
ĠÃ¥rs skiftet
Ġgrupp ens
ĠJa cks
m us
Ġs ekt
ug a
z y
ĠhÃ¤v dar
Ġs upp
sk ed
ĠL at
pl att
ĠSte ph
Ġf ritt
Ġb andets
Ġperman ent
p arken
Ġut ex
ven emang
Ġpart ier
ĠstrÃ¤ck an
ar ier
Ġbehand lar
k amp
ra y
ĠT all
Ġser ver
ĠVirgin ia
vers ion
iot al
amin erades
arbet en
Ġr ytt
Ġk irur
ĠB ack
Ġsek und
b ell
ĠL ong
Ġ12 0
Ġgran n
pel en
akt iga
Ġanl it
ĠStre et
Ġet c
Ġ185 3
ĠGro up
Ġdiam eter
Ġh jul
ĠS A
as e
ĠRud olf
akt igt
ĠAl ban
Ġreg ement
arin na
ov is
sm yck
Ġupp h
hav et
ĠM un
ĠF u
Ġgrund are
Ġa kv
hÃ¶g skola
om a
Ġkom ed
Ġ184 7
Ã¤sen det
tÃ¤v lingen
Ġbegrav nings
Ġcy kel
rÃ¤tt s
Ġd im
ĠdÃ¤r igenom
ĠkarriÃ¤r en
ĠAlex and
Ġbit rÃ¤dande
Ġpresenter ades
Ġlic ent
ĠB j
em b
Ġor gel
Ġtyck te
w ald
ĠT i
Ġan ger
Ġland skapet
Ġfen omen
T A
Ġter ror
Ġparti ets
ĠOr ten
ĠfÃ¶rm Ã¥n
ĠÃ¤ktenskap et
n ivÃ¥
Ġhistor iskt
Ã¨ re
skommun en
klass en
Ġb ill
Ġau ktor
de ll
st una
el er
Ġungdom ar
Ġin kÃ¶p
ik s
ĠF ord
ss jÃ¶n
ĠK r
Ġlag ar
Ġavanc erade
ĠI S
ĠBer gen
ultur en
Ġl Ã¶jtnant
an ia
Ġm Ã¤sterskap
Ġhuvud rollen
us ion
os e
ĠB ib
in spel
der ier
ĠgenomfÃ¶r a
ck en
Ġl yss
ĠK as
Ġland slaget
ub a
d an
eg a
Ġde p
ĠNum era
ol as
ĠM ic
Ġut k
ug is
ĠRac ing
Ġmag ister
n iska
eb en
Ġsek el
b ur
Ġst jÃ¤rt
Ġrep ubliken
Ġdeltag it
Ġf rans
Ġst ick
ĠHoll ywood
p et
Ġk er
ĠDÃ¤r med
ĠÃ¥ tal
ĠHelsingborg s
ĠB ok
ĠSt rand
ĠhjÃ¤lp te
ĠfÃ¶rÃ¤nd ring
Ã¤tt ningar
Ġgitar rist
ĠOx ford
Ġl ista
Ġin hem
Ġled amÃ¶ter
Ġsv ans
Ġbef att
ock e
ĠFÃ¶r fatt
Ġsock er
vÃ¤r ld
Ġark it
ĠjÃ¤rn Ã¥ldern
ourn al
Ġbru ket
Ġt ings
ol ver
ĠEx p
ust en
Ġskap at
Ġhuvudsak liga
nat ur
ĠKarl stad
mÃ¤rk e
ĠpÃ¥verk ar
Ġlicent iat
Ġnatur vÃ¥rds
Ġinter net
sats er
sk onst
ĠE P
Ġtradition ellt
rust ning
ĠB all
Ġskiv bolaget
f red
Ġan sprÃ¥k
ĠÃ¥t gÃ¤rder
Ġavslut ades
ĠnÃ¤t verk
ĠutmÃ¤r kt
ĠLiding Ã¶
i des
j erna
Ġp an
Ġfin na
yt ande
Ġbe hÃ¥lla
lÃ¤gg ningar
Ġr ykt
yl van
Ġintress erad
ĠtrÃ¤ff ar
ĠA hl
Ġmott og
ĠL ant
Ã¤m nen
ĠFÃ¶r e
ĠBir ger
Ġok Ã¤nd
ĠifrÃ¥g as
ĠfÃ¶r kl
ĠM ott
ĠM ath
ĠT ar
ĠP ap
Ġfall er
ĠArk itekt
ak ult
ĠfÃ¶rlor at
ĠstÃ¤nd igt
Ġstads del
ĠÃħng er
ro w
ilj a
Ġskick ade
Ġg rÃ¤v
Ã¤l sen
Ġhuvud kontor
ĠvÃ¤l j
Ġnatur ligt
v ing
ĠV ietnam
Ġplac ering
skrig ets
or y
ĠI var
ma jor
st Ã¶r
Ġbland ning
k ommun
ĠF inn
ĠundersÃ¶k ning
Ġen heter
Ġbet ong
Ġreg ementet
Ġned re
m as
Ġm us
ĠK re
Ġsj unde
Ġhand boll
Ġundervis ning
de but
Ġ4 4
ĠHj almar
k opp
f al
Ġs orter
Ġkl ostret
sbygg nad
Ã¶d en
ev Ã¤r
ĠsjÃ¤lv mord
Ġbety delsen
Ġskick ades
ĠÃ¶verst el
Ġom Ã¶j
ĠV olv
Ġdrev s
p i
ĠF isk
ĠÃ¤g des
Ġpopul Ã¤rt
Ġdriv a
Ġbef ri
Ġ185 2
p ool
Ġd a
ord in
sk y
Ġg atan
Ġtill verka
Ġpubl iken
ann i
ĠThe odor
Ġfant as
Ġb ur
Ġar terna
ekn ik
f urt
st an
ĠpÃ¥ gick
ĠB ag
v ill
ek terna
Ã¤r ket
Ġst rÃ¥l
ĠEl it
Ġbar net
Ġborg mÃ¤stare
j k
w an
Ġkor et
Ġregel bundet
g arna
Ġh jÃ¤r
Ġn ut
ĠH ud
ĠFran ska
Ġlu ften
ĠâĢ ľ
ĠK h
ent als
ĠWilliam s
Ġhan tverk
ĠCh urch
i h
pl ikt
Ġtyp en
Ġkonkur s
ĠÃ¥tskill iga
Ġbygg ts
ĠLud wig
f ran
ĠtjÃ¤n ster
Ġ185 1
ĠprÃ¤ ster
v agn
Ġf rakt
ĠJ ers
Ġpl Ã¶ts
ct ic
rip ande
ste atern
Ġt unga
ell o
Ġ4 8
ub bl
ĠR yd
Ġbef Ã¤st
Ġfunkt ioner
el en
ĠArgent ina
Ġhan n
Ġmin or
Ġident ifier
Ġopp osition
b Ã¥
ik an
ut z
demokrat erna
Ġk re
re y
ĠjÃ¤rnvÃ¤g sst
ĠmÃ¶jlig heten
ĠskÃ¤r gÃ¥rd
ĠBon n
b iska
u de
sb orgs
Ġind iska
Ġod ling
Ġk ard
Ġbebygg else
ĠR Ã¶d
ĠHel a
Ġmy st
B A
ĠD ra
Ġvin st
ĠkÃ¤ll a
Ġled des
ac itet
Ġmusik al
l Ã¤r
s hus
ĠSt ift
at ens
Ġb ask
Ġn ot
ĠN az
ĠFil ipp
Ġutg rÃ¤v
Ġsam lingar
off er
st ick
ĠSl aget
ĠdÃ¶tt rar
h s
Ġl ikt
fÃ¶r valt
Ġkval itet
v Ã¤gg
ĠÃ¤r v
sb eslut
Ġsk ilda
ĠC ath
iv Ã¥n
Ġmot iver
ĠOr d
ĠframfÃ¶r de
d Ã¤r
Ġf art
Ġtid ning
Ġand re
rad ition
Ġjap ansk
ĠÃ¤m ne
ĠÃ¤m net
al i
ĠY o
ĠI g
Ġbil den
201 2
ster dam
int ress
ĠG old
Ġhel g
al em
Ġkan alen
ĠbelÃ¶n ades
u sta
ĠL am
y ter
ĠM r
lig e
D et
Ġf Ã¤ll
Ġin red
ĠR Ã¤tt
form at
Ġrep ar
mÃ¤ss igt
icip al
konst nÃ¤r
Ġa ger
val d
Ġinspir ation
Ġutrust ning
j aure
ĠKon sta
and ena
ĠlÃ¥t arna
om an
Ġreg ioner
ĠVetenskap sakademien
engel ska
ĠG es
ĠÃ¤nd rade
Ġred uc
en z
Ã¤son g
ĠfÃ¥ng ar
Ġkan on
af Ã©
Ġkem i
ĠHÃ¥ kan
Ġm Ã¤kt
Ġkv innan
lin e
Ġlyck ats
Ġun ionen
ĠSeri es
Ġj Ã¤tt
Ġs il
Ġf rik
or det
ĠN orges
sn Ã¤m
ism ens
ĠKung s
d ent
ĠS us
f ald
ĠP ont
Ġsp ar
Ġsen aten
ĠfÃ¶reg Ã¥ende
Ġgent emot
m es
p ek
im e
Ġall s
Ġman liga
ĠSk epp
Ġspel en
ĠP rem
Ġre ferens
ĠAr ne
Ġbeteck ningen
Ġtyd lig
Ġfien der
ĠBlek inge
ĠB ild
ĠF estival
m ars
Ġav bild
Ġok Ã¤nt
I A
ĠdÃ¶d ades
ĠfÃ¶rm Ã¶gen
giv ning
ĠSoci ety
I n
Ġuppdrag et
ĠfÃ¶r ra
ĠUt an
Ġveck an
ber Ã¤tt
Ġstart en
ĠgrÃ¤n ser
l ich
ĠF eder
uk as
Ġ4 1
ĠHalm stad
ĠHammar by
ĠfolkrÃ¤k ningen
ĠF em
Ã¤gg e
u al
Ġ rÃ¥k
Ġf ikt
ag ar
ber gen
Ġdrog s
Ġfl est
ĠSp ar
ĠEurop as
Ġ180 9
Ġcy kl
Ġh ast
Ġra ka
Ġbety delsef
f elt
ĠU p
Ġpost en
ard o
cen ter
Ġmill imeter
Ġorganis erade
ĠYtter ligare
Ġgru v
Ġdi verse
Ġpre uss
ĠsÃ¶k er
Ġg olf
ĠC ra
Ġbet on
ĠGot lands
ĠS Ã¶r
ĠB ah
ser ier
ĠstÃ¶d de
Ġ rakt
rÃ¶ na
ĠG las
ari o
form er
Ġutex aminerades
part ement
ĠTe am
200 2
ĠLe w
rek ord
m Ã¥ga
s ens
Ġp res
ĠStra x
Ġs Ã¤r
kon s
200 3
pl ex
ĠfÃ¶r n
ĠLou ise
Ġmynd ighet
ĠstÃ¤ll en
ĠAm sterdam
Ġdoms agor
ĠRes ult
i que
Ġh Ã¤x
Ġform el
f as
Ġskog en
Ġm Ã¤sterskapet
all a
akt iv
Ġex port
ĠWind ows
ĠAnvÃ¤nd ning
Ġd rÃ¤kt
ĠN orm
Ġty der
Ġhamn en
ĠEskil stuna
ro ss
ist e
ĠhÃ¤n delse
ĠH ess
ter s
gÃ¶r ing
Ġdeltag are
ĠnaturvÃ¥rds unionen
ĠB red
ven ser
Ġ18 20
Ġtron en
ed ia
usl Ã¤n
h amm
Ġakt iviteter
Ġuppf ost
ĠSÃ¶dert Ã¤lje
ĠBarcel ona
ĠT yska
ĠO ne
as a
as ar
Ġfram trÃ¤dde
vers ionen
ĠCarl sson
polit ik
ĠChamp ionsh
ĠfÃ¶rsÃ¤lj ning
sk amp
ĠL ok
ĠersÃ¤tt a
Ġut satt
ĠPre ussen
ust er
sten ar
ĠtjÃ¤n stem
ĠRe al
Ġhel ikop
ĠB Ã¶
Ġbak ter
Ġmotor vÃ¤g
Ġmat eri
Ġhitt ar
sd otter
Ġs Ã¥gs
ĠR olf
Ġ18 10
ĠÃ¥ stad
ĠUpp land
ĠfÃ¶rest Ã¥ndare
Ġh im
Ġb ist
ĠGl ob
ĠfÃ¶g derier
Ġan kn
Ġsen ast
Ġliv e
mÃ¥l ningar
ĠFlor ida
ĠfÃ¶r fÃ¶lj
Ġman nen
us entals
p ital
Ġen staka
Ġkommun ala
ĠinfÃ¶r de
ĠI b
Ġing Ã¥
Ġdi agn
Ġkron an
Ġvers ioner
Ġkrets ar
Ġ4 3
Ġabs olut
ĠC ont
Ġ6 4
ĠfÃ¤l tt
Ġid Ã©n
Ġintress en
rum met
Ġindel ta
Ġap otek
Ġjur is
Ġsign al
Ġr inner
bl ick
ĠSp ring
ĠRum Ã¤n
ed al
Ã¤g aren
man uel
Ġ184 6
Ġmor det
Ġm id
Ġk ass
ĠpÃ¥ ven
og g
n Ã¤t
Ġar rester
ĠfÃ¶ret og
ing ham
ĠT ors
rÃ¤ da
ĠLin kÃ¶pings
ĠModer n
Ġvar ken
Ġbl ivande
rÃ¶ ts
Ġ184 4
Ġh yd
Ġkomm end
Ġner v
Ġdisp uterade
as on
ĠT ony
Ġber Ã¶r
ĠAll t
ĠsÃ¥ng en
Ġren Ã¤ss
stÃ¤ll da
ĠHon an
d ie
en skomm
or o
ri e
d Ã¶met
Ġt ala
ell i
Ġf rek
ak u
Ġstat ens
trÃ¤ sket
ĠS Ã¤
Ġskulpt Ã¶r
ĠE ss
ell s
kl art
ĠBro wn
bef Ã¤l
it o
Ġdom inerande
Ġavs ikt
b Ã¥tar
ĠA sh
Ġsk ul
ĠFran Ã§
Ġst anna
Ġhal van
Ġhum or
Ġsk ytt
ĠV olk
Ġhel iga
fÃ¶r t
ĠEst land
Ġberg s
ĠPriv at
ĠSk Ã¤r
ĠbefÃ¤l havare
e o
ĠW ester
Ġal tar
ven ska
ic tion
inn et
ĠrÃ¶r elser
Ġsyss els
Ġ184 5
Ġhund rat
ĠintrÃ¤ff ade
m osfÃ¤r
il i
ĠB ond
Ġtre a
Ġpresident en
b it
Ġut smyck
skriv are
lÃ¶s ning
Ġflick or
Ġker am
est ern
Ġallt fÃ¶r
mat ch
f estivalen
ĠT un
ĠP ic
ĠJ ugoslav
Ġpre senterade
ĠvÃ¤l jer
Ġmynd igheterna
l Ã¥t
Ġd in
ĠF rid
hus en
' t
n is
Ġ4 7
Ġkraft iga
Ġev angel
ĠBeg reppet
re ll
Ġpart iled
Ġmott ag
Ġbarnd om
ĠfÃ¶r hand
ĠM ala
it ation
ĠInd ustri
Ġver ktyg
e w
Ġst ationen
Ġliv stid
Ġtrupp erna
us alem
ĠEl iza
ĠAnd rÃ©
ĠG ram
ĠmÃ¤nnisk ans
Ġint ryck
Ġt rop
Ġpapp er
Ġre kt
Ġljus are
ĠStan ley
Ġh yr
Ġin rikes
ĠL jus
kom sten
Ġproduc era
ĠP la
Ġspeci alis
ĠA h
ĠKro atien
art ade
form ation
Ġmag net
ĠJÃ¶n kÃ¶ping
n ats
Ġt emper
Ġsjung er
g jord
Ġt aget
Ġb yta
Ġkon ver
Ġexper iment
Ġd itt
ĠD rag
ĠR iver
op erat
ĠÃħr ets
ĠrÃ¶st erna
ĠPhil ip
v ag
Ġslut a
Ġm agn
ig aste
sman ska
ĠbesÃ¶k are
ĠomrÃ¥den a
Ġbred a
Ġbr Ã¶der
ĠFrank rikes
ĠJÃ¶n kÃ¶pings
Ã¤ker het
ĠN ick
Ġport ugis
a us
Ã¥g et
Ġinte gr
ĠBert il
ĠHÃ¶ sten
vin sen
ĠS ilver
ĠS oph
Ġl ung
ĠH Ã¤st
unkt ion
Ġtidskri ft
ĠA merik
ĠP ek
ĠIn stit
Ġtillf Ã¥ng
ĠdÃ¥ lig
lar a
l ogs
ru nd
ĠF Ã¶lj
rans chen
Ġk Ã¶k
ĠÃ¶verstel Ã¶jtnant
ak i
Ġteck nade
feld t
â ģ
Ġbel g
ĠVictor ia
ĠLand skommunen
ĠmjÃ¶l k
op s
ĠrÃ¥d givare
st ationen
Ġ184 2
F C
ĠM Ã¶
ĠK Ã¤ll
Ġbild andet
ansk e
Ġkons ul
g l
ĠEnd ast
on ny
ĠG am
ĠD ick
Ã¦ r
ag u
ĠG ard
Ġbe ord
ĠD un
au rus
sfull mÃ¤ktige
Ġadministrat iva
are ll
Ġp el
ĠC y
ĠuppfÃ¶r d
d Ã¶
p at
ĠM oh
Ġsv ag
Ġtopp en
Ġt empel
ĠUt veck
ĠhÃ¥r da
Ġnomin erades
Ã Ħ
st rÃ¥
vin na
Ġarran g
m og
ĠB ang
Ġ% ),
Ġklubb ens
Ġuppkall ad
Ġv ulkan
Ġseg rar
ĠJers ey
Ġnatur reservat
Ġupp stÃ¥
Ġkar akter
h Ã¤r
re e
Ġmed alj
Ġperi oder
ĠOper an
ubile um
Ġc it
verk samheten
ard s
Ġkont ra
Ġlig ga
Ġs Ã¶nd
Ġnord ost
sven sk
ĠHed vig
Ġmik ro
Ġ18 15
hÃ¥ll are
Ġskriv na
Ġmax im
k ed
sk am
Ġam atÃ¶r
ĠberÃ¤tt ade
eff ekt
Ġf ord
Ġc on
Ġfigur er
t j
Ġseg el
Ġscen er
Ġb ott
ĠB est
ĠvÃ¤g er
l Ã¶p
Ġf akult
att s
ĠJan e
ĠHar ris
Ġkron prin
ĠTel evision
k ors
os h
Ġungdom s
Ġu m
ĠHel ena
ĠM ill
Ġkropp slÃ¤ngd
ĠJes u
ĠGi ov
ĠK Ã¶l
ak ien
Ġind ian
ĠKrist us
bas erade
Ġavl id
Ġst ig
ĠB un
ev al
Ġk ry
h ol
ĠM ess
mask in
akes pe
ar ia
Ġg rat
ter as
ĠNy heter
ĠfÃ¶rbÃ¤tt ra
speri od
ar et
ĠB ron
ĠP ala
ut skottet
ĠX II
ĠgrÃ¤ns ar
ĠJer usalem
o z
ĠO ber
kon g
Ġregion ala
ĠA kademien
Ġver ka
Ġav ser
ter at
ĠM ik
h Ã¥l
bl Ã¥
ubl ic
co ut
Ġkontro vers
Ġbytt es
Ġdjup t
h ot
Ġut Ã¶ver
Ġdel eg
ran tz
Ġegent liga
m ag
ĠT omm
ĠÃ¶ver vÃ¤g
sn amn
ĠSomm aren
Ġt yg
Ã¤r ta
Ġd vÃ¤r
ĠKv inn
id ningen
ĠL itt
ĠL ab
tal s
lÃ¶ m
ĠmÃ¶jlig heter
Ġh Ã¤
Ġv eget
ĠS ab
els on
Ġtal ade
ĠZe eland
Ġdyg n
Ġutveck lat
Ġeg ypt
Ġregering ens
ĠJo e
tÃ¤v ling
Ġsk arp
Ġambassad Ã¶r
il ien
ter ad
av e
ĠSk ell
ĠSk Ã¥nska
Ġang Ã¥ende
fÃ¶r hÃ¥ll
ĠCh ile
Ġklass ific
oft a
Ġmandat peri
Ġs ens
m Ã¤ngden
ion jÃ¤r
Ġ4 6
Ġsystem atik
ĠBay ern
ĠJacks on
Ġg arn
ĠM innes
Ġfem in
r ill
on ien
Ġfas ad
y e
Ġsk il
hÃ¶r ighet
ĠfÃ¶rst Ã¤rk
n ers
ĠSt ure
our t
ar den
Ã¥ ns
Ġkonserv ativa
Ġb all
sk en
ĠA ug
Ġbet yg
Ġd ro
ĠG rupp
Ġvack ra
Ġv akt
Ġav handling
Ġsk Ã¶ld
eri erna
ĠSh akespe
f rÃ¥gan
v agnar
Ġkonkur rens
Ġengag emang
ĠNik ol
skol e
ĠRo ad
ud i
ĠvÃ¤n skap
Ġom gÃ¥ngen
ak ade
opul ationen
Ġhom osex
Ġb onde
Ġr Ã¶n
ĠÃ¶ver tal
Ġny het
Ġmusik vide
ĠFin ska
ĠBro ok
Ġfatt iga
fÃ¥g el
elj Ã©
j unkt
Ã¶ pp
Ġfin lÃ¤ndska
c ol
ĠpÃ¥ verka
ĠvÃ¤r me
ĠÃ¤n ka
Ġnation ell
Ġfler talet
Ġt usen
Ġv Ã¤s
ĠH Ã¤ll
h ult
Ã ł
ch s
ĠP ed
Ġr Ã¶k
sp rogram
ĠT ay
Ġfri herre
Ġtor ra
sled are
ĠBoh uslÃ¤n
D A
ĠSt aff
b Ã¤ck
res a
Ġpers pektiv
Ġin rym
Ġupp hÃ¶j
eb orgs
Ġstad sm
ĠDanmark s
Ġback hopp
y ser
ĠS eb
Ġsk ett
Ġverk liga
Ġtill Ã¤gg
ĠmÃ¶j liga
h allen
Ġst ater
Ġan nor
var ig
ĠrÃ¤tt a
man na
Ġp al
ud an
z en
Ġin tern
od d
Ġrek ry
ekonom i
ri ver
Ġtid nings
Ġc om
sel e
Ġsen ator
Ġ5 2
ĠpÃ¥verk an
f yll
ĠK Ã¶n
Ġlin jer
Ġarbet sg
ĠEle on
ĠInstit ute
t rafik
Ġtill fÃ¶rord
rep ren
Ġuppfatt ning
ar iska
av el
in te
Ġrik ets
ĠmÃ¶ ta
Ġexp ans
Ġkall ats
ĠJu an
Ġd vs
ĠF ac
199 8
ĠtillfÃ¥ng at
t yp
ĠS ep
sta ben
stÃ¤ll a
Ġhand lade
ĠAll svenskan
Ġtj eck
ok oll
Ġhuvud person
al og
Ġvar or
Ġsm itt
Ġtidskri fter
Ġrygg en
ĠMargar et
ieb olag
ĠK le
ast rof
Ġsuc cess
Ã¶ det
ĠerÃ¶v rade
Ġsitu ationen
ĠP ot
Ġre ser
g jort
Ġv agn
ĠfÃ¶retag ets
ĠDav is
Ġsitu ation
Ġav st
ĠB ull
ĠBygg nad
k Ã¤nna
rÃ¤ nd
ok er
ĠMa jor
Ġskiv or
ĠÃ¶ de
Ġ183 9
ĠBill board
es e
im mer
ĠnÃ¤m nda
fÃ¥g lar
l Ã¤kare
ĠG rav
Ġkor rekt
ĠEm ma
ĠsjÃ¤lvstÃ¤nd ig
t io
Ġt Ã¤m
ĠF ir
Ġexper im
ĠVis by
m oder
ĠÃħ ter
Ġsomm ars
k unn
r alen
on ger
sk Ã¥despel
197 0
ĠsjÃ¤lvstÃ¤nd igt
Ġk under
ĠF ro
Ġpopul aritet
ĠÃ¤mbet sman
rÃ¶st ning
ĠVolv o
ĠV ers
art s
Ġfin ner
Ġseg ern
E n
h iel
ing st
is erad
Ġverk ligen
ĠDo ug
sk o
re b
ĠsjÃ¤lv bi
ĠFo ot
ĠYo ung
ĠL en
Ġstrid sv
m Ã¤st
Ġkommun erna
Ġhel het
v as
lig an
Ġra k
ĠSÃ¶der malm
eled amot
ĠG ill
Ġny ligen
Ġbild at
Ġdiplom at
a ver
ĠÃĦ r
ĠPetter sson
n ord
ĠV lad
Ġpapp ers
Ġblomm or
f Ã¶ll
ra pp
ĠSt ort
ĠLe op
Ġmode llen
k in
sl Ã¤pp
ĠvÃ¤rld sc
ĠhjÃ¤l per
ĠWil son
Ġink orpor
Ġuteslut ande
ĠV Ã¤g
ĠvÃ¤rld skrigets
Ġvist ades
Ġvik ing
ĠT ob
Ġsp ring
Ġinst ift
ĠUrsprung ligen
Ġk ab
ion erna
Ġem ig
Ġframtid en
ĠF adern
ĠT al
Ġ18 12
ron d
Ġfri idrott
avs ett
Ġreform er
ĠF all
op ol
ode ll
Ġsnabb are
ath an
ak on
f ir
Ġg Ã¤ng
Ġsten ar
Ġbru na
ĠChampionsh ip
ĠS id
ĠR unt
Ġmin skat
ĠBost on
f und
ĠRog er
Ġin komst
ĠB oll
oss e
Ġbeskrev s
r ys
rÃ¥g or
forsk are
ĠPrin s
l Ã¤ng
Ġm ellersta
ĠL iver
sb olaget
skol ans
Ġmisst Ã¤nkt
Ġfin sk
sh em
ĠEurop ap
ĠupptÃ¤ck er
Ġvist as
en an
Ġf i
ĠA th
red it
ĠKall e
ĠÃ¶sterrik iska
Ġsty re
ĠnÃ¤r liggande
ĠfÃ¶rsamling ar
ĠflÃ¤ck ar
ĠE bb
fÃ¶r band
im ir
ĠhÃ¤r rÃ¶r
ĠMan chester
fall et
Ġklubb ar
r ala
ĠC ec
Ġsyd ost
Ġvi olin
ĠhÃ¶ st
sb ron
Ġreg ent
ĠW allen
Ġgrund at
Ġavs edd
Ġp rat
ĠI tal
ek om
ĠTid ningen
kro ppen
Ġbrons Ã¥ldern
v es
am i
ang ul
ĠhÃ¶r a
201 3
ĠBrand enburg
Ġd rar
ĠPro jekt
Ġm yr
Ġan mÃ¤l
ĠN ar
opp et
ĠAl ice
Ġteck ningar
Ġstark are
v o
ag as
ĠM ans
ĠL Ã¼
ĠO skar
ĠW ahl
hand lare
ĠÃĦ n
fÃ¶r bin
uk e
Ġ184 3
199 9
Ġm e
ĠL aget
led amot
ĠCl ark
Ġk ans
Ġhem bygd
Ġelekt risk
inst rument
hjÃ¤l p
ĠForn lÃ¤mningar
ĠsÃ¤m re
h agen
kl ock
sten en
Ġspeci ell
Ġpj Ã¤s
J ag
h op
ĠR ub
ĠÃ¥ ka
ĠÃ¥ter in
Ġl abor
ĠR agnar
ĠBerg man
Ġtradition ell
ĠCharl otte
Ġmedic inska
Ġuppen bar
c upen
f Ã¥ng
at us
Ġk rÃ¶n
ĠA ten
Ġtekn isk
Ġb ox
Ġnov ell
Ġstuder at
Ġbegrav des
ĠS ex
Ġsy skon
ĠN obel
il ia
âĤ Ĥ
Ġm ans
on te
ĠfÃ¶r med
ĠbenÃ¤m ningen
tex t
Ġd ivisionen
ĠA x
ĠT rÃ¤
ĠI B
Ġre sp
ĠutgÃ¶r a
Ġhalv Ã¶n
ĠBern hard
Ġt orget
fl ykt
olog er
Ã¤rsk ilt
rodu ktion
ĠPart iet
ĠSkandinav ien
g Ã¥tt
Ġv Ã¤nde
ĠK os
194 5
Ġgro v
all e
Ġo av
Ġav lÃ¤gs
Ġturn erade
Ġavg rÃ¤ns
ĠT yp
sl Ã¶sa
Ġovans idan
rÃ¤d gÃ¥rd
Ġinspel ningen
ĠfÃ¶ delse
Ġe arl
Ġvil d
ĠtonsÃ¤tt are
f ast
ĠB ryss
Ġut lÃ¤ndsk
ord ningen
g rÃ¥
Ġsk ade
Ġm amma
ym ologi
ĠSp eci
Ġte orier
na g
Ġ5 1
Ġmin im
ĠvÃ¤ster ut
Ġkamm are
Ġtom t
Ġvil ar
Ġplan en
ĠMed ic
produ cent
Ġz o
b rand
ĠFran ces
Ġskog sb
199 4
full mÃ¤ktige
st jÃ¤rnen
Ġin delning
ĠfÃ¶rm Ã¥g
ĠanlÃ¤gg ningen
en ce
Ġansvar et
Ġskad ade
Ġmun icipal
ĠdÃ¶p tes
Ġr y
ĠslÃ¤kt ingar
b ek
Ġtrad itionen
j el
Ġom byggnad
um mer
Ġkon ung
sats en
ymnast ik
Ġo st
Ġb Ã¥l
ent ligt
Ġbeskriv a
Ġerbj Ã¶d
Ġstudieres or
Ġannor lunda
Ġem ellan
ĠN ight
Ġat mosfÃ¤r
Ġnog gran
Ġa c
ĠB M
ĠÃ¶ver ra
ic us
Ġsvensk e
ĠNorr bottens
ĠSyd amerika
A n
Ġor ter
ĠÃ¤g o
ĠmilitÃ¤r t
ĠSol na
k vist
u z
ĠlÃ¤r overk
Ġgener ation
ĠmÃ¶tt es
r ationen
art h
Ġeurop e
l ers
dag ar
Ġrik e
ĠTe atern
dels erna
Ġvux en
Ġhum an
S k
it iska
Ġst ol
ĠM ell
ak en
odox a
al o
Ġtid punkt
Ġny bygg
Ġhitt as
Ġk os
trÃ¤d anden
Ġtur neringen
ĠUn ion
ĠVin ter
Ġdokument Ã¤r
Ġuppm unt
Ġg ill
il der
ĠF as
Ġflytt ar
A R
j ev
k Ã¥ren
tag ande
rÃ¤ng en
ant ik
ĠmÃ¥l eri
Ġk ub
Ġengag erade
ĠEuropap arlament
Ġav rÃ¤ttades
ri stall
ĠAl i
ĠCon ne
il y
kl in
Ġsol o
b ul
Ã¤ ten
Ġmin sta
empl et
k arl
tid igare
Ġdubb elt
p ir
sk lass
Ġl ektor
ĠA ct
ĠF ern
ĠE konom
ĠEn ter
Ġlitteratur en
ĠAc adem
ĠA del
Ġkommun istiska
Ġsjuk huset
bru na
ĠdÃ¥ tid
Ġbygg andet
ey er
Ġtak et
Ġassist ent
Ġf oss
Ã¤n neteck
ut an
ĠJ im
Ġkommun ist
Ġpol sk
sfÃ¶r eningen
Ġpris er
S M
h alv
Ġr ika
Ġ4 9
Ġby ar
ĠC amb
is chen
ut i
lad d
osit ionen
Ġenkl are
b eg
h of
ĠK az
Ġte ologi
ert igen
ĠOl ympiska
Ġsn Ã¶
f i
Ġf on
ĠSt u
ĠSh ow
ĠKonst nÃ¤r
b ag
Ġan at
rÃ¤ tter
kade min
Ġriksdag sledamot
Ġorsak ade
Ġneder lÃ¤ndska
g o
p ost
Ġkap ital
Ġa kter
Ġstor e
ĠberÃ¤tt else
ĠS or
ĠJohan na
Ġ184 1
Ġintress erade
Ġinflyt elser
Ġtill kÃ¤nna
Ã© l
Ġinne hÃ¥lla
Ġflit igt
ĠB ow
mask iner
Ã¤n kte
Ġinter i
Ġl app
re cht
ĠD res
ĠB BC
Ġdom are
ham mar
k ant
om s
ĠBl Ã¥
Ġfred en
ĠvÃ¤r den
ĠX V
Ġutb ryt
ĠtÃ¤ck t
Ġ18 14
Ġdel a
Ġkvar varande
ĠfÃ¥ng enskap
Ġpian o
Ġsl utt
ĠH Ã¶r
Ġfabrik en
ĠS oll
ĠE sp
Ġkomm ent
Ġfisk e
z onen
Ġh Ã¤ll
Ġfakt um
frÃ¥g or
uru vida
Ġrekomm ender
ol ska
Ġst und
Ġkal fjÃ¤ll
ã ĥ
Ġd yr
Ġg rep
ag na
Ġunder rÃ¤tt
lem ent
ĠM em
Ġtolk ning
stad t
Ġans ik
Ġgjord a
Ġa x
ĠS Ã¤v
Ġpolit iken
m Ã¥
Ġs orts
Ġt riv
Ġb Ã¶ckerna
Ġk od
Ã¥ng aren
ĠSt ads
ĠE du
ĠNorr land
ĠfÃ¶lj t
ĠKl ock
Ġinneh av
ĠfÃ¶r vÃ¤x
ĠC ru
ĠU ll
yr en
ĠMich el
ĠId rott
ĠR uss
ĠstÃ¶d ja
ukt en
do ktor
Ġastron om
Ġterrit or
ĠA z
ĠL ord
ĠC op
Ġkvar n
ĠIng a
Ġstudio album
ĠfÃ¶r g
Ġspel arna
in us
Ġf ars
Ġl add
ĠF Ã¶d
Ġsk Ã¶tt
ari um
cent ral
Ġsv Ã¤rd
bil der
ĠUng dom
Ġpj Ã¤sen
ĠEliza beth
ĠBryss el
Ġb oende
sl Ã¶v
bl od
ĠvÃ¤r n
sv Ã¤r
ĠtÃ¤n k
Ġdy ker
c il
Ġvar ade
sta pel
av delning
sf all
Ġkulture lla
Ġm alm
ĠÃ¤l v
Ġl ar
ri x
ĠJ ens
os lov
ĠCh ris
pro blem
Ġbas erade
ĠStat e
Ġpriv ileg
Ġb j
Ġb ebyggelsen
Ġn Ã¥tt
vall a
ĠpÃ¥trÃ¤ff ats
Ġkonstitut ion
c l
Ġbeslut et
ack er
ĠÃĸv re
Ġre fl
Ġpot ent
ĠPrem ier
Ġo ro
ak ning
op her
Ġhuvud roll
Ġpans ar
s ikt
Ġm Ã¶t
ĠF alk
ĠgÃ¶r as
nu varande
imm el
ĠHÃ¤lsing land
s Ã¤nd
ĠB ut
Ġsl Ã¥r
Ġskilj a
Ġsemif inal
k ins
ĠV Ã¤gen
Ġtj ugo
Ġkejs are
Ġmod ifier
ĠB our
rÃ¤n are
Ġkoncent ration
Ġsam lades
eg o
ĠfÃ¶rfatt arskap
Ġposit iv
ĠfaststÃ¤ll des
ra h
ĠO lle
Ġkont akter
Ġter men
Ġgeneral major
Ġkateg orin
fÃ¶ret aget
ĠWars z
ĠC eder
part en
ĠjÃ¤m te
Ġ :
Ġn ej
ett an
ĠK am
ĠAndre w
ĠfÃ¶rsvar a
ĠuppmÃ¤rksamm ade
Å «
ĠÃ¥r liga
yt ning
Ġbr ett
ang e
spel en
Ġrikt iga
Ġhitt ats
ĠbehÃ¶ vs
ĠmÃ¥lar skola
Ġny bildade
sh amn
ĠModer na
Ġavveck lades
ĠtillfÃ¶rord nad
Ġb ord
Ġc ancer
ĠKarol inska
Ã £
ĠA fton
Ġg rott
Ġunders idan
organis ationer
ĠAnton io
Ġtank ar
ek ul
ĠTh er
ĠtÃ¤m ligen
ĠN ot
upp drag
Ġk as
Ġav del
te ater
ĠfÃ¶rening ar
ĠLiver pool
Ġtv Ã¥ng
Ġ183 4
ĠhÃ¤n syn
Ġt um
al erna
Ġst up
ĠSt illa
ĠlÃ¤r jung
ĠVÃ¤ster botten
Ġf orna
Ġv ig
Ġber gen
ĠfÃ¶ dels
sk alk
te atern
del es
Ġled s
Ġvarier ande
Ġavskaff ades
Ġmol ekyl
Ġl istan
sb ygden
Ġjuni or
ĠDjur gÃ¥rd
ĠtillgÃ¤ng liga
ĠPen ns
Ġbeg av
Ġleg at
ĠCla es
d d
Ã Ł
Ġskild rar
Ġom kom
Ġ7 2
ĠfÃ¶rt roende
ĠSw ed
ĠÃ¶sterrik isk
stre ck
Ġbrott s
vis ade
ej ser
ĠK urt
Ġlat inska
ĠÃĸvrig a
Ġinhem ska
ĠI T
Ġfl agg
Ġmin eral
201 4
ĠMott agande
ĠB es
Ġhuvud ort
Ġstyrels eledamot
ĠMon te
Ġfj Ã¤der
s skolan
Ġl ys
ra ph
Ġut byte
Ġom stÃ¤nd
ĠSte ve
Ġbyggnader na
Ġt av
ĠL au
ĠSam t
Ġprofession ella
Ġf Ã¼r
Ġd is
ĠB og
ĠFrank furt
199 0
Ġexp and
Ġfar bror
ĠAnt h
ĠtillfÃ¤ll igt
e ber
ĠT est
ĠHan sson
Ġoffent ligt
in et
ĠL ena
Ġsam tal
fÃ¶rord ningar
Ã¤ na
Ġst an
ss pel
ĠÃ¤ ta
ĠJ Ã¤m
Ġpl ant
Ġkyrkog Ã¥rden
Ġuppn Ã¥
ĠXI V
ĠplÃ¶ts ligt
r att
v est
at ch
Ġt rÃ¥d
ĠA ut
Ġefter fÃ¶ljande
Ġint og
Ġ183 5
Ġgrav fÃ¤lt
) ;
h ren
Ù Ħ
rik et
Ġpo esi
199 5
ĠVerk samheten
l ista
Ġav seende
reg ement
Ġbek ant
Ġsamling sutstÃ¤llningar
Ġmak en
Ġk ris
Ġde st
Ġbev ilj
Ġmedverk ar
Ġtrol igtvis
ak im
ark arriÃ¤r
c eller
ab y
Ġdeltag ande
Ġrisk en
Ġsk ala
Ġverk stad
ie w
ĠSy ftet
Ġbro dern
im in
skog ar
Ġdram at
at orn
ĠÃħ land
ĠKvar n
ĠÃ¥skÃ¥d are
e ed
og ram
Ġro v
ĠberÃ¶m d
ĠJugoslav ien
sl Ã¤g
Ġex il
Ġer hÃ¥ll
ĠÃ¥s ikter
G A
ĠD ig
Ġfast igheten
Ã¤d da
st Ã¤ver
Ġe ss
Ġred ig
Ġf ront
ĠF ra
Ġmedlem sst
ĠHer mann
ĠLu ft
Ġtredj edel
Ġm al
ĠR Ã¶
Ġefter hand
ĠMag dalen
ĠlÃ¶s ning
vux en
ĠGiov anni
Ġsnabb a
Ġb atalj
Ġk ore
ĠM anu
Ġ180 8
Ġbl ek
ĠR ost
ĠEin ar
Ġdirig ent
at re
is eras
Ġut redning
st rakt
ĠMil ano
Ġin bj
Ġsekel skiftet
ĠSt a
ĠfÃ¶rl Ã¤gg
Ġsoci alt
Ġ183 7
Ġrev ir
Ġtradition er
Ġsat ell
Ġliber ala
eks and
vÃ¥ ningen
eb ra
verk en
Ġkommunal fÃ¶rordningar
Ġmunicipal sam
Ġ âĢĻ
ĠA rab
Ġge ograf
ĠSy rien
Ġfakt iskt
ĠRumÃ¤n ien
hiel m
d ist
v el
ĠPenns ylvan
ĠfÃ¶r slaget
Ã¶k an
Ġundervis ade
p unkter
Ġs ov
ĠEl ekt
ĠSim p
Ð¸ Ñ
ĠfÃ¶rekomm it
ĠKung l
ĠBr omma
Ġinnefatt ar
Ġflyg flottilj
199 6
Ġsten Ã¥ldern
ĠNu varande
Ġdomstol en
c ir
Ġ qu
hand a
Ġkamp en
ĠH ard
ĠL j
ĠY ng
Ġter min
kan alen
ĠF j
ĠT eg
ande s
Ġkonkur r
Ġsprid ning
ĠÃħnger manland
E S
ĠB yn
ov e
Ġfram gÃ¥r
alt en
Ġfem ton
Ġb uddh
Ġu kra
Ã¥ng er
199 1
ĠEric sson
spro cess
ra ff
Ġkonst hall
Ġinspir erad
ion al
Ġom t
Ġom val
vern Ã¶r
Ġdrabb ade
ĠkÃ¤nsl or
Ġb Ã¤gge
ĠS he
Ġel it
Ġkultur en
iat iska
ĠstÃ¤ng des
Ġdial ekt
d irektÃ¶r
Å ¾
Ġunder stÃ¶d
ĠÃ¶ver gÃ¥ng
ĠvÃ¤x a
Ġ183 6
ĠFot boll
Ã¤gg djur
199 7
Ġfys iska
á ĥ
is erades
as en
ĠAl t
ach us
arm Ã©n
C C
ed lem
Ġl et
ag ne
Ġuts edd
l Ã¤nder
ĠF A
Ġreligi Ã¶s
Ġarranger ade
Ġtill Ã¤g
ik nande
ĠJ Ã¶r
g s
Ġst ru
Ġ183 2
i res
Ġg jut
ĠAr ch
rum p
as ien
Ġre fer
ĠV Ã¤
Ġgrund ad
Ġ5 3
ĠOl ymp
ynd igheten
ĠÃĸsters jÃ¶n
Ġstopp a
at es
it im
ĠP op
s ing
Ġe uro
ĠI P
Ġhav s
res ult
Ġres urser
Ġtysk arna
Ġkem iska
ĠmÃ¶rk are
Ð¾ Ð²
d als
Ġsk ift
Ġfor nt
ĠÃ¶versÃ¤tt are
Ġsakrist ia
sk ans
ĠP il
ĠR ick
Ġchef redaktÃ¶r
rÃ¶r else
Ġtving ade
Ġv alt
ĠK ast
Ġdet aljer
Ġre al
Ġre aktion
Ġskiv bolag
bo x
ĠHall and
ĠfÃ¶retrÃ¤d are
g itar
ĠK Ã¤nneteck
ĠV ita
Ġupp Ã¥t
ĠBol aget
Ġutgiv na
ĠEu gen
n ik
y re
sv ik
Ġplac erad
n os
Ġ5 7
Ġlag t
ĠM ike
ĠL ake
Ġgen ast
ap lan
ĠSch les
Ġra sen
Ġpat ri
Ġkompon erade
et ens
ĠS ara
Ġbeg Ã¥
Ġly ft
Ġprins essan
sk ande
ĠInd iv
Ġhopp ade
Ġtill vÃ¤xt
Ġutg Ã¥r
Ġbef int
ĠS ev
all eriet
Ġnational park
gÃ¶t lands
ĠPart y
Ġparall ellt
ekt ioner
ĠSt orm
Ã¤m betet
Ġro st
vÃ¤r ns
ĠFal ken
ĠBritt iska
Ġv ag
Ġsp Ã¤n
sfÃ¶r et
Ġw h
Ġrel ationer
Ġ183 3
ĠkonstnÃ¤r liga
ĠdÃ¥ liga
ĠbenÃ¤m ning
ĠbenÃ¤m ns
ĠkvÃ¤ll en
j as
ĠN am
iv or
ĠJ eff
Ġ5 4
ĠMar g
Ġsprid a
ĠPet rus
Ġgro ss
on iska
ĠL an
ul en
Ġt rag
ĠA re
ĠvÃ¤x ande
ĠMot ala
Ġkn ut
ro gen
ĠhÃ¶g tid
Ġvan ligare
Ġ183 1
T H
Ġs ter
Ġk a
ĠL Ã¶v
teck ningar
Ġvand ring
Ġbran n
ĠV Ã¤l
rig ht
ĠMa ur
ĠupptÃ¤ck t
Ġis rael
ĠB att
Ġ18 16
Ġung erska
Ġriksdag ens
Ġuppf yll
Ġinfanter i
fÃ¶r a
sl iv
Ġtid erna
verk ning
ĠsjÃ¶ ar
Ġutrikes minister
E C
Ġav handlingen
ĠL ett
ĠL ive
Ġstrid en
E rik
ĠW ay
ran t
opp en
ich te
ju ter
ĠMarc us
el ett
bar het
ĠFal un
Ġpapp a
- -
Ġl Ã¶st
ĠL is
ĠÃ¥r tion
ĠframgÃ¥ngs rikt
Ġposit iva
ĠP lat
ino is
d isk
de x
ll t
Ġp ul
Ġ5 6
ĠkÃ¶r des
ĠhÃ¤ng er
ĠC ass
Ġny are
ian us
ĠUt ifrÃ¥n
Ġriksdag sman
. âĢĿ
ĠR Ã¶n
produ kt
Ġsid orna
Ġtidig aste
ĠEt ymologi
Ġtill tal
ans as
ĠnÃ¤r ing
ĠfrÃ¤m mande
ĠLind berg
Ġdok umenter
Ġkonfl ikter
ĠT orp
ĠO ld
akt a
Ġkost nad
Ġb Ã¶j
Ġl ust
Ã¥r sj
Ġfilm erna
ĠJos Ã©
z j
en berg
Ġs Ã¤tter
Ġd rottningen
land ss
ci o
Ġhot ade
ĠTor sten
ĠT rafik
ĠL asse
ĠG Ã¥rd
Ġ18 13
Ġfl ytande
yl ind
ĠtÃ¤v la
Ġspets en
Ġevent uellt
ĠDres den
G P
s Ã¶
Ġf ara
det s
ov o
sm et
Ã¶v de
Ġrec ensioner
ĠR Ã¶r
Ġstad sfullmÃ¤ktige
ian o
ju ka
under sÃ¶k
ĠÃ¥tt onde
D R
Ġmet al
amerik ansk
Ġs ag
ig ar
Ġst jÃ¤r
Ġarke ologiska
ĠPennsylvan ia
Ġh jÃ¤rn
f ver
ĠP ak
ĠÃ¶ l
ex t
min a
Ġmusik aliska
lev ande
chef en
Ġident itet
Ġorig in
' ,
ĠK in
ala x
ĠMa in
m is
Ġl ej
Ġskol ans
ament et
Ġs Ã¶m
ju den
ĠCharl otta
h yd
Ã¤r ken
ĠlÃ¤g er
L A
ĠfrÃ¤m ja
Ġ183 8
ĠFoot ball
achus etts
D e
re ven
spart iet
ĠT op
Ġheders doktor
o id
an iet
ĠS ah
ĠB urg
ĠP rim
Ġ182 8
ĠJon sson
ĠbelÃ¤g na
f Ã¤st
ĠT en
ĠLeop old
Ġsj unga
Ġbes vÃ¤r
pro v
Ġres an
Ġbruk ade
ĠRe ich
Ġgamm alt
ĠkÃ¤nneteck nas
Ġlib rett
Ġflag ga
ĠinfÃ¶rliv ades
t urn
Ġk ed
ĠH Ã¤rn
Ġunder jord
handling arna
Ġd rÃ¶j
ĠS yl
and y
ĠM ir
im er
Ġbr Ã¤nn
au er
ĠFreder ik
n Ã¶j
s omrÃ¥de
ig i
adel ph
Ġb Ã¶n
Ġut med
ĠL ife
Ã¤k ter
av tal
rac ing
Ġb Ã¥tar
ik el
Ġst Ã¥ende
ban ken
ĠConne ctic
ĠN A
ĠlÃ¶p er
ĠMass achusetts
e or
Î ¿
Ġ Ø
et ik
ĠÃ¶ver enskomm
ĠF ox
Ġkon cept
ĠSk arab
form ade
vÃ¤r m
Ġkrit erier
ĠÃ¥terv Ã¤nder
Ġtj ug
ĠFrit z
T S
ĠB omb
Ġfast landet
Ġtving as
ĠsjÃ¤lvstÃ¤nd iga
ĠJac ques
n ation
Ð ´
Ġsk Ã¶t
Ġbygg et
Ã¥k ers
Î ±
Ġfran ske
Ġtal ang
199 3
Ġgraf iker
Ġry kte
Ġa ff
ol and
av Ã¤gen
Ġskad ades
Ġrenover ing
a e
Ġ18 18
ĠO ri
ĠUpp lands
ou ri
Ġelekt riska
skog en
Ġgymnas ium
E M
s verket
ĠK omp
ĠvÃ¤r der
ĠSk Ã¥n
ĠEk man
Ġborg en
ĠInstitut et
ĠH amm
Ġvar ifrÃ¥n
ĠJ ar
ĠfÃ¶rs Ã¶kt
ont o
Ġhalv t
ĠpÃ¥verk ade
Ġkur s
ĠfÃ¶rvalt nings
Ġkoll ekt
Ġintell ig
ĠLew is
ĠD Ã¼
ĠSk ivan
Ġkrig sf
199 2
Ġtank e
Ġturk iska
F A
Ġh e
ĠSt rÃ¤ng
ok ument
Ġrad ie
Ġskick a
iff er
Ġensk ild
Ġdoms aga
reger ing
s bergs
er ligen
an es
Ġber Ã¤knas
Ġtit lar
ĠBro ad
s huset
teck ning
Ġrepresent anter
ĠEleon ora
Ġt ob
Ġd ryck
ĠfÃ¤r gen
Ġfur st
Ġnyck el
ĠV el
ĠJ un
Ġar men
olog y
Ġhus en
ĠPhil adelph
kust en
b ent
g rav
Ġverk ligheten
ĠSer bien
ĠExempel vis
Ġbut iker
Ġkvart sf
R I
r Ã©n
ed y
ĠD ef
ĠT ak
Ġw ith
ĠChrist opher
ĠsÃ¤k ra
ĠColumb ia
ĠSkell efteÃ¥
am et
Ġg lad
id rag
ĠL ux
Ġuppe hÃ¥ll
resp ond
ĠFranÃ§ ois
d orf
l it
id o
ol ja
ĠfrÃ¤m re
Ġsocialdemokrat iska
Ġvill a
Ġpat ienter
ĠHoll and
l eg
ĠpÃ¥ ve
Ġjord ens
Ġutbild ad
ĠTok yo
Ġgifter mÃ¥l
ĠE ld
Ġgrav id
ĠLand skrona
ĠJo akim
ĠLov isa
Ġutform ning
ĠIng rid
ĠfÃ¶rvÃ¤rv ade
Ġpar ad
ĠfÃ¶reb ild
Ġt anken
ĠG ood
ĠSk ara
trÃ¤ de
ĠbestÃ¤m m
ĠPe hr
h old
ĠH ult
vÃ¤g ar
mÃ¤r ken
ĠsÃ¤ teri
ĠKong o
ĠmÃ¶rd ades
ĠSamt liga
p in
Ã¤g na
ĠBo y
ĠfÃ¶rlust er
k ron
Ġbeskriv ning
Ġsommars pelen
Å Ħ
Ġs u
red je
ĠmÃ¥l ning
h on
Ġpl und
ys ant
Ġb ens
ot o
ĠN Ã¤sta
1 00
Ġor ol
Ġhand lingen
ĠutfÃ¶r t
ĠTim e
familj en
Ġprop ag
" -
Ġm Ã¶tet
Ġh all
Ġk aff
ĠG P
Ġber ed
ĠSw eden
Ġl Ã¤ste
Ġn oll
ac o
ida e
rom an
ĠGer hard
Ġrid dare
g Ã¤rd
Ġde press
Ġkamp anj
ĠJÃ¤mt lands
w ick
Ġ Ä
ĠB rÃ¤n
Ã¤nd sk
Ġ179 0
ĠIll inois
g han
Ġland shÃ¶vding
Ã¨ s
Ġt rafiken
Ġut rop
ĠP rogram
Ġstil en
Ġskill nader
ĠtillgÃ¤ng lig
ĠRid dar
ĠÃ¶g onen
Ġv ingar
19 20
ĠinvÃ¥ narna
reg ionen
s or
sk oll
ĠL P
Ġex kl
ĠD j
ist o
var or
Ġfar far
ĠfÃ¶rsvar et
ĠfÃ¶rkl ara
Ġt ab
ĠslÃ¤pp t
ĠTay lor
Ġb oplats
Ġin sk
gen om
sten a
ĠrÃ¤tt egÃ¥ng
F S
Ġg ata
ett i
um a
part iets
ĠEle ct
Ã¥ p
Ġst im
Ġkonst fÃ¶rening
Ġint rÃ¤dde
Ġsm ekn
plan et
197 9
Ġsammanslag ning
Ġupp vÃ¤xt
Ġmoder fÃ¶rsamling
l ivet
z i
ĠS ak
ĠC em
ĠU dde
ĠSt rid
sb olag
Ġakt uella
ĠOper ation
an vÃ¤nd
st yp
Ġre cept
sl Ã¤ngden
red ningen
lin je
ub e
197 3
ĠN et
cen en
ĠLitt le
ĠdÃ¤r av
alm ers
ĠAtl ant
ĠHon or
Ġte orin
splats en
Ġakadem iska
p lac
Ġf ett
Ġmed ier
Ġred ovis
198 2
ĠLinn Ã©
ĠA S
kt a
ul in
ov iÄĩ
ann y
Ġ8 5
Ã¶nst ret
k m
f el
de mar
Ġen lighet
ĠM arl
Ġkon g
val v
ĠhÃ¶r n
ĠutnÃ¤m nd
Ġp rÃ¶v
ĠS Ã¥ngen
id napp
ĠT ull
Ġflott a
Ġtyck er
ĠP or
Ġbo skap
Ġstrand en
Ġtenn is
Ġfav orit
h ed
s lig
ĠK ai
ĠhÃ¤st en
kap ten
ĠDem okrat
Ġd Ã¤ggdjur
enn er
by rÃ¥n
ĠSven skt
198 0
Ġkandidat examen
sm ot
ĠUt bildning
Ġfull bord
Ġmaterial et
Ġsjukdom en
ĠKristian stad
Ã¶r else
ind s
ĠvÃ¥ ra
op t
pt ion
omrÃ¥den a
Ġomgiv ande
d or
Ġf rÃ¶n
rat er
fÃ¶rl ust
u sson
ĠÃ¶ ns
Ġman u
ĠlÃ¥g t
Ġmor al
ĠberÃ¤tt elsen
ĠfÃ¶rklar ar
ĠNed re
ĠPhiladelph ia
c ast
Ġf oster
Ġp alats
Ġ18 19
Ġfram t
eb re
ĠÃ¤nd ra
ĠHel ge
ĠsvÃ¥r igheter
ĠLÃ¶ f
Ġpassager are
o ugh
Ġk ryss
ĠJ r
eb ack
k orea
ĠK oppar
fÃ¶rs Ã¶k
Ġut for
Ġ6 6
ĠKyrk ans
ĠChamp ions
om ent
al and
em oni
Ġbar ns
Ġinv olver
ĠNorr botten
ĠM Ã¥r
Ġland sbygden
ÃŃ a
Ġklar ade
ĠStift elsen
Ġav delningen
ĠS em
ĠL as
Ġkonst en
ĠH un
nar d
sb ild
fess or
ĠMelod if
Ġf unnit
on erna
Ġal b
198 9
Ġgymnas iet
Ġupprep ade
ad der
ĠR em
Ġfram stÃ¤llning
Ġbred vid
Ġhy res
ĠTomm y
Ġtillb ak
sbeslut et
on ser
ĠT omas
ĠR ay
Ġdel tar
rag ment
Ġstud ierna
Ġbyggnad s
ĠfÃ¶res lag
Ġm Ã¤sterskapen
Ġtillverk ningen
Ġkompl ic
stug a
i ansen
ĠT Ã¤t
ĠK amp
Ġut se
ĠN er
up t
Ġs Ã¤nda
is erar
Ġsk Ã¥nska
Ġunders Ã¶ka
skam per
b rÃ¤n
b ury
Ġs ikt
at z
ed alen
rupp er
Ġsamarbet ade
Ġdebut album
Ġomtal as
n ien
Ġk Ã¤nn
ĠP ite
ĠÃ¤g aren
Ġsemif inalen
Ġflyg er
ĠuppmÃ¤rksamm ades
b ock
l ubb
Ġfl Ã¶g
ĠNikol aj
Ġut fÃ¤rd
Ġhov rÃ¤tt
ĠÃĸsters und
ĠS med
Ã¥r ige
ĠP ass
ĠHan na
ĠvÃ¤r m
ach er
ĠtjÃ¤n sten
Ġstann ar
Ġleg end
k re
Ġo avsett
ĠL Ã¤r
samling ar
Ġ182 9
Ġankn ytning
st orps
ol ph
Ġsk rÃ¤ck
ĠK em
ĠL yck
Ġ6 8
Ġklass en
198 5
J oh
att an
ĠB ulgar
ĠarmÃ© ns
Ġupp sÃ¤ttning
sp opulationen
Ġsp eg
ian sk
ĠbegrÃ¤ns ade
ik al
ĠD ur
ci pl
ck a
Ġkyrk byn
j oki
Ġs eriet
Ġstud iet
Ġ182 7
Ġtag its
Ġerfaren het
ĠKonsta kademien
ĠP omm
Ġt ran
on der
ĠK ell
Ġkun skaper
Ġpopul ationen
ĠSÃ¶der manland
v Ã¥g
Ġm orm
rÃ¤d d
ĠstÃ¶r st
shistor ia
M A
ot e
ĠC er
ĠstÃ¤ll e
ĠSÃ¶der manlands
ĠsÃ¤k ert
full t
Ġsp Ã¥
ĠNorr lands
ĠersÃ¤tt ning
ĠAcadem y
F F
g Ã¶ta
ĠD ay
ers en
Ġfram fÃ¶rdes
ĠdÃ¶d ade
vÃ¤r der
Ġant ika
Ġnatur vetenskap
ĠSj uk
Ã£ o
ĠS alt
ĠAl ger
ĠfÃ¶rÃ¤ld rarna
ĠutgÃ¥ng sp
ĠP lats
ĠV o
ĠAward s
medalj en
Ġm ut
ĠfÃ¶r handlingar
ra ven
ĠnÃ¤r ings
ĠOl ika
ĠLand slag
Ġ182 5
ĠtillfÃ¤ll et
ĠUl rika
ĠGustaf sson
Ġfisk ar
Ġdefin ition
T h
ĠDen ne
Ġsv Ã¤ng
ĠkonstnÃ¤r lig
Ġrum met
Ġp ionjÃ¤r
Ġst Ã¶tt
ĠfÃ¤ng elset
Ġintell ekt
st ans
ag erar
Ã¡ r
ĠupptÃ¤ck ts
ĠGre at
c us
ĠB rad
ĠF ant
Ġhan tera
olut ionen
Ġ178 9
Ġinstitut ioner
ĠsÃ¤lj s
ĠSep arat
y der
ĠÃħ l
iss e
ĠLin de
ĠAmer ica
s i
w itz
Ġru st
of on
ĠsÃ¤ll skapet
in spekt
st yrka
fÃ¶r klar
ĠSa ab
Ġtor de
uck y
ĠBra un
ill ing
ik k
eg raf
ĠGol den
ĠOh io
ĠH Ã¤ss
Ġsk ull
ĠMar in
ĠfÃ¶rekomm a
Ġag gress
Ġunder arter
ĠbesÃ¶k er
ĠSeb ast
ĠLe eds
Ġad ress
Ã¥ sen
it ud
ĠK ull
Ġskill naden
Ġmedic insk
ĠÃ¶verv int
Ġm as
sf or
Ġofficer are
m ond
Ġtim mer
Ġhind ra
b us
Ġty st
198 7
Ġintroduc erade
Ġgymnas ie
Ġkommers iella
in fl
if est
Ġfolk hÃ¶gskola
ĠÃ¤ld ste
Ġtal as
Ġrikt ade
Ġ182 6
fÃ¶rs Ã¤lj
ĠÃĦlv sborgs
B S
h ytt
Ġsk uld
sy ra
Ġflygplan et
Ġmob il
or erna
ĠÃ¥ter fÃ¶ren
Ġbibliotek et
Ġl Ã¤kt
sp ets
Ġupplag or
ĠK aj
ev a
eter y
ĠW itt
uv a
ĠCh almers
by rÃ¥
Ġflyg a
igh ts
Ġetabl erades
Ġh am
and al
ĠV ide
ĠU tt
var en
rag e
Ġsv amp
Ġoff ens
Ġsjuk vÃ¥rd
Ġhitt ade
196 0
Ġproduc erar
ĠmiljÃ¶ er
Ġbib e
ĠdrÃ¶j de
Ġb Ã¶rd
Ġuppskatt as
st al
Ġl ind
Ġprof il
ĠCol or
ĠHÃ¤rn Ã¶s
ĠM est
Ġpro port
Ġbes Ã¶kt
Ġ182 1
Ġperson lig
ĠCem etery
Ġk ejser
Ġ18 17
Ġbr ans
ĠPer u
Ġcentr alt
Ġbesk ydd
Ġkirur g
Ġvar ar
ĠP el
Ġbak re
Ġprim Ã¤r
fÃ¶r samlingen
19 00
Ġsitt ande
ine a
ĠIns pel
v itt
Ġb Ã¥g
ĠL av
Ġber odde
Ġinom hus
Ġord ningen
Ġtem a
m useet
Ġst yra
ut stÃ¤llning
Ġkon k
197 5
olleg ium
Ġdansk e
Ġt il
Ġh uruvida
Ġser vice
Ġskjut a
Ġbud get
Ġk amer
Ġhem lighet
Ġson son
Ġbok stÃ¤ver
ĠrÃ¶r a
Ġ182 4
Ġmotor cy
Ġkontin uer
b our
g rens
Ġsl Ã¶t
ĠAnder son
ĠSl oven
201 5
Ġun ion
Ġutom hus
ĠK il
Ġeff ekter
ĠMusik en
ĠaffÃ¤r er
i ers
Ġdi ff
ĠZ Ã¼
Ġpj Ã¤ser
Ġmyt ologi
ĠB Ã¤ck
ĠstÃ¶r t
hus ets
ĠNÃ¤r ingsliv
institut et
ĠM od
ĠO ut
ĠBl ue
Ġn ark
ne by
Ġing Ã¥ng
ĠHall ands
Ġfakt orer
in ter
lÃ¶ f
Ġflick a
um e
ak tt
ĠslÃ¤pp a
ĠmÃ¶ ten
b ry
k arna
an on
ĠA st
ĠI sa
ĠÃĸvrig t
c on
ĠH op
Ġe venemang
ri um
all y
ĠlÃ¤ng sta
lin jer
Ġbek ost
b yt
st Ã¥g
Ġbev Ã¤p
ĠW eb
Ġpl at
Ġbest Ã¤mt
ĠThe atre
Ġytter st
Ġom gÃ¥ngar
bl omm
oss en
Ġfruk ter
m Ã¤nn
ĠT on
Ġsp ekul
Ġbar ock
Ġ13 0
trÃ¤ da
Ġmuslim ska
g ilt
ĠBirg itta
en er
Ġo klart
Ġk idnapp
ver na
ĠC he
Ġfolk om
196 8
ĠT yr
ĠHan n
ha us
ĠReg eringen
Ġerk Ã¤nde
skepp et
fjÃ¤r den
Ã¤m m
Ġnamn en
Ġpresident valet
Ġbrig ad
oss a
Ġjord bruket
fall er
Ġ179 2
ĠPhil ipp
an te
ent in
ĠSt rind
Ġpro ff
19 18
bygg t
Ġch ansen
Ġdom kyrka
reg iss
at ra
ĠSk Ã¶vde
Ġ180 6
st rafik
Ġa st
ĠS Ã¤rskilt
as y
Ġutbild ningen
plan en
Ġog ift
Ġgrep s
s gÃ¥rd
Ġm ix
Ġm arm
ĠJ am
ĠAf ghan
Ġarg ument
ĠKÃ¶n ig
ĠF yra
Ġc eller
Ġbest Ã¥
ĠlÃ¥ng samt
Ġgener ellt
Ġ182 3
ĠrÃ¶st rÃ¤tt
mot orer
ĠTim es
ĠAtl anten
ĠDoug las
g rad
or en
Ġg la
ok e
Ġbes lÃ¤kt
ĠGen er
Ġrapp ort
Ġgra var
ĠS E
Ġspekt ral
Ġst rÃ¤
un ionens
ĠLe o
Ġfri her
Ġdist ribut
k ning
Ġ3 50
Ġrygg rad
l ock
Ġf Ã¥nga
ss al
fÃ¶rening ar
ĠS Ã¸
ĠVÃ¤ster bottens
Ġtyd liga
fÃ¶ren ings
Ã¥ da
ĠP ir
sÃ¤tt s
197 1
S ch
d ikt
Ġe kv
ens is
ĠW alk
ĠCh i
198 6
190 8
mode llen
Ġu d
ĠD Ã¶d
ĠR ang
land slaget
eg Ã¥ngen
ess a
Ġbr anden
Ġ6 3
ĠSp an
fÃ¶lj d
ĠDis ney
es er
Ġgrund a
ĠGu y
Ġge ografiska
ĠhÃ¤l ft
ĠB ark
ĠsÃ¤tt et
198 8
Ġrestaur ering
ĠJul ia
ĠPrivat liv
Ġt Ã¥r
Ġp Ã¤r
Ġut fÃ¤r
ĠÃ¤g na
Ġo range
Ġbygg da
ĠfÃ¶rs Ã¤m
form ad
ĠS ub
olog ie
ros oft
ĠKristian ia
forsk ning
f estival
ĠÃ ĺ
Ġbygg s
ĠbrÃ¶ ts
192 1
ĠMagdalen a
k amrat
Ġbes Ã¶ka
ress ion
197 2
hem s
Ġjud isk
sar v
ĠM ach
Ġkvinn lig
Ġaf rikanska
Ġo sk
Ġg ator
Ġst ipendium
ĠB Ã¶rj
ĠÃ¤kt a
Ġbro der
Ġmorg onen
p j
it te
nings fÃ¶r
sh er
Ġ11 0
ĠMed lem
arin nan
Ġkart a
Ġdisp on
n berg
Ġt rakt
Ġutb redning
Ġregiss Ã¶ren
d Ã¥
i jer
ĠH ay
Ġst Ã¥t
ss juk
sen are
ĠAr ena
ĠHÃ¶g sta
Ġrapp orterade
b jÃ¶rn
Ã¶r s
ĠH om
ĠF ame
av delningen
ĠsÃ¥ng aren
198 4
Ġavs ev
ĠfÃ¶rklar ing
ĠFlor ens
Ġrekt angul
h Ã¥ller
Ġom lopp
Ġm Ã¤ngden
hav aren
Ġkristen domen
r Ã¸
Ġh orn
Ġd ie
Ġhel gon
Ġsv ansen
ĠMed ia
ĠTor onto
Ġdrabb as
Ġinspir erade
Ġkard inal
D S
l ic
w ork
inn or
Ġch ans
ĠutfÃ¶r s
Ġbevar ad
Ġarranger ades
Ġgren ar
ĠS igur
as Ã¥
Ġsk en
ĠK enn
sf abrik
Ã¶m e
ĠStorbritann iens
r orna
Ð ¹
ĠK um
ĠfÃ¶rb jud
ĠTe chn
Ġexper t
process en
y nt
Ġt Ã¤tt
Ġbev ara
vik ens
prÃ¤ g
Ġb ilj
Ġ18 11
ĠhÃ¶g ra
ĠhÃ¤n seende
190 5
ĠprÃ¤st vig
ĠÃ¶verlev de
ĠH ad
ĠF artyg
ĠÃħ t
ĠMar ock
Ġaktiv itet
ĠDjur gÃ¥rden
Ġteolog ie
ĠStÃ¶r re
sk v
ĠS erie
Ġar ren
vent ionen
ĠstrÃ¤ck a
sta b
ĠdÃ¤r till
Ġ5 8
Ġur val
Ġekonom in
196 4
ĠfullstÃ¤nd igt
Ġf rom
ud den
if iera
Ġpart ner
ĠKÃ¶pen hamns
ĠnivÃ¥ er
ĠM ast
Ġstat y
Ġcir k
u an
ĠtrÃ¤ nings
198 3
Ġs ound
Ġk alen
ĠA ur
ĠÃħ s
ĠsjÃ¶n k
ĠR eb
or ma
Ġb uk
Ġn at
ode llen
197 8
ĠWh it
ĠfÃ¶red rag
ĠMic rosoft
et on
ĠS z
ot isk
ber ed
um t
Ġdat um
uri ster
Ġstall et
19 11
Ã¶t terna
ĠrÃ¤k nades
ĠPal est
ĠfÃ¶red rar
Ġflytt at
kademi ens
b rid
k ost
es lag
ant isk
Ġsvensk arna
Ġkyrk om
Ġuppt rÃ¤der
197 6
ĠStud ent
Ġt ork
em bl
Ġvil da
ĠIn f
ĠlÃ¤tt a
Ġko al
Ġsuccess ivt
r alt
ĠS alv
ĠE llen
ĠnÃ¤r varo
ĠstÃ¤ll er
Ġmars ch
Ġsty v
sk omp
tal ande
ĠCh am
197 4
sl a
ier n
Ġnord isk
Ġbred are
ĠlÃ¤gg s
Ġupph Ã¤v
Ġr yt
Ġbr it
ĠZ ag
Ġkung lig
Ġfolk musik
196 2
Ġvetenskap lig
u ka
Ġv ed
ed i
ik um
ri bu
ok aler
ug an
Ġfort sÃ¤ttning
Ġhem liga
ĠJ uni
ĠRo os
Ġintress et
ĠmÃ¤n nen
198 1
bund na
y v
ĠH of
ĠR al
Ġsl Ã¤tt
ĠÃ¥ ld
Ġsold at
on den
ĠH udd
Ġung arna
ĠNe apel
Ġ182 2
ĠjÃ¤mfÃ¶r else
reger ingen
Ġfrit id
y en
ĠM indre
ĠSt Ã¥l
19 50
Ġsp rÃ¥ken
ĠvÃ¤l gÃ¶r
ĠNorr kÃ¶pings
Ġyng sta
Ġk att
Ġst jÃ¤l
19 10
mÃ¥l are
Ġavs edda
ĠOrganis ationen
Ġl o
Ġverk lighet
ĠDag bladet
c ern
Ġt Ã¤nder
Ġkommun fullmÃ¤ktige
unn el
ĠfÃ¶rbin delse
ĠBulgar ien
Ġd ras
Ġg ult
ĠF jÃ¤r
Ġbest Ã¥nd
inn are
Ġval d
ĠÃĸster gÃ¶tlands
Ġproduc eras
Ġkines isk
t i
Ġh ertigen
sm useet
ci p
Ġflyg platsen
Ġkopp ling
ĠResult atet
ĠM eg
Ġorsak ar
Ġk up
ĠN iger
Ġsl oven
ant s
produ kter
ĠKommun ikationer
oper an
ĠP C
Ġ17 70
reg l
Ġaut onom
Ġsk ilde
es a
ĠC it
res or
Ġ9 5
ĠutfÃ¶r d
Ġskulpt urer
h ab
Ġinv ad
ĠMax im
ĠG em
ĠG ordon
Ġom bud
ĠAr ts
snitt et
Ġtyp iska
A F
t he
ĠM ex
ul era
Ġge omet
Ġtest amen
ĠprÃ¤g las
ĠMelodif estivalen
r ari
sk Ã¶ter
Ġvar t
ĠPaul us
ĠBos nien
umin ium
Ġakv arell
bÃ¥ ts
s omrÃ¥det
Ġst rÃ¤v
ĠAr b
ju det
Ġbed river
196 3
Ġdator er
N S
Ġp unkter
Ġut landet
ĠAl p
ĠVÃ¤st tyskland
ĠlÃ¤gen heter
Ġditt ills
ĠT ol
Ġger man
fÃ¤rg ad
Ġak ut
Ġp alatset
ri f
sp arken
Ġsp red
ĠOr sak
vÃ¤x ten
Ġproduc erat
mode ll
c rantz
ĠS ic
Ġlik heter
sfÃ¶r samling
ĠConnectic ut
ĠA kadem
ĠHer bert
Ġkrit iserade
ĠvÃ¤lk Ã¤nda
Ġ |
is ar
ru v
Ã¤n ka
ĠSam man
Ġprote ster
Ġh at
ĠA T
ĠT rakten
ĠR app
ek on
Ġ6 9
sf rÃ¥gor
ĠJohn ny
Ġindivid uella
n andet
Ġvan ns
port en
197 7
k Ã¶r
Ġh als
ĠT enn
ĠG rim
Ġall ians
Ġoper ation
Ġhal va
ĠBengt sson
ĠFel ix
m ol
Ġupp visar
Ġavslut as
ĠSkarab orgs
st ruktur
Ġt usentals
ĠV itt
Ġr ation
ĠJ imm
19 14
part i
196 5
Ġprakt iska
fabrik en
g od
Ġt rav
ĠL ys
art iklar
Ġre konst
amp a
Ġbel Ã¤gg
Ġk y
ĠB ara
ĠF ab
iv na
sl Ã¤kt
Ġkomm ittÃ©
ĠC urt
Ġutg jordes
Ġbild ats
ĠRun e
am s
ĠB ast
ĠB ach
sp rodu
ÃŃ n
peri oden
Ġviking at
Ġv eter
ĠP eder
Ġmot orn
ĠProdu ktion
ĠSjÃ¤lv a
an jen
ak ar
sp ar
vÃ¤r de
Ġutgiv are
Ġgrat is
f j
en ligt
ĠP rogrammet
Ġr ang
ud s
Ġsamt id
ĠLe if
196 6
Ġi v
Ġsk ylt
ĠBen j
Ġ *
sk iva
av i
yr er
ĠÃĸ res
Ġind ust
ĠhÃ¶j den
still stÃ¥nd
ling e
yt h
Ġty ske
ĠLit au
c os
ĠP ress
Ġupp lys
ĠÃ¶n skade
Ġoffici ell
ly st
j o
ĠM eck
ĠB rian
ĠG Ã¤st
ĠbÃ¥ ts
ĠKÃ¶l n
Ġp ap
ow ski
upp gifter
ĠW id
ung e
Ġskap as
ĠIs ab
Ġvetenskap ligt
Ġposit ivt
ĠfÃ¶rmÃ¶gen het
ĠD als
ĠpÃ¥ gÃ¥r
ĠM useet
un e
giv na
Ġ180 5
ĠlÃ¥n ades
i enten
Ġh oris
ĠA na
Ġ178 0
ĠÃ¤l skar
f ack
Ġall deles
ĠfÃ¤rd iga
ĠBru ce
Ġgods et
p ad
Ġg am
Ġin spekt
ent ing
Ġat eljÃ©
handel n
d ivisionen
o a
Ġl oj
ĠH ir
ĠR io
ul ation
Ġob lig
ĠRober ts
Ġregiss erade
Ġutrym me
ĠM org
ĠCh ap
spro jekt
ĠÅ ł
ĠD ist
ri ce
ĠfÃ¶restÃ¤ll ningar
Ġplatt form
ĠBun des
Ġt i
Ġd amm
Ġp unk
Ġr ena
ĠfÃ¶rs Ã¥gs
ĠvÃ¤x el
Ġkrig ets
rep ubliken
Ġtrett io
ĠFÃ¶d an
ĠB rig
ĠJ ess
Ġperson lighet
ĠhÃ¶r net
Ġl oss
Ã¤t are
ĠrÃ¶r de
alis erades
Ġins Ã¥g
ĠtillÃ¥ ter
art ist
ĠW ol
la us
ĠIn ne
Ġsc ience
ĠCamb ridge
Ġdest o
ĠR ou
Ã© m
Ġbes itt
Ġkontro llen
Ġdigit ala
ĠW alt
ari et
rev s
Ġun iform
arb ank
ĠVerk samhet
smin ist
ĠvÃ¤gg ar
Ġspektral klass
um an
sb anan
vÃ¤r t
ĠJan sson
Ġvide o
Ġt all
ĠK ejs
Ġutg ick
Ġflott ilj
Ġneg ativa
Ġhyp ot
ĠT redje
Ġkvinn orna
Ġovan lig
pp e
Ġkomm issionen
Ġorgan ist
Ġbeseg rades
ĠKun st
univers itetet
Ġg rip
ĠV ia
Ġans iktet
196 1
ĠTre ll
ĠH im
ĠT au
rev et
Ġegen domen
ĠgÃ¤ll a
195 8
Ġs Ã¶t
ug n
Ġ7 3
Ġbi bl
Ġbidrag it
Ġpseud ony
Ġ6 7
ork ester
Ġkat ed
196 9
Ã¤nkt es
ĠFÃ¥g elns
C O
Ġdel Ã¤gare
kl und
Ġ6 1
Ġap ost
ĠpÃ¥verk as
Ġstre ck
eter na
ĠGen Ã¨
201 7
Ġalternat ivt
asin et
ĠD ub
ss er
Ġspel ets
Ġ6 2
Ġpsyk iat
Ġdemokrat iska
m al
s Ã¤g
w ich
Ġg rafik
Ġsam las
Ġbar on
Ġ14 0
ĠvÃ¤n stra
Ã³ w
ĠSer g
ĠTjeck oslov
ĠCath arina
Ġ ...
ru d
ĠG rÃ¥
ĠV II
land skap
Ã© t
ĠZ etter
Ġsn ick
Ġkap acitet
ĠlÃ¤ ten
h ults
k ultur
Ġv Ã¤nd
Ġk rom
Ġtill ika
ĠP ower
Ġdat ors
ĠWarsz awa
Ġt ionde
ĠH amp
ut stÃ¤llningen
Ġsp reds
pl e
Ġ12 5
T O
l itteratur
u alitet
Ġs org
Ġg lÃ¶m
ah r
Ġhem met
Ġtv ung
b ranschen
h anter
j ar
sk ulpt
Ġsamarbet et
Ġ180 3
akt ionen
Ġsm ala
fÃ¤rg ade
ĠâĢ Ķ
Ġexister ar
em ann
Ġupp fin
Ġj a
ĠÃ¶ver sv
ĠtrÃ¤ff a
ĠArn old
om on
os er
ĠW y
Ġvin kel
ĠÂ §
Ġhund ar
ĠSyd ney
ĠĠĠĠĠĠĠĠ ĠĠĠĠĠĠĠĠ
Ġkontroller a
ĠhjÃ¤r ta
Ġh j
ul us
ĠanvÃ¤nd are
ĠfÃ¤r re
Ġ180 7
190 6
Ġbal ett
Ġstyrk orna
ĠBeat les
iv ia
Ġkolon ier
Ġbedriv s
à ¸
ĠC all
Ġsp ann
ĠinfÃ¶r a
ĠBr ygg
Ġpat ent
Ġfys i
Ġerfaren heter
ĠA G
ĠM ilj
ĠN Ã¤
ir s
Ġdotter bolag
ĠfÃ¶rsvar sbeslutet
trÃ¤ sk
196 7
Ġorsak en
skÃ¤r m
ĠFolket s
at Ã¶rer
ĠH jort
ĠF ager
Ġut skott
ĠL Ã¥t
rukt uren
ĠSovjet unionens
ĠV Ã¥ren
sp eg
ligt vis
ug ga
reg ler
ĠlÃ¤gen het
t y
Ġ ri
ar ne
ĠH il
ur it
19 17
19 12
Ġmanus fÃ¶rfattare
europ a
ĠKÃ¤nneteck en
P A
b rygg
st jÃ¤rna
Ġvar ia
Ġradi op
olyck a
ĠL em
komm en
F ran
Ġg ymnastik
ningsomrÃ¥ den
ap s
Ġdi es
Ġbostads hus
Ġmorg on
kt ig
ĠW im
sb ro
Ġlit er
Ġfamilj ens
Ġuts Ã¥g
Ġhust run
Ġbut ik
ĠK ru
ĠW erner
Ġsp ons
Ġhitt at
ĠÃ¶n sk
Ġinstitut ion
rÃ¶st ningen
Ġst and
ĠM ask
ĠP ors
Ġor g
ĠÃĸ land
ĠSch um
Ġang repp
g ade
Ġf re
ĠW i
ĠW er
Ġplan erna
ĠhÃ¤st arna
193 9
Ġbetrakt ades
umen terade
Ġl ut
ĠF en
Ġsj Ã¶m
ĠArbet et
ĠOp era
w orth
in del
Ã¶r erna
f oni
p app
v iv
Ġk yl
ys ik
Ġvikt en
Ġamerikansk e
ĠJÃ¶n sson
Ġallvar ligt
Ġm arg
Ġant yder
ĠrÃ¶st ade
ĠPat rick
Ġsubst ant
it ysk
ĠG Ã¥rden
Ġpl ock
stÃ¤ll e
Ġbel ys
ĠKro pp
s holm
y ram
ĠM Ã¶l
ĠRos e
f akt
n att
an lÃ¤ggning
Ġh att
ss ystemet
ĠM yr
ĠN as
19 19
Ġnov eller
Ġtillverk ar
Ġregering stid
Ġag ent
person er
Ġinkorpor erades
d ans
Ġo till
Ġi lla
Ġpar as
ĠCarl o
ĠLad y
plant ning
Ġextrem t
kom ster
Ġfilm ens
ĠLind gren
ĠT rond
ĠSam hÃ¤llet
Ġutb rÃ¶t
Ġbid rar
ĠfÃ¤st ning
Ġjurid iska
ĠKvar ter
i ast
ĠM ick
os aurus
Ġtv Ã¤tt
Ġ179 3
ĠHandel shÃ¶gskolan
v Ã¤v
Ġk yr
Ġ180 2
Ġstats minister
ĠMilit Ã¤r
Ġsk andinav
ĠÃ¶ver satte
jÃ¤r a
Ġant is
Ã¶g on
Ġtillverk are
ĠMich igan
Ġlic ens
t rans
on na
Ġd Ã¶k
ro it
Ġher rar
ĠfÃ¶rhÃ¥ll andet
ĠBenj amin
d ragen
Ġst Ã¥tt
Ġstat sk
Ġteck ning
Ġorsak a
Ġmeddel ades
Ġdemokrat isk
ĠfÃ¶rut sÃ¤ttningar
Ġlans erade
ĠnÃ¤r bel
Ġspel ats
ĠCh a
ie u
fri ed
Ġf jort
Ġc amp
ĠHar vard
Ġspecif ika
ĠV e
Ġc over
Ġuts ikt
ĠfÃ¶rbj Ã¶ds
Ġbrit terna
ĠB alk
io xid
ĠsÃ¤g as
Ġav vik
ro bot
Ġvatt ent
ĠFÃ¶r bundet
ĠÃ¶g at
ĠE manuel
ĠC orpor
eg en
ĠIn c
ric a
ĠfÃ¶rsvar ade
Ġbehand lade
ĠHot el
r erad
et isk
ent una
ov s
Ġviss erligen
ĠKrist ine
ĠÃ¶r on
ĠVÃ¤rld spopulationen
ekt ionen
Ġad lades
Ġop in
Ġsist e
ĠbekrÃ¤ft ade
v ap
Ġu rin
ĠG ame
Ã© b
Ġbehov et
svetenskap sakademien
ĠUtan fÃ¶r
ĠAfghan istan
Ġt op
Ġin ser
ĠH Ã¤n
ĠB Ã¤sta
ĠW a
Ġkon vention
Ġkan oner
ĠhÃ¥ll as
ĠfÃ¶rsv inner
ĠbegÃ¤r an
ĠHow ard
Ġhelikop ter
et z
ek a
ap est
ĠkÃ¤rn kraft
ĠP j
ier ad
ris et
Ġverksam ma
194 8
Ġprocess en
ĠR ap
ĠMedel havet
190 2
ĠMor ris
Ġent repren
hÃ¤st ar
Ġav gÃ¥ng
ĠP itt
Ġvol ym
ĠÃ¥rhund raden
Ġt je
ĠH Ã¤gg
ĠÃ¤ pp
Ġsing lar
Ġkronprin s
nings plats
Ġkvadrat meter
yn n
194 6
Ġutnytt ja
ĠF abrik
ĠR ot
um ma
Ġkv ant
kon serv
ras ch
ĠkÃ¤rn vapen
ĠnÃ¶dvÃ¤nd igt
ĠSteph en
or es
sk ild
ĠS qu
Ġg ol
ĠAr sen
Ã ª
ĠM unk
ĠC ron
ĠJ e
ic in
Ġkl or
ĠY our
Ġryss arna
Ġf iction
Ġb jÃ¶r
Ã¤g ar
ick a
ha i
Ġsprid da
Ġneder lÃ¤ndsk
ĠS at
ĠUt mÃ¤rk
bygg des
hÃ¤ng ande
Ġillust rat
b Ã¤v
b uss
ĠM ission
Ġbe und
195 7
ĠuppmÃ¤rksamm ad
Ġanst rÃ¤ng
b Ã¥ten
ion e
ark ivet
ĠMinnes ota
ĠF lem
ĠG ert
og raph
yd lig
Ã¤ck ande
Ġljus a
Ġmajor iteten
kamm aren
d on
ber na
Ġ8 9
Ġtal man
Ġovan liga
num era
Ġterritor ium
ĠP resident
ĠmÃ¤nnisk orna
Ġun ionens
Ġeffekt ivt
Ġdemokrat i
ĠStud io
splats er
O r
o in
Ġm ent
Ġt am
ĠM Ã¤nn
ĠG rÃ¤
our en
ĠEurop ean
ĠAll an
Ġ179 5
m iss
st jÃ¤rn
Ġ18 01
ĠSh er
Ġstrid erna
194 7
Ġly der
v ed
201 6
k y
l itter
er ns
ĠG ren
Ġbr yter
sak ade
Ġnatur lig
Ġturn ering
Ġeurope isk
t ak
it eln
ĠL er
âĢ Ķ
if er
ymnas iet
Ġbal ans
ĠsÃ¤llsynt a
Ġfril uft
Ġbask et
L e
n Ã¤bb
ĠB ush
ĠF rÃ¤m
ber ger
Ġgener als
ĠbrÃ¤nsl e
h orn
k na
ĠR is
fÃ¶r innan
ĠSt av
ĠEl f
Ġsten en
sbygg naden
h Ã¤tt
ĠM ycket
Ġ( '
fÃ¶r de
Ġ17 72
rom s
hel mina
ino pel
ĠCol omb
Ġdecenn ier
ĠLaur ent
Ġl id
ĠN ev
stÃ¤ll des
ĠLin col
re miÃ¤r
Ġhuvud byggnaden
k andid
Ã ½
st jÃ¤rnan
ĠI da
ĠÃ¥ k
kontor et
ĠElit serien
ĠStrÃ¤ng nÃ¤s
ĠS cen
Ġst ammar
ĠF jÃ¤ll
Ġstrid s
stug an
skÃ¥despel are
Ï Ĥ
et iskt
ĠC ur
Ġmilj Ã¶n
pt om
ĠLund berg
Ã¥k ning
Ġf ient
ĠG lad
ĠV ig
Ġsam lingen
Ġkomm ission
Ġ5 9
vid d
Ġori enter
g ers
Ġf og
ĠG ib
skriv na
ĠAdolf s
Ġskepp et
ĠbefÃ¤l et
Ġkonfl ikten
ĠkÃ¤nsl a
ĠNaz itysk
Ġm Ã¤st
ch o
ĠM ora
em en
Ġform at
Ġkat astrof
Ġtekn iker
Ġsem in
Ġdig ital
ĠMarock o
ĠC yper
rig a
ĠReg ion
ĠfÃ¶rvar as
g avs
land en
Ġmusik album
Ġsex uella
Ġprakt isk
ĠSal ts
à ¤
la ck
ĠfÃ¶rs Ã¤kring
Ġbror son
Ġent rÃ©
Ġrest es
Ġtyng re
c le
ĠfÃ¶r are
ul s
oh en
ĠÃĦ g
or de
ĠS Ã¤llskapet
Ġn Ã¥d
ug e
ĠEn t
ĠvÃ¤rde fulla
ĠBrit a
fot ograf
Ġtunnel ban
Ġexpl os
ĠBud apest
et e
Ġa sp
bet eck
ha usen
Ġred aktion
ĠMo ore
Ġklar ar
ĠHum an
Ġa bb
Ġdubb la
Ġadel n
ĠhÃ¤mt ade
b ys
st ru
rin e
Ġal g
ĠTh ail
ĠBerlin s
Ġsamling s
192 3
Â ³
Ġen orm
ri ften
fin alen
ĠstrÃ¤ck te
ĠRyss lands
Ġmotor er
Ġhed rar
ĠSmÃ¥ lands
Ã¶ster n
Ġf rÃ¶
Ġv Ã¥t
Ġk ansl
un skap
ĠSp Ã¥r
ubl in
Ġbel Ã¶
ĠVÃ¤st manland
Ġoper ativ
Ġbefint liga
at j
Ġv en
ĠS ala
Ã¤n rik
ĠR Ã¥d
Ġlig gande
Ġmisst ag
Ġskil smÃ¤ss
ĠmÃ¶t es
k ok
m and
Ġ rim
ĠD ark
Ġbl ott
onen ter
as p
ĠG Ã¤ll
190 7
Ġbeteck nar
ĠTer men
c ar
x or
ch ichte
od i
ĠfÃ¶rlÃ¤ng des
Ġb att
19 13
Ġal fa
195 6
Ġallvar liga
ĠdvÃ¤r g
ĠfÃ¶r nÃ¤m
ĠD C
Ġsn itt
ĠVad stena
ĠKonstant inopel
Ġkans li
t vÃ¥
Ġf ra
ĠG ul
fÃ¶r Ã¤nd
rÃ¤tt igheter
ult ure
194 0
ĠFer rari
Ġmelod i
t aget
Ġm emo
ĠR an
Ġflyg vapnet
ĠfÃ¤rd igt
ĠCa es
ĠutmÃ¤r kte
ĠUdde valla
n ed
w art
ag on
ĠP in
ĠR ic
ĠV a
ann an
au f
Ġkro ss
Ġ178 8
Ġpreuss iska
Ġin h
Ġsk ar
og Ã¥rden
ĠV att
195 9
ho use
lÃ¤m nade
ĠFolk e
ĠBib eln
h ant
Ġtill Ã¤t
is lav
Ġtid punkten
Ġvis ats
Ġansvar ar
195 5
k val
re al
ĠT ack
ser t
ĠKrist i
uper ad
ĠavgÃ¶r a
ĠKron o
Ġtrett on
ĠSib i
ĠAfton bladet
Ġp et
ter min
ad jÃ¤r
ĠN acka
ĠbestÃ¤m ma
ĠStud ios
ĠtÃ¤t orten
kont rakt
mid t
Ġutbryt ning
Ġb acken
19 30
Ġpart ierna
Ġmiss nÃ¶j
190 9
l jus
Ġp und
Ġut del
ĠSt one
Ġbet e
Ġhand en
ĠsvÃ¥r are
f olket
Ġd raft
ĠEl sa
Ġstat lig
ĠmÃ¶r kt
Ġband y
Ġfotboll s
Ġtryck tes
Ġ $
Ġs yr
bet al
Ġdist rik
ĠvÃ¤rn plikt
m ig
x amen
ĠL iss
od y
201 8
Ġmunicipalsam hÃ¤lle
Ð ¼
ĠuppfÃ¶r de
ĠNÃ¥g on
v ic
Ñ ĥ
ĠL uther
Ġarbet slÃ¶s
ĠtrÃ¤ ning
k ov
Ġsk Ã¥l
ĠK raft
ation ens
ud a
Ġmet oden
ĠInd ones
ĠMo z
ĠMari o
Ġk Ã¥r
ĠA rist
ĠK uba
urop a
Ġab strakt
Ġdeltag arna
ĠutÃ¶v ade
Ġbib el
k al
ĠU g
ber s
ĠCarl os
Ġsamman fatt
Ġbeslut ades
ĠAb d
Ġinstitut ionen
Ġvux it
ĠfÃ¶ren ade
ĠMex ico
j ande
ĠD omin
emb ran
ĠBM W
D on
sm iljÃ¶
ĠkÃ¶p t
ĠsamhÃ¤ll s
Ġun ika
Ġbo et
Ġsannol ik
tain ment
ĠH MS
ĠSt yr
sv al
Ġfort satta
ĠÃ¤mbet et
Ġpoj kar
ĠG or
ut Ã¶ver
Ġru nda
v Ã¤sendet
Ġ1 01
ĠA ust
Ġsp or
Ġhel tid
sg Ã¥rden
ĠNi elsen
b os
Ġstad steater
ĠfÃ¶rl aget
Ġpublic erat
ĠslÃ¤kt ing
ĠBr Ã¶d
Ġtrum mor
Ġv agnar
ĠHon g
ffÃ¤r en
Ġkonstru erade
f ib
s Ã¤lj
un st
ĠR ek
if ikation
Ġstor het
ij k
ĠhÃ¤n delsen
Ġskaff a
Ġarrang emang
ro pp
iker ar
ĠrÃ¤tt igheterna
ori al
Ġskick as
Ġpartiled are
hand laren
ĠbehÃ¶ va
Ġkonkur ren
Ġm ongol
Ġupp rÃ¤ttades
ĠBer Ã¤tt
Ġtyp isk
Ġneder bÃ¶rd
b Ã¶r
Ġv alen
ans var
ĠÃ¥ klag
ĠRom an
ĠmilitÃ¤r en
ferens en
ĠAlban ien
at on
Ġm Ã¤ter
ĠS ix
ĠU lla
stra ff
Ġrepresenter a
Ġbiskop en
Ġerbjud a
Ġexpans ion
L a
am t
Ġn ionde
veck an
ĠfÃ¶rb unds
Ġriks rÃ¥det
ĠpÃ¥ pek
Ġsam lar
ĠSt ens
ann es
Ġfilm atis
ĠSÃ¶der berg
Ġjust iti
ĠJimm y
re gel
ĠB ri
Ġing Ã¥ende
ĠS val
ik at
im ar
vÃ¥ ning
Ġim mun
Ġhandel n
befolk ningen
ĠM use
195 3
l Ã¤k
Ġb rasil
ĠD agen
Ġan fÃ¶ll
Ġand a
Ġter rÃ¤ng
Ġtyp iskt
Ġgrad vis
Ġsepar ata
spolit ik
ĠM es
ĠK inas
un nen
ev in
Ġsitt a
musik er
Ġregiss erades
ĠÃ¤r a
Ġhan ar
eg as
ir d
Ġland svÃ¤g
ĠAn ledningen
ĠGÃ¶ tal
ĠÃ¶n skan
bund en
ĠkrÃ¤v des
Ġdram a
h ag
i bliotek
ĠK ons
ĠSk ill
Ġhistor ie
Ġbas eras
ĠsjÃ¶ fart
195 2
Ġdist ribu
m b
p ack
Ġ #
Ġp ir
art id
Ġgen re
vÃ¤r n
Ġart namn
Ġbak Ã¥t
ach t
ins ats
krit iker
Ġa kademien
ĠH off
ut gÃ¥
sp ol
ĠBe ach
be handling
ĠutmÃ¤rk elser
Ġlej on
ĠZÃ¼ rich
m os
Ġs up
Ġverksam heter
ĠsamhÃ¤ll en
Ġbeseg ra
Ġnut ida
s et
t orp
Ġupp kom
ĠBefolk ningen
ĠEt iop
edon ien
ĠbegÃ¤r de
ĠL Ã©
ĠÃ Ĺ
Ġslut gilt
ĠtrÃ¤d gÃ¥rden
Ġetn iska
Ġansik te
in ett
st ock
Ġre se
Ġ17 50
Ġal uminium
ĠGeorg ia
ĠSlott et
t ens
ig gande
dag ens
Ġfast igheter
Ġfas c
len burg
Ġinflu enser
vag ns
Ġpseudony men
ven sen
ĠR ena
ĠR oth
Ġsy re
iforn ia
Ġvack er
Ã¥rsj ubileum
ĠPlats en
Ġt s
Ġl yr
ik i
ĠM ov
ĠFa ir
b r
j akt
v ir
ĠS Ã¥d
ĠK ant
ĠR and
sb ank
Ġskriv et
ĠKer stin
Ġavsev Ã¤rt
O l
ĠH und
av ilj
19 25
Ġdag stid
ĠKarl s
asar ett
g at
v ia
st ig
ĠP ac
rÃ¤ st
sl ivet
Ġstat ligt
ĠrÃ¤k ning
ebygg else
Ġs aga
att ack
ĠG Ã¼
av rinningsomrÃ¥det
man u
Ġkyrk ligt
ric itet
sd jur
ĠfjÃ¤r r
ĠKristian stads
skad or
ĠlÃ¤mp lig
Ġexist ens
Ġsorter s
Ġb ind
eb e
skri ven
m ekan
Ġh jÃ¤rnan
ĠD y
ss lut
Ġ179 9
ĠrÃ¥d de
ĠUpp vÃ¤xt
unn eln
ĠBl an
ĠPre cis
Ġneg ativ
ĠPek ing
d irekt
s ek
s rÃ¶relsen
an terna
Ġk ristall
ĠM az
ĠT ai
art illeri
ĠfÃ¶d da
Ġpart is
ĠUl rik
ĠtÃ¤n ker
ĠStad ens
Ġbu ken
Ġf ans
Ġi aktt
al ter
rÃ¤ des
Ġr is
est ads
im o
Ġgud om
ĠÃĸr n
Ġkav alleri
ĠH K
Ġar enan
Ġsex ton
Ġoffic ers
ĠSund by
Ġrestaur anger
ĠanlÃ¤gg ning
ĠMÃ¤l aren
k Ã¤ll
ĠC ob
Ġpol y
Ġant i
Ġgener ald
Ġbeteck ning
Ġkvalific erade
ĠEnter tainment
st art
Ġn om
ĠHan en
Ġkon spir
ĠÃ¤g t
Ġfilosof iska
Ġ179 1
sk om
Ġu lt
Ġupp dat
ĠSt ats
iss arie
Ġsen a
Ġ179 4
Ġgran it
Ġexperim ente
g ul
Ġflytt as
Ġbom ull
ĠSigur d
ĠCorpor ation
Ġh inder
ĠfÃ¶r hÃ¶r
Ġst jÃ¤rnan
Ġkro atiska
ĠSte in
Ġproblem et
Ġmask iner
Ġinspel ningar
Ġsh ow
ĠmarknadsfÃ¶r ing
ĠTjeck ien
ĠAug usta
ĠVlad imir
an or
Ġp ara
it us
ĠCh rister
ĠmÃ¥ nen
l ett
ĠDet roit
ĠpremiÃ¤r visades
Ġdomin eras
ĠFÃ¶ret ag
ĠvÃ¤rldsc upen
Ġtob ak
p add
Ġin c
yt on
F Ã¶r
Ġf ing
it Ã©
Ġtillverk ad
lek en
Ġam mun
ĠHol stein
Ġnark ot
C D
ĠpÃ¥ stod
ĠV est
art av
Ġbok fÃ¶r
Ġfotboll sspelare
190 4
Ġexkl us
Ġb ysant
ess or
Ġvis ste
ĠUnivers itet
Ġfartyg en
Ġkn iv
Ġvari era
Ġko ordin
ĠkÃ¤mp ade
Ġunders ida
190 3
Ġprakt iskt
Ġv iken
Ġk rÃ¤ft
ut bildningen
ĠW ild
Ġel eg
Ġreger ande
ĠInd ian
Ġdelst atens
ĠkrÃ¶ nt
Ġd amer
ĠM uss
ĠT rol
ak an
Ġpl us
ĠSk Ã¶ld
Ġliv nÃ¤r
Ġra c
ĠlÃ¤g sta
Ġkropp s
ĠÃ¶verl Ã¤kare
Ġk und
ĠH is
ens e
Ġpen ning
192 8
Ġwebb plats
ĠKen ya
m ing
z burg
is eringen
Ġ179 7
over ket
histor isk
nings medel
Ġkomm ittÃ©n
ĠY stad
194 4
sk rid
ul Ã¤r
sp rÃ¥ket
ĠEng lands
ĠAp oll
Ã¤rkt es
Ġstill eben
b att
Ġst rÃ¥
ĠpÃ¥ gÃ¥ende
Ġbid ra
Ġunders Ã¶kt
194 9
k eln
er skan
tt en
ro th
ĠAl eksand
ĠGu inea
ĠtjÃ¤n ade
Ġkrit isk
Ġerk Ã¤nnande
polit iska
i del
Ġatt rakt
Ġst Ã¤rka
yr ket
ark iv
Ġskap ad
Ġomfatt a
193 8
n ev
u it
ĠS J
ĠB ou
Ġsk atte
ĠL og
195 4
ĠhÃ¤m nd
S a
ĠM ade
ow a
Ġutt ag
ĠsÃ¤song erna
ĠSpel aren
ĠomÃ¶j ligt
Ġkeram ik
Ġl ing
ĠC el
ĠN Ã¤st
ĠW en
Ġstyrelse ordfÃ¶rande
Ġantag ligen
s eln
Ġv ert
sk ivor
ĠS um
Ġn Ã¶t
Ġn Ã¤s
ĠL agen
ĠR oland
Ġlj ust
Ġdomin erade
ĠAllmÃ¤n na
ĠPite Ã¥
Ġv ent
fÃ¶r d
Ġgrund arna
Ġkap ellet
Ġlever erades
ĠersÃ¤tt are
Ġt iotal
Ġb rin
il ar
ĠW ag
Ġfin landss
eck en
ĠSk y
ĠhÃ¥ll et
Ġtem an
Ġkomposition er
p ers
ĠN ag
Ġre pl
ĠSt andard
fri het
in kl
Ġmed verka
ĠK lara
rik ansk
ĠDel avrinningsomrÃ¥det
Ġb ollen
Ġn os
ĠA strid
Ġrep ort
Ġ179 6
ĠVer ket
ĠMark us
ĠvÃ¥r t
ill y
Ġ3 000
Ġ17 60
Ġmin uten
Ġuppt rÃ¤da
histor iker
ĠsÃ¥g verk
Ġyrk e
ĠKrit ik
al ens
ĠO sk
ĠstrÃ¤ck ning
Ġinf rast
sprÃ¥k ig
ĠHa ag
fÃ¶d da
projekt et
Ġkong ressen
ĠColor ado
h es
Ġst red
ĠB aden
ĠT orn
ĠFÃ¶r en
ĠBo x
ĠRom anen
192 4
ĠfÃ¶rbin delser
Ġavlid it
ĠB uck
ĠfÃ¶rs edd
Ġnation ellt
Ġtysk t
hund ra
ĠjÃ¤rnvÃ¤gsst ation
Ġtvung na
in burg
Ġsk or
Ġbr Ã¤ndes
ĠlÃ¤r ob
ĠUng a
192 2
ĠsÃ¥nger skan
Ġobserv ationer
g ang
ill eriet
el ekt
Ġbl Ã¥tt
Ġor tn
Ġ7 4
rukt ioner
Ġsats a
Ġv Ã¤te
ĠT av
Ã¤n en
Ġforsk ar
ban or
lÃ¤g sen
ĠtÃ¤t ort
E R
f rika
Ġm Ã¤ta
ĠA u
ĠC ab
Ġutg ivet
lag er
Ġrym mer
Ġavg Ã¥
Ġock uper
U ng
Ġd yl
Ġst ens
ĠR ey
sp at
c tor
Ã¥ la
Ġv Ã¤p
ĠP iet
sam man
b atalj
ĠF ry
ĠT Ã¶rn
un s
val da
195 1
arp s
ĠIs lands
Ġjournalist en
ĠMu ham
ĠAdam s
l am
ekt orn
ĠÃĦ m
Ġplan erat
ĠnÃ¶j es
ĠPomm ern
ig ment
ĠK lin
Ġinte g
Ġdag s
ĠNor a
Ġring a
Ġlagstift ning
ĠHass el
b jÃ¶r
s ign
ĠC in
sp l
im b
19 01
uk i
Ġfy l
Ġ9 1
ĠBÃ¶ h
Ġportugis iska
Ġen z
ik o
ĠC iv
ĠW ater
Ġind ustrin
Ġstat istik
Ġnord ligaste
Ã¤d rar
Ġtekn iken
Ġun ik
Ġklock stapel
g las
ss n
Ġreg ul
led aren
ĠlÃ¤n svÃ¤g
Ġljus et
ĠVÃ¤st manlands
ĠCal ifornia
ĠSlut ligen
ĠCec ilia
ĠZag reb
ĠS ax
ĠT Ã¶r
ring s
Ġchef en
still verk
ĠLandslag skarriÃ¤r
ĠA ma
Ġsk ald
ĠT r
ap e
ĠJoh ans
ĠinfÃ¶r andet
Ġansl uter
ĠfÃ¶relÃ¤s ningar
fran ska
ĠrenÃ¤ss ans
Ø ±
Ġh k
ĠT an
ĠT ax
ĠÃ ģ
od ling
Ġing enting
Ã¤x ter
ĠvÃ¤rld sarv
ĠtillhÃ¶r a
risk t
Ġuppror et
Ġblom st
o e
ĠT s
Ġgrund andet
ons o
Ġgem enskap
Ġaccep terade
Ġdefinier as
ĠM ig
Ġupp vuxen
ĠAl an
ã Ĥ
ĠJ en
193 2
ĠÃ¶k ande
B I
ar ch
Ġm og
ĠO rig
ĠnÃ¤m ner
ĠMo unt
ĠÃ¶versÃ¤tt ningar
ĠSo und
Ġf estivalen
Ġv apnet
Ġav bryt
Ġl uther
ter ande
ĠL anc
der s
os f
ka ss
Ġkl Ã¤
Ġkommun ens
Ġutt agen
Ġlandskommun er
ĠLind strÃ¶m
ĠSer vice
193 3
Ġrepresentant hus
Ġ ed
Ġm unk
tt i
ĠF le
ĠV III
ank e
Ġneder lag
Ġnedan fÃ¶r
Ġo ce
Ġv inner
ĠM ongol
ĠB ruk
Ġgener ationer
Ġ179 8
ĠVÃ¤st ern
ĠM ort
ĠB jur
193 7
Ġskyld ig
ĠfÃ¤rdigstÃ¤ll des
c an
an talet
ĠM alt
ĠM auri
Ġex teri
Ġ7 7
Ġvist else
ĠSar ah
ĠTjeckoslov akien
ĠnÃ¤rbel Ã¤gna
Î ½
Ġv rid
Ġl er
ru ll
Ġgra den
ĠMÃ¼ ller
ĠStra uss
Ã¶ vers
ĠB onde
ĠL ek
ĠG alleri
ĠFÃ¶r enta
Ġslut spel
Ġuppg av
Ġben en
l Ã¤s
sk yrk
Ġst yck
ĠM iller
Ġsk elett
ĠT idigt
ĠAr men
ont ing
ĠfÃ¶rening ens
Ġinkluder ade
o en
s upp
Ġo ut
Ġp ressen
ĠG T
Ġor n
ĠsÃ¥ng erska
Ġskick lig
ĠAg nes
Ġkur ser
Ġanal yser
ĠfrÃ¤ ls
Ġmanu skript
Ġ ande
ĠS Ã¶d
ĠS ista
es jÃ¶n
Ġpass erade
ĠfÃ¶rdel ade
Ġunderl Ã¤tta
Ġd Ã¤ck
is erande
ĠG et
Ġplan erades
Ġres idens
192 7
ÅĤ aw
M L
l on
Ï ģ
ik on
ĠR ab
ĠDÃ¤r till
ĠberÃ¤tt a
fÃ¶lj aren
Ġskot ska
Ġkanadens iska
Ġin terna
ol s
ĠJ enny
Ġfar fars
ĠrÃ¤k nar
ĠSc ience
Ġmak ens
brott et
ĠBill y
ĠRep ubliken
ĠPris et
sf ri
lÃ¤gg a
Ġrit ad
Ġflykt ingar
ĠÃĸres und
Ġa xel
ĠT enne
ap ar
Ġfram kall
verig e
ĠjÃ¤m n
ĠBen g
Ġby arna
Ġimp orter
ĠEbb a
ag atan
ĠT ess
ĠL ock
Ġuppg Ã¥r
ri er
ĠG ift
Ġkonst ant
aj a
Ġgener all
Ġmedverk an
ĠMagn usson
ven sk
ĠdÃ¶d ar
Ġsvensk ar
ĠÃĦ ld
Ġakt iver
Ġslag it
ĠCharl ie
Ġide al
sk ick
Ġand liga
ĠÃ¥ter stÃ¥r
Ġhem lig
amm ade
Ġbeteck nas
Ã¤lven s
ĠIngen jÃ¶r
ĠMuham med
Ġt Ã¤nd
ag d
ung s
ĠsÃ¥l t
ĠLat in
Ġess Ã¤
ĠMÃ¥r ten
re form
ning sk
ĠO s
im ension
Ġ7 1
ou ver
ĠomstÃ¤nd igheter
t us
sk ilj
Ġby rÃ¥
ĠmÃ¶ ts
ĠFrances co
ĠutgÃ¥ngsp unkt
l ow
Ġt end
iss en
Ġfys isk
ĠgrÃ¶ ns
ĠbehÃ¶v des
Ã¶nst ren
ebre iska
Ġkejser liga
Ġo er
Ġp ip
ĠfÃ¶r fall
el y
ĠM all
Ġra der
ĠCo un
Ġcivil ingenjÃ¶r
ĠGÃ¤v l
Ġish ocke
Ġtyng d
Ġm ell
us a
ĠhÃ¶g kvarter
ĠfÃ¶rb ud
Ġcir kul
ĠNew s
Ġ180 4
Ġavslut a
Ġass oc
ĠfÃ¶rbÃ¤tt rade
krig stiden
em burg
ĠG on
ist ent
ĠfrÃ¤m ste
ĠVen ez
Ġgram mat
Ġori ent
Ġinvas ion
ab on
ĠFÃ¶r ekom
fl Ã¤ck
alis erade
Ġsju tt
ĠMellan Ã¶stern
Ġmekan iska
Ġv Ã¤nda
Ġg yllen
ĠE ns
Ġfl oder
Ġmott agande
mÃ¤kt ig
t is
Ã¤ sk
Ġt sar
19 15
sb rott
ĠhÃ¶r t
Ã¨ ne
Ġkons ult
Ġstift else
ski Ã¶ld
Ġpoj ke
ĠTroll hÃ¤tt
ĠA ven
ot op
Ġvill or
ĠrÃ¥d hus
Ġos Ã¤k
ĠtrÃ¶ tt
ĠFÃ¶rsvars makten
Ġs ult
Ġbi ografi
ĠlÃ¥t skrivare
ĠskÃ¶n het
Ġi ran
id ning
ĠD as
oll y
ola us
ĠGra ham
ĠanlÃ¤gg ningar
dy nastin
amat cher
ĠAnth ony
Ġh ytt
Ġvar ma
ĠP opul
Ġom arbet
ant i
aren a
Ġrik svÃ¤g
Ġinled ningsvis
Ġkontin enten
Ġadminist ration
Î ¹
Ġ \
Ġtv iv
Ġinv Ã¤nd
Ġner e
ipp i
Ġrepresent ation
Ġutbred ningsomrÃ¥det
gitar r
ĠG rev
rÃ¤ ls
ob jekt
194 2
ĠtÃ¥g et
Ġsmal are
Ġvar u
ĠÃ¥ n
ĠfÃ¶rmÃ¥g an
j ade
n aren
Ġf ol
Ġb ag
ard in
ĠGo og
Ġspan jor
h astighet
ĠS eger
ad i
ĠN inten
ĠÃ¶ver klag
Ã¨ res
ĠlÃ¤k aren
Ġsyft et
Ġreform ationen
Ġfir man
ĠÃ¥rhund rade
ĠFÃ¶lj ande
ĠH jÃ¤l
ull en
ĠSh in
H er
r eras
Ġm ats
Ġbl odet
Ġefter namn
ran ter
Ã© erna
Ġ16 60
yn es
Ġkvar stod
Ġnation als
ox id
Ġok Ã¤nda
Ġutgiv ningen
ĠSpar re
Ġmarm or
Ġg olv
ĠI X
ĠSt utt
rist en
bild ningar
Ġinv id
Ġutb rÃ¶ts
ĠlÃ¤g et
st ationer
Ġi t
Ġp uts
ĠT ang
ĠK ust
Ġupp lÃ¶sning
Ġj Ã¤r
ĠD DR
Ġsk Ã¤mt
fÃ¶r estÃ¤ll
ci pen
ĠhÃ¤r led
stra kter
ĠBu ff
Ġtri um
Ġtu ber
Ġkoal ition
sslut et
on ne
Ġb ond
ĠF ire
Ġol iv
ĠSch Ã¶n
Ġang rÃ¤ns
ĠfÃ¶rÃ¤nd ras
Ġfeder ala
Ġkommend Ã¶r
b ind
or ia
ĠN yg
ok lad
Ġsv agt
Ġtim me
ĠQue en
Ã¶ f
Ġunder huset
res ande
Ġskriv s
Ã¡ s
ĠInd y
ĠBen ed
Ġna ck
Ġisl Ã¤ndska
kat olska
Ġo nd
Ġled aren
Ġet ik
Ġnorm ala
ear ch
Ġholl Ã¤ndska
ĠProjekt et
c ed
Ġb ast
Ġl av
ad erna
Ġintress ant
ĠfÃ¶rvalt ning
Ġexist erade
Ġkr ydd
ĠHudd inge
ĠGenÃ¨ ve
v ind
Ġn yg
ĠT rop
Ġr amen
Ġant iken
ĠNord isk
ĠtillfÃ¤ll iga
Ġdist in
l ast
Ġh et
Ġh Ã¤nde
ĠL Ã¶n
ĠV em
Ġkan aler
ip edia
ĠtÃ¤v lar
ĠpremiÃ¤r en
193 6
ĠsÃ¤kerhet s
ĠhÃ¤m ta
snÃ¤m nden
Ġtrop iska
g ro
p ip
Ġv eder
Ã¤n s
ĠP ra
ĠR iga
ĠV iv
Ġre f
Ã¤g arna
akt ioner
ĠhÃ¤r ads
vÃ¤r da
old ater
ror et
ĠUnivers itetet
Ġroll figur
ĠUng efÃ¤r
ĠCent rum
d ik
Ġf Ã¤nrik
ĠN elson
uv e
ĠThail and
v ita
Ġkv Ã¤v
Ã¤t ra
Ġamerikansk t
Ġelekt ro
193 5
ĠFort plantning
p edagog
ĠfÃ¶r rÃ¥d
Ġsl ump
g art
he ad
Ġ7 6
rupp erna
Ġkn uten
Ġkandid erade
Ġbefatt ning
ĠB ror
jÃ¤n stem
mot iv
Ġlandskap smÃ¥l
Ġdial og
Ġny e
lund s
ĠGrÃ¶n land
Ġhemm aplan
Ġupp fÃ¶ljare
est ra
Ġha ck
Ġleg itim
Ġelever na
Ġliber al
Ġslav ar
Ġbetydelsef ulla
Ġammun ition
gen er
Ġskog sbygd
Ġih jÃ¤l
Ġskydd s
Ġregistr erade
ĠLeon ard
Ġsiff ror
Ġsyst rar
ĠSebast ian
ĠLitau en
m ets
Ġom s
ul Ã¤ra
eg al
Ã¤m ne
sp ark
ring arna
her ine
ĠAla ska
b ak
amm ation
giv ande
ĠDram aten
ĠPak istan
ĠSloven ien
Ġm exik
Ġunder art
ĠO hl
da y
ier ades
Ġ17 40
ĠÃĸ vers
ĠlÃ¤r ar
Ġstat erna
Ġrit at
ĠKan al
Ġfas aden
Ġdikt en
ĠSvart a
Ġfril ans
ĠhÃ¤ ft
ĠKvarter et
Ù ħ
ar iket
ĠN Ã¼r
ĠEuropaparlament et
N e
es h
Ġsp ir
Ġru b
ĠHans en
Ġutt rycket
Ġmotsvar ighet
ĠMusik aliska
ĠCla ud
Ġarranger as
stat us
Ġautom at
anst alt
ĠUtveck ling
z el
Ġav f
Ġut sattes
Ġan lade
ay a
Ġte ologiska
Ġkors ar
ĠfÃ¶rhÃ¥llande vis
Ġevent uella
Ġrester ande
l oss
her e
Ġturn Ã©n
Ġinitiat ivt
Ġt ang
ska da
ĠE c
Ġskatt er
Ġflykt ing
ĠBrun o
j ournalist
Ã¶ te
Ġk ak
ĠK ul
ĠR iv
Ġmot satte
Ġgener ationen
ĠCon c
ĠDon ald
i ev
Ġh its
Ġ1 18
ĠS T
Ġl es
Ġin nov
Ġan or
ĠO smanska
Ġman tal
Ġval v
Ġhem man
ske de
ĠSten bock
Ġat om
Ġkontrakt et
Ġinspel ad
ĠSoph ie
h uv
ĠG amm
Ġ17 19
ĠnÃ¥g onting
Ġra ser
Ġjobb ar
Ġanord nades
ĠMiss ouri
ĠSibi rien
l u
Ġs Ã¤ng
Ã¥ ker
ĠP ad
az ine
ipp a
Ġgl Ã¤d
ĠKat al
ĠbegrÃ¤ns at
ĠbÃ¶nder na
ĠT own
ĠV u
est Ã¥nd
ĠnÃ¤r het
Ġunivers um
ĠinnebÃ¤r a
Ġmedlem skap
Ġtj Ã¤na
ĠAlf a
Ġopt im
Ġinflytelser ika
ĠK ring
sl Ã¤ger
ĠFÃ¶r ening
Ġbi ologiska
Ġban or
Ġprocess er
Ġret or
at ar
ut rustning
ograf in
ĠEl ias
Ġstyr de
il den
ak terna
sb anken
Ġkons um
ĠSv ed
ĠDeutsch e
ĠÃ¶vervÃ¤g ande
ĠCyper n
S p
Ġm el
ĠfÃ¶r an
Ġfl ank
Ġtv ek
ĠKung en
ĠBo ok
ĠÃ¤l sk
Ġfel aktigt
Ġfakult eten
or iet
it iv
ĠH C
ĠB orn
is erat
ĠP r
hÃ¥ll ande
Ġbas en
ore ala
ĠprÃ¤ sten
Ġlandskommun en
ĠMot o
192 9
Ġvinter spelen
ĠSn art
ĠTrans port
Ġtenn iss
ĠfÃ¶rvÃ¤rv ades
intress e
ss ee
ĠR im
Ġre vid
Ġkvinn ors
Ġkrit iska
ĠfÃ¶rÃ¤nd rades
Ġuppgift en
Ġanklag ades
Ġbedriv a
ĠsÃ¶nd ag
ĠB ed
Ġsk ym
ĠK rim
Ġfl ug
Ġslut spelet
ograf en
ograf isk
ja ur
Ġvi rus
192 6
Ġuttal ade
M ar
l ind
Ġh op
Ġg all
ĠC lass
te ori
sl andet
Ġ16 80
Ġuppfatt as
Ġhim len
Ġmandatperi od
h il
Ù Ĭ
Ġf ronten
st rafiken
Ġp Ã¤lsen
ĠK att
ĠL ine
ĠEurop e
fall ande
histor iskt
h ild
Ġk u
ĠF ur
Ġ8 8
Ġby te
ĠfÃ¶rsv unnit
ĠfÃ¤st ningen
ĠinnehÃ¥ll et
ĠprÃ¤g lades
ĠSwed ish
Ġden samma
ĠF ol
Ġj ung
ĠanvÃ¤nd ningen
ĠTh om
193 4
Ġdjup a
fÃ¶rs Ã¶rj
Ġuppskatt ats
ĠFilipp inerna
ĠÃ¥rtion den
Ġillustrat Ã¶r
b aj
ss idan
ĠA C
ĠT rin
ĠO ver
Ġpass ar
Ġvanlig ast
Ġpers iska
ĠfÃ¶resprÃ¥k ade
Ġdis cipl
Ġv ap
Ġde partement
ĠB is
Ġkon sta
Ã¶j t
Ġdirekt a
ĠHer c
Ġexp editionen
ĠFo und
ĠHaw ai
Ġtings rÃ¤tt
ĠH ert
ĠB ry
ĠP ublic
Ġr at
ĠSt ur
Ġefter Ã¥t
var i
Ġhand la
vin s
Ġjag ar
Ġc upen
Ġland skamper
ĠHÃ¤r j
ĠbrÃ¶st et
ĠForm el
ĠLaw ren
Ġcer emoni
ĠMeck lenburg
f rÃ¤m
z elius
ĠH ugh
Ġut byggnad
Ġupp vÃ¤rm
man ns
Ġsp ark
Ġfamilj e
ĠBl ues
ĠNy kÃ¶ping
ĠErn est
ĠfÃ¶rlÃ¤ng ning
Ġkristen dom
ĠTam mer
ĠHess en
o i
ĠD jup
ĠM organ
ĠU nd
Ġpro visor
ult a
Ġlag ets
Ġutbild ades
Ġsum ma
l ist
m innes
en stierna
os auri
Ġim pl
ĠfÃ¶rd jup
n eg
ĠB yr
um i
ĠvÃ¤r det
Ġtr ygg
Ġbron smed
s rÃ¤tt
og i
ent liga
Ġvid strÃ¤ck
ĠEd inburg
194 3
193 1
189 5
cy kl
Ġanklag ade
Ġarkit ekter
fÃ¶rhÃ¥ll anden
f ader
in da
ĠpÃ¥ sk
ĠI sak
skap ten
ford on
Ġsvar ar
ĠerÃ¶v rades
Ġklimat zonen
slin jen
Ġstup ade
f unktion
Ġm att
Ã¤r na
ig ion
Ġl im
Ġst ock
Ġom organis
ĠV anc
ĠMon ica
ĠLib anon
ĠKi ev
Ġinstaller ades
ĠS P
ĠF ru
ĠUt rikes
Ġbritt iske
verket s
Ġkateg ori
ĠKonstant in
Ġt Ã¤cks
Ġp in
ĠfÃ¶r verk
ĠH amn
ĠG ent
per to
Ġro sa
sf il
ĠfÃ¶rl ov
Ġrel ief
we ig
ĠkaraktÃ¤r er
Ġdram atiska
Ġanl Ã¤nder
polit iker
tÃ¤v lingar
g rÃ¤ns
ĠM oss
ĠE ff
sb ana
Ġhundrat als
fÃ¶r stÃ¶r
Ġ17 76
gel ige
Ġdjur en
Ġbefolk nings
Ġmuse er
ĠdÃ¥tid ens
ĠSkÃ¥n es
E N
n Ã¤ra
n Ã¤tet
Ġn ek
Ġgenom gÃ¥tt
ĠÃ¥ter komst
Ġutveck lar
Ġjordbruk s
arkt is
ĠrÃ¶ sta
Ġarrester ades
hant verk
g rÃ¤v
Ġt ender
sk urs
ri ven
ĠW ell
Ġgrupp erna
ĠfÃ¤ng els
lÃ¤g e
ĠEv angel
Ġfrivill ig
ĠÃ¶versv Ã¤m
A m
E T
Ù Ĩ
Ġd ynam
ĠfÃ¶r fl
Ġut prÃ¤g
ĠBer nard
Ġkor ru
mÃ¶ ss
ĠB ilen
ef ors
Ġvatten kraft
mot orn
Ġrepresentant huset
n ts
Ġh ier
ĠB ul
ĠIng eborg
sd am
ĠMalmÃ¶ hus
fÃ¶rs Ã¤kring
ĠutmÃ¤rk elsen
k ammar
v Ã¥rden
ff in
ĠmÃ¥l vakt
Ġ9 9
Ġlibrett o
i ek
p osten
Ġut rot
ĠSt jÃ¤rn
um met
Ġc enter
gen d
bild nings
ank ar
Ġmiss ade
Ġetabl era
Ġfly ter
fÃ¶rvalt ningen
Ġukra inska
ĠAlger iet
ĠBrÃ¶d erna
Ġf ac
Ġt ru
Ġtill skriv
ĠE hren
Ġ178 3
ĠupprÃ¤tt ade
Ġradik ala
ĠIndiv iderna
c z
Ġm ej
id or
hÃ¥ll et
Ġmet eor
till sammans
ĠutstÃ¤ll nings
skog a
ĠRa il
ĠNic ol
Ġkungar iket
ĠBrÃ¤n n
k am
ĠA er
as i
sm useum
flott an
gjord a
Ġbeord rade
Ġbens in
. ).
al g
el m
Ġr yck
Ġ17 75
ĠvÃ¥ ningen
ĠRes earch
Ġev olution
ĠrÃ¶n t
y men
ĠJ ason
Ġru mÃ¤n
ĠstÃ¤ll fÃ¶ret
Ġdom kyrk
Ġsyd Ã¶st
Ġtolk as
ĠÃ¶verlev ande
ĠWim bl
Ġs Ã¤nder
ĠL ight
ĠR yska
all as
ic ism
ĠstÃ¤ll t
ator iska
ĠAll en
194 1
Ġjust it
lÃ¤g er
ryss land
ids omm
ĠRein hold
in f
yg ien
inn aren
Ġang rip
ĠLilj eval
ĠfÃ¶rknipp as
a ut
p resident
ĠB ask
ĠK ab
Ġsam iska
ant o
ron en
Ġkont rast
lin es
Ġsyn liga
Ġsplitt rades
Ġschweiz iska
ĠM Ã¥n
ĠE lin
Ġan gel
ĠR af
ĠV ing
inn ande
Ġ8 4
ĠmÃ¥ la
Ġpen garna
Ġspann mÃ¥l
Ġv Ã¤nder
ad as
ien ne
Ġbar r
ĠlÃ¤m nades
Ġant rop
ĠCo oper
Ġexp on
wa ys
Ġpian ist
Ġautom atiskt
) :
t et
an us
ar o
Ġm aka
ĠD ublin
ĠO f
Ġperson ligen
Ġsock nar
ĠZ ach
trÃ¤ der
ĠanlÃ¤gg a
ĠTrond heim
ĠM ob
Ġfot osfÃ¤r
Ġvers er
ĠTor net
ĠÃ¥stad komma
sk yrka
ed in
ĠG olf
ten dent
sn Ã¤s
ĠBi el
Ġsju ka
hem met
ĠSand berg
ĠLÃ¤ng s
g rader
omm e
ap olis
ater at
Ġsoci alistiska
Ġbeskriv its
uel a
ĠvÃ¥ ning
Ġdiplom atiska
Ġkrigsf Ã¥ng
Ġhj Ã¤ss
Ġvid a
Ġny heter
amm are
Ġam iral
ĠfÃ¶rt jÃ¤nst
Ġkolon in
Ġsynt es
Ð¸Ñ ĩ
an ernas
ri sta
Ã¶n en
yd nad
ue z
Ġytter sta
Ġfull fÃ¶lj
ĠtrÃ¤ff ades
Ġjobb ade
ĠSing ap
Ġockup erade
ĠOsk ars
e de
Ġf Ã¶tter
Ġh eta
Ġfl yr
Ġform ul
ĠNorr t
v ey
Ġm ild
ade ts
em ar
ĠP R
ys i
hÃ¥ll ning
ĠFor um
h or
Ġf ragment
Ġm uren
il o
omm en
op ro
Ġod las
ĠOsc ars
Ġprinci per
smark nad
Ġutrust ade
ĠsÃ¤l jer
ĠNiger ia
Ġgenerals ekreterare
ĠTammer fors
Ġen orma
ĠM Ã©
ef l
ĠFl y
Ġev aku
Ġfrans mÃ¤nnen
ĠF at
ĠT radition
ĠP Ã¤r
Ġhan nar
fÃ¶r anden
Ġsam ord
ast en
ĠlÃ¥ng huset
Ġkap itel
ĠIng var
ĠKonst hÃ¶gskolan
Ġlagstift ande
Ġpor slin
I V
Ġ 00
ĠÃ ł
Ġ17 20
Ġbild ad
ĠUtb red
ĠfÃ¶rstÃ¶r a
ĠÃ¶verg Ã¥r
moder n
Ġ17 78
Ġ178 6
ĠlÃ¤ te
ĠVi borg
anal ys
ĠHann over
ĠTenne ssee
g rek
Ġan ark
Ġ7 8
ĠÃĦ kt
Ġforsk ningen
Ġavslut at
ĠfullstÃ¤nd ig
Ġovans ida
ĠStu art
Ġk rasch
Ġtill Ã¤ts
ning stiden
Ġj ournal
Ġny tta
ex empel
Ġhuvud t
ĠY am
up s
ĠAd ler
ĠKro k
Ġbud skap
ĠVÃ¤stern orr
b orna
Ġt unna
Ġsk iss
Ġmuslim er
ĠinrÃ¤tt ade
ĠutgrÃ¤v ningar
ĠLincol n
H S
c ylind
v ans
ĠD in
ĠN ich
alist erna
ines iska
ĠHÃ¶g skolan
ĠbÃ¤r s
Ġuppskatt ade
ĠMari anne
f ynd
st jÃ¤r
sk er
Ġ8 2
Ġhem landet
Ã¼ hr
grupp erna
makt ens
Ġstorlek en
Ġteat ers
ĠÃ¤rv de
Ġdies el
Ġv Ã¤d
rÃ¤ sk
ick an
orm on
Ġber o
Ġsm Ã¶r
Ã¥d an
Ġper fekt
ĠfÃ¶rsÃ¤lj nings
b oda
Ġf usion
ĠF am
ten eg
Ġkung ad
ĠPar ad
Ġjord bÃ¤v
ĠFor ce
Ġinrikt ad
ĠfÃ¶rn ek
Ã¤ by
Ġp sal
ĠS up
ill hÃ¶righet
nd al
il ian
ĠE ug
ĠU gg
Ġfin a
Ġsm Ã¤l
ĠhÃ¤r komst
ĠSp rÃ¥k
ĠBerg strÃ¶m
Ġstyr des
Ġkost ade
ĠKlimat et
fri a
ĠrÃ¤ck te
Ġbist Ã¥nd
Ġt en
ĠP ia
oh l
Ġbes Ã¤ttningen
vÃ¤r den
ĠSch midt
ĠSj Ã¶g
g ens
Ġin verkan
sp rid
ĠfÃ¶d er
Ġskad ad
ieb olaget
Ġfien de
Ġfrivill iga
Ġst ationer
ĠF on
est e
ĠÃ¶ver sattes
Ġgen ren
Ġsp rick
Ġkonst verk
Ġpre fekt
till verk
Ġkul spru
c al
Ġv as
os p
Ġdat ab
sut stÃ¤llningen
Ġeng els
Ġkrimin al
ĠupphÃ¶j des
b is
u res
Ġg iss
Ġin stall
ĠD at
ĠM L
ĠF un
Ġc ens
ĠSl ov
ĠhÃ¤n delserna
ĠtÃ¤n ka
sin ne
skomm ittÃ©n
Ġen de
ett y
ĠT org
ĠC av
ut stÃ¤llningar
lÃ¶ v
Ġte am
ĠFolk mÃ¤ngden
Ã¥rs Ã¥ldern
Ġmob ilt
ĠShakespe are
ĠLett land
A ll
g rim
stit u
ĠHer re
Ġavs ett
Ġkval et
Ġly x
ĠsÃ¤nde bud
Ġuppdel ad
Ġbelg iska
ĠFir st
ĠItal iens
Ġiv rig
Ġp ale
rÃ¥ tt
ĠG rÃ¶
Ġsl aver
sb ok
ĠAn lÃ¤ggningen
ĠIng er
ivis ioner
Ġavs es
mÃ¤r ket
Ã§ a
ĠMÃ¥l et
medlem mar
Ġdiskuss ion
Ġbakter ier
ĠSpan iens
Ġgenerald irektÃ¶r
d ock
Ġt emat
im s
Ġad op
Ġpo eten
Ġkomp ens
Ġnum er
ĠlÃ¥t it
Ġdjur et
Ġeffekt en
ĠfÃ¶res logs
Ġhal sen
Ġregion al
ĠfÃ¶restÃ¤ll er
Ġ1 17
rÃ¥ den
ĠP Ã¥l
rev olutionen
sf Ã¤r
ĠHÃ¶g re
ĠfÃ¶rk ast
Ġseri ens
ĠbekÃ¤mp a
Ġpek ar
ĠSchum acher
P S
tag are
ga ard
Ġ178 7
Ġfinans iella
ĠNÃ¥g ot
Ġpal est
d is
g rÃ¤nsen
ĠN yn
Ġled ar
vatt ens
Ġrym den
Ġundervis nings
Ġkart or
befÃ¤l havare
A B
l Ã¥ng
sk nings
ĠS L
ill o
ĠJ ur
la pp
Ġ4 50
alis era
Ġtillf Ã¶ll
ĠutnÃ¤m nde
ĠhÃ¶j der
ĠÃ¶verlev a
m el
de p
sk ur
Ġtid vis
Ġuppg es
Ġdoms agas
ĠStaff an
! "
Ġt emperaturen
Ġp red
ci us
Ġhuvud byggnad
ĠÃ¤g gen
ĠEx press
Ġborg ar
ĠmÃ¥nader s
Ġov Ã¤nt
ĠIndones ien
ĠEtiop ien
M arie
Ġd ia
ĠH ipp
ul es
os c
Ġgen etiska
19 16
Ġorsak er
Ġuttryck te
Ġanslut a
Ġt Ã¤ta
Ġp ist
Ġl asarett
ver t
Ġut slag
ex per
ann er
ĠÃ¤nd ras
Ġmon otyp
Ġbru tal
ĠfÃ¶rÃ¤l skad
ĠVanc ouver
Ġst ipend
Ġan seende
ĠN ash
Ġsp rit
ĠhÃ¶ vd
sh and
Ġbev arat
ĠkÃ¶r s
jut ant
Ġskick ar
Ġoper as
Ġockup ationen
Ġvic ep
Ġsynd rom
f Ã¤l
n Ã©r
Ä «
Ġk old
ĠK ey
ĠL ot
Ġfl ockar
Ġsj un
sst il
Ġprogram mer
polit iken
ĠDes ign
ĠVik ing
ĠprÃ¤stvig des
ĠI ron
Ġbl y
ut rym
ha w
Ġuts es
ĠHel en
Ġpen del
Ġupplev de
ĠÃ¶verenskomm else
r arnas
Ġs und
Ġf rid
Ġb oll
ĠJ ensen
rik as
Ġind irekt
Ġinled s
Ġbos Ã¤tt
ĠTex ten
Ġinbland ade
Ġv ass
sk ost
ĠfÃ¶r sk
ĠW Ã¼r
Ġbland ade
Ġpsyk ologi
ĠVÃ¤n ster
Ġinbland ning
f ort
ĠS C
ĠB ran
ĠL et
ĠÃ¶ ken
des ign
Ġol je
Ġmin ut
Ġtur ner
ĠlÃ¶s ningar
ĠAir port
ĠPalm e
ĠGreg or
Ġs cout
ĠS we
ĠN att
sl und
Ã¤v lingar
ĠSu z
189 9
Ġrepublik ansk
ĠVÃ¤n ers
ĠIsl am
Ġarbetsg ivare
ĠLux emburg
y st
Ã ¯
ĠF og
ach im
Ġsak en
Ġorganis era
ĠHand lingen
Ġrenover ades
ĠBÃ¶h men
st ag
Ġl ong
ĠfÃ¶rb rÃ¤n
Ġinled ande
Ã³ r
Ġnomin erad
Ġglob ala
Ġcom eback
vap nets
ĠangrÃ¤ns ande
g or
Ġv ingarna
Ġn i
ĠDel ar
Ġra ce
ĠfÃ¶retag s
Ġort odoxa
ĠÃĦkt enskap
Ġt urister
ns jÃ¶n
Ã¤der na
ĠOr k
Ġdeb atten
Ġstyr s
ĠtÃ¤n kte
Ã± a
regiss Ã¶r
Ġdators pel
b ass
Ġg Ã¤ster
Ġtill kommit
ĠM eyer
Ġhar mon
Ġkrig sfÃ¶r
Ġlu kt
ĠslÃ¥ ss
Ġbetydelsef ull
on ia
ĠK Ã¤nda
Ġsj Ã¶r
sv in
ĠFl er
Ã¤gen heter
ĠFor ss
Ġlast bil
Ġst rÃ¤nder
ĠA ra
ĠL ie
Ġsp ion
ĠfÃ¶rs Ã¤k
Ġkultur er
ĠfÃ¶rm ynd
c ancer
ĠY r
nÃ¤m nden
Ġoper or
Ġfur sten
Ġbedrev s
ĠGil bert
g em
Ġl Ã¶r
ĠV alen
eb ok
Ġverk at
ĠÃ¥ter stÃ¥ende
Ġkont ors
ĠslÃ¤ kte
ĠRos lag
Ġimp on
ĠIsa ac
ik ens
ĠM S
ĠM jÃ¶l
ĠF K
ĠDe ad
Ġol ag
Ġinne ha
Ġlik asÃ¥
ĠKl ipp
Ġund v
Ġinspel ning
ev i
Ġsm Ã¤lt
ĠfÃ¶restÃ¤ll ande
ĠfÃ¶rber edel
j ap
Ġv ore
Ġl Ã¤st
id ad
ĠL ah
Ġdet samma
Ġman ager
ĠCh ar
ĠOff ic
ĠAmerik anska
m Ã¥tt
Ġh uden
ĠS itt
Ã¤ck a
rom en
Ã¤lt et
Ã¶ts el
Ġkatal og
ĠskÃ¶tt e
ĠLiljeval chs
N P
f ronten
ĠS ri
ĠT ed
ĠC lem
ind iska
ac t
Ġdom en
Ġplan eten
vin st
ĠNord af
Ġpopul ationer
Ã¸ y
ĠTid iga
ĠVen us
skont or
y an
Ã¤n ker
Ġom gÃ¥ng
ĠO k
im p
ap i
ier ing
ari us
Ġ17 73
ĠFÃ¶r leden
je ct
yl tar
ij on
Ġ178 2
ĠgrÃ¶ nt
ĠfÃ¶rf og
g ud
Ġo jÃ¤m
ĠO pp
ling arna
istor na
ĠVal demar
ĠnÃ¤t et
Ġkop ia
my nt
l jud
Ġs ades
ĠfÃ¶r ef
Ġutveck lad
Ġfolk skoll
Ġmotor vÃ¤gen
ĠinnehÃ¥ll ande
ĠGoog le
h ertig
Ġs ax
on in
Ġst ress
ĠT ir
ri us
od ore
sb e
ĠbÃ¥ ten
ĠlÃ¥ng film
Ġbok stav
ĠgÃ¥ va
ĠMo un
ĠJul es
Ġunderjord iska
Ġ rist
Ġm art
Ġh Ã¥
Ġav talet
Ã¶n erna
lat in
Ġdriv ande
Ġundervis ningen
ĠVolk sw
ĠJuni or
b omb
f est
Ġk orn
ĠD ol
ĠN ad
ent lig
ĠSt ors
ĠLund gren
ĠskÃ¥despel erska
Ġ178 5
Ġneut ral
re en
ĠA rag
ĠK F
Ġefter frÃ¥gan
eri um
ĠÃ¥ter h
ĠÃħr sta
ĠIn teri
ĠMar x
esta ur
Ġfabrik er
ĠlÃ¤gg as
Ġa sy
ĠT em
ell ow
Ã¶l e
Ġsv aga
Ġkons ument
Ġhopp a
vetenskap liga
ĠavslÃ¶j ar
Ġkyrkoher den
s Ã¥n
rin t
Ġseg rade
ĠVar berg
Ġbru d
ĠaffÃ¤r s
Ġradi ost
ĠWik ipedia
ĠStutt gart
ru stad
ĠW ork
Ġc ert
Ġbr om
Ġans Ã¶kan
ĠTh Ã©
ĠMer c
ĠKenn edy
in Ã¤r
ĠK iel
Ġj es
ran ger
ug Ã¥rd
Ġslut liga
Ġakt iebolag
ĠSh ang
Ġvin den
alist iskt
Ġtekn iskt
Ġag era
Ġprot okoll
ĠSic ilien
Ī Ĵ
Ġh ip
ĠH arri
ĠG as
ĠR ig
ĠPro blem
Ġpass era
ĠUr ban
Ġs av
Ġde klar
ss el
Ġsk rÃ¤m
ĠL ast
ud ier
op lan
ĠBi bliotek
ĠFred rika
produ ktionen
ĠMc G
Ġerbj Ã¶ds
Ġguvern Ã¶ren
Ġtack ade
Ġsitu ationer
a ul
g rev
Ð ³
ĠO dens
Ġ16 40
ĠbestÃ¤mm elser
c ole
Ġt era
Ġk Ã¶ket
sk ilda
ĠK lass
eg u
ĠW isc
rÃ¶ sen
Ġman ifest
Ġbli x
Ġser biska
ĠAndre a
Ġsatell it
Ġl Ã¶ns
ik ala
Ġmed i
ro st
ĠT ig
rÃ¶ ja
ĠNorr malm
ĠMatt ias
Ġexister ande
o at
ĠD id
ĠR A
Ġefter fÃ¶ljare
var u
rig aden
Ġha ver
Ġers atts
189 3
Ġutvidg ades
vil ket
Ġgenerall Ã¶jtnant
pp el
ĠColomb ia
ĠUtbred ningsomrÃ¥det
S h
Ġl Ã¤der
ĠM ang
ĠR et
ĠJ up
ard Ã¶met
ĠTid ning
Ġindustri er
Ġavg jordes
ĠNinten do
sk ra
ĠA ch
Ġru t
Ġoft are
Ġlag ts
Ġplan erar
Ġnord Ã¶st
189 6
Ġass ister
Ġfotograf ier
ĠBoh us
tra ck
ĠWimbl edon
d ig
p ur
ĠA y
ĠB anan
ĠK Ã¶r
kon cernen
ĠÃ¥t n
ĠNor man
Ġavs Ã¥g
b acka
Ġl eta
Ġmed hjÃ¤lp
ĠB ret
ĠI sh
Ġom ges
ic ismen
holm ens
fisk ar
ĠSant i
ĠBj Ã¸r
ĠfÃ¶rvÃ¤x las
ĠKoppar bergs
sk in
Ã¤tt s
ĠnÃ¤r ingsliv
fil osof
ĠHel iga
Ġspecif ikt
Ġm unt
ĠD ak
ĠH aga
ĠT ure
ĠW o
ĠsÃ¤tt s
Ġbeslut ar
Ġprote in
uf v
ĠMars hall
ĠÃ¥terf anns
Ġno terade
ĠSalts jÃ¶
ĠD ansk
ĠK evin
ak ern
rin k
ann el
oll ey
ĠKon gelige
Ġvapen hus
fÃ¶rening ens
ĠkaraktÃ¤r en
Ġlantbruk are
ĠEdinburg h
k u
Ġk rog
ĠA qu
ur al
ind ien
Ġbort gÃ¥ng
ĠSte wart
ĠÃ¤m nes
Ġna ken
ĠPet ri
Ġfokus erar
Ġabs or
Ġp ump
ĠfÃ¶d os
Ġpl Ã¥t
gÃ¥rd ar
ĠSte ven
Ġguld medalj
189 7
ĠNik las
ĠBalk an
ĠfÃ¶rfl ut
Ġt ort
ĠK ansas
ek terade
mark s
sfÃ¶r valt
Ġred og
ĠÃ¶r log
ĠavslÃ¶j ade
st jÃ¤nsten
ra x
Ġ( âĢĿ
ĠF M
ĠT rav
ĠT una
Ġan komst
ĠÃ¤ t
ĠMiss iss
a illes
z ona
Ñ Į
ĠA ar
ĠP ur
Ã¥g er
vÃ¥ nings
pl ans
Ġsamman hÃ¤ngande
Ġrom ant
Ġinvig ningen
Ġavg ift
smÃ¤n nen
Ġproducent en
Ġkab inett
N T
st and
om ing
Ġt ren
ik terna
ĠL op
ĠSt rÃ¤ck
eri ets
Ã¶l den
Ã¶k en
lÃ¶ ts
Ġmer parten
ow ell
Ġind isk
189 8
Ġcivil is
ĠframstÃ¤ll s
Ġkollekt ivt
h ou
ra ss
ĠK ass
ĠP av
Ġarbet skraft
gar de
Ġutb ilda
Ġinfl ytt
ĠvÃ¤ster lÃ¤ndska
Ġmag asin
eld orf
ĠfÃ¥g eln
Ġtapp ade
ĠsÃ¥r bar
ĠÃĦn nu
Ġ rÃ¥n
Ã¶ ten
ĠfÃ¶r sen
ĠD um
ĠM TV
Ġupp togs
Ġstats rÃ¥d
ĠuppfÃ¶r t
Ġskydd ade
ĠFram fÃ¶r
Ġfir ade
iru na
ĠfÃ¶rsÃ¤lj ningen
pre miÃ¤r
ĠuppstÃ¥ tt
kunn ig
ĠIsab ella
m iljÃ¶
el at
Ã¤g da
ĠCh ild
Ġned Ã¥t
Ġklass er
ĠBra he
ĠÃĦng el
inten dent
t im
Ġsm Ã¤rt
ĠAnd y
Ġprofess ur
Ġrom er
188 6
Ø§ ÙĦ
cir ka
f Ã¤lla
st ekn
ĠS na
ĠL lo
Ġsj Ã¶k
pro fil
ĠSten en
ĠSyd korea
ĠlÃ¤rjung e
ĠS ju
ĠH D
Ġst rÃ¥k
ĠF ield
ĠF rÃ¤ls
av talet
ne j
ma ssa
ĠTe at
Ġbed Ã¶
Ġutform ade
Ġh eder
ĠfÃ¶r son
ĠM Ã¶j
ĠP Ã¤lsen
ur on
iv itet
ĠV ax
ĠO nt
ĠFÃ¶r bund
ĠÃ¤g or
ĠfÃ¶lj eslag
Ġskap andet
ĠÃ¶pp nar
ĠÃ¤l skade
ĠCan ad
Ġkil ogram
ĠfÃ¤ltt Ã¥g
ĠUtmÃ¤rk elser
j Ã¤v
o ine
Ġav lopp
Ġsl ip
ust on
ĠdÃ¶d as
ĠCh er
ĠOl iver
ĠTor ne
ĠRos a
ĠSig ism
Ġfien den
jÃ¤m te
Ġinvas ionen
Ġfornt ida
ĠKrono bergs
a ppen
t v
t ons
Ġp onny
ĠA nat
ĠG Ã¤r
ĠAnder sen
Ġsteg et
Ġs ort
Ġav handlingar
Ġut es
ĠC os
ĠfÃ¶ret rÃ¤des
arab iska
Ġterrit ori
Ġir lÃ¤ndska
Ġdiagn ost
ĠMÃ¶ ller
Ġfjort on
Ġh unnit
Ġav sattes
ĠK app
ul u
Ġakt ier
rÃ¥l ning
exp editionen
ĠBroad way
en os
is i
ent z
ĠBo ys
ole um
Ġog ill
fur sten
ĠtjÃ¤nstem Ã¤n
Ġk uperad
ĠD ah
ĠR ow
ĠN ep
ast igheten
fatt ande
rog na
Ġred skap
ĠBar bara
ukt ors
Ġherr landslag
Ġto al
Ġsammans Ã¤ttning
ĠfÃ¶rbj Ã¶d
d rog
st ers
ĠD els
ev angel
Ã¤g et
Ġ8 7
ĠEd die
ĠPol y
ĠmÃ¶ bler
Ġtel e
Ġgodk Ã¤ndes
ĠCarol ine
fal z
Ġp resent
ĠS F
ĠK ari
sl e
Ġfram steg
eb ro
ĠGÃ¶ t
Ġkung a
Ġund re
Ġrunt om
ĠhÃ¶r s
Ġuts Ã¤nder
Ġstift elsen
Ġent us
ĠmÃ¥ng fald
Ġmonotyp isk
h arm
ĠT Ã¤vlingen
Ġord ens
Ġska pel
jÃ¶ ld
ĠGeorg es
ĠutgÃ¥ va
ĠTi bet
or ig
borg ar
ĠupptÃ¤ck a
Ġboplats er
Ġ rop
ĠF ischer
ĠK ot
Ġar gent
ĠOl av
minist eriet
Ġansvar ade
Ġspec ifik
Ġuppman ade
Ġfoss il
ĠPalest ina
ĠFÃ¶rekom st
Ġgyllen e
I M
e ch
ĠfÃ¶r int
jÃ¤r ns
Ġ8 1
vÃ¤g gen
ĠKlubb karriÃ¤r
Ġregl erna
Ġaccep tera
b ring
o on
Ġb ilt
Ã¤r erna
Ġp rick
ci ent
Ġdag bok
sy ns
Ġprog ress
Ġpublic erad
ĠJon athan
ĠVÃ¤rld sm
Ġminor itet
Ġgarn ison
k are
t rum
Ġk redit
Ġan mÃ¤rk
ist okrat
Ġfl ock
sh Ã¤st
ĠÃ¤g a
ĠhÃ¥ll ning
Ġberg strakter
ĠCon st
Ġmedborg arskap
Ġjurid isk
smat erial
ĠGri pen
europ eiska
Ġegypt iska
I C
R T
g ad
v re
Ġs et
st jÃ¤rt
Ġl ord
ĠE s
Ġom given
ent ligen
strÃ¶m men
ĠfÃ¶rfatt arna
Ġrom arna
ĠHe art
Ġfinans minister
ĠGir l
Ġoer hÃ¶r
Ġst rikt
Ġst ations
ĠB rom
ĠB iskop
fl ag
ĠsjÃ¶ arna
ĠgÃ¥rd arna
estiv aler
Ġkors et
Ġsyft ade
ĠSocial demokraterna
Ġartilleri regemente
sklubb en
Ġbusk ar
Ġrov djur
ĠSÃ¥d ana
f Ã¤ng
Ġf ond
ĠB uk
ĠT anz
ĠG ames
ĠÃ¶ver ta
sl Ã¤kare
sb est
mar ck
mar skalk
ĠmÃ¤nnisk ors
Ġban ken
ĠframstÃ¤ll a
deb uterade
ĠNordaf rika
k ens
Ù Ī
Ġmot ion
ĠnÃ¤r var
Ġsy nes
alm at
Ġplac era
Ġtel ef
Ġkatal anska
halv Ã¶n
f ritt
Ġu g
ad Ã©m
ĠE S
ĠL ig
ĠG rip
ĠR ut
del arna
Ġdel ad
he in
ĠÃ¥ter gick
Ġinnan fÃ¶r
ĠInd iana
Ġsyn onym
produ c
ĠBre men
inspel ningar
t orn
st ora
ĠS Ã¤song
ĠA cc
ĠB Ã¼
ver y
ock er
ĠÃ¤nd en
fin ska
under visning
Ġpat ient
a ft
g alan
p redik
Ã¤ sa
Ġm osk
Ġt oner
Ġin uti
ĠH Ã¥r
ss eldorf
Ġ9 8
ĠHol ger
bev ar
s ett
Ġk aj
Ġav stÃ¥ndet
ad y
Ġpro sa
ĠvÃ¤g gen
ĠÃ¤nd ringar
Ġsjuk skÃ¶ter
189 4
Ġtel egraf
Ã¥k are
Ġvicep resident
P C
r aren
Ġb is
Ġg n
eg Ã¥rd
Ġfar m
189 0
ĠMag azine
ĠCamp bell
ĠPolit ik
ĠDjurgÃ¥rd ens
ĠWisc onsin
f r
k ers
Ġa manu
Ġde lla
ĠB rist
ĠV Ã¤rn
Ġ17 74
rop olit
ĠhÃ¤r skare
Ġform ella
ĠtrÃ¤ na
Ġra ket
Ġbegrav ning
Ġfys iskt
Ġrec ens
E A
Ã¥ ter
or der
ĠL ak
ĠMan h
Ġkost nader
Ġfolket s
apt ist
ĠavlÃ¤gs na
Ġantis em
o use
pl at
Ġ16 50
Ġmin nen
ĠmÃ¥l ningen
Ġvin ster
Ġers att
Ġdrabb ats
Ġvand rar
ĠÃ¶verlÃ¤m nade
Ġinsk rÃ¤n
ĠutfÃ¤r dade
ĠAleksand r
s oci
ĠD aw
ens ch
ĠO ft
yrk or
ard i
Ġpart ik
Ġy ou
ĠVin cent
ĠfÃ¶rdel ar
ĠtrÃ¤dgÃ¥rd ar
ĠkÃ¶n en
Ġcer emon
Ġst ry
rik s
dom stolen
ĠNÃ¤r m
ĠDan ce
ĠbestÃ¤m des
Ð° Ð½
ĠBÃ¶rj e
b udet
k r
Ġa kust
Ġd Ã¶lj
ck ar
Ġg ot
ĠM aster
ot el
he w
ac cin
Ġ8 6
ĠlÃ¤ng den
Ġ10 5
ĠHen ning
ĠsamhÃ¤ll ets
ĠHall e
hund ar
ĠCir ka
ro ppar
ĠP arken
ĠO cksÃ¥
Ġsj unk
Ġriks d
me ister
Ġpass ade
Ġsynner ligen
Ġbrist ande
Ġmusk el
ĠEdu ard
b rist
Ġf e
Ġf und
ĠM Ã¤rta
os pel
ĠÃ¶ver tag
ĠO y
ĠFran klin
ĠfÃ¶ret e
ĠupprÃ¤tt hÃ¥lla
ĠHalm stads
Ġkaff e
ĠStrind berg
I T
S tor
ĠH og
Ġsk ur
ĠP ant
ild ing
Ġslut at
Ġpo ster
ĠrÃ¥ tt
spro blem
Ġkoll ektiv
Ġillust rationer
hamm ars
g jordes
s examen
Ġu rupp
it atet
ov itj
ĠSk ogs
Ġ8 3
ĠlÃ¤r t
rand en
ĠomrÃ¥det s
ĠLin da
ĠerÃ¶v ra
Ġvinn are
Ġmult i
Ġgitarrist en
ĠrÃ¥k ade
m itt
Ġt rÃ¥ng
Ġk app
ĠÃ¥ter skap
ĠSp ace
ĠfÃ¶rb inder
ĠÃ¶verens stÃ¤m
ĠWolf gang
sfÃ¶ret ag
ĠS igt
bb y
ĠAr g
Ġmotsvar ade
ĠtillÃ¤mp as
ĠDÃ¼ sseldorf
Ġsmekn amnet
Ġtuber kul
E l
n est
w are
y ller
Ì ģ
kt ryck
em ark
ĠF ris
ĠP ul
ĠG reta
op le
kl ipp
Ġseg lade
Ġsamarbet a
Ġindustri ella
ĠersÃ¤tt as
lÃ¤kt et
Ġskot sk
ĠManu el
k j
s eger
Ġb og
Ġb ulgar
ĠS var
ĠK ost
ĠG az
ĠC lin
Ġny kter
ob i
Ġstart ar
ĠrÃ¤k na
yll and
Ġtom ten
Ġintens iv
Ġkonsek venser
Ġinfrast ruktur
b urn
Ġd ru
Ġp all
Ġde partementet
ag ask
ĠO den
rad io
ib ygg
Ġbak kropp
ĠRe uter
189 2
Ġfakt or
Ġmotorcy kel
re z
Ġupp satser
ĠSt alin
Ġarbet arna
Ġ9 6
Ä ĥ
el i
ĠT ing
ĠP ast
ĠJo achim
Ġsch ack
Ġflick vÃ¤n
Ġinbland ad
ĠWag ner
ĠFÃ¶ren ade
Ġst af
ĠT vÃ¤r
ĠU nes
ĠJ arl
ier ra
ĠAr vika
Ġsm Ã¤r
ĠFÃ¤r g
Ġneg ativt
Ġutarbet ade
Ġo bl
Ġv Ã¤lv
it iva
ĠM og
ĠL andet
ĠÃ¶ gruppen
ĠW ith
ĠSk id
ĠsÃ¥l unda
th ers
Ġtrol igt
ĠmÃ¤nsk lig
ĠRh en
ĠK ram
led ningar
gar det
Ġgeneral gu
ĠaffÃ¤r sman
Ġsymbol er
ĠvÃ¤rldsm Ã¤stare
Ġfattig dom
Ġamanu ens
S e
p alatset
Ã¥ det
Ġi sen
Ġa ud
Ġk org
Ġen samma
ĠR at
rin a
ys pelare
Ġnor ske
ĠLe jon
ey board
grund en
ĠSc andinav
Ġdrag on
Ġseri es
Ġblom ster
Ġprom over
adÃ©m ie
Ġb rÃ¥k
ag da
ĠK Ã¼
ok a
Ġhon orna
stÃ¤ll are
Ġbe hÃ¥ll
alis erad
Ġoms org
f e
ver ing
ĠT age
ĠK irk
um er
Ġunder lag
ug gen
Ġdag arna
188 4
Ġdist ans
ĠÃ¤mbet e
ĠÃ¶verg avs
ĠÃ¤tt lingar
Ġdekor ation
Ġrund an
Ġkommers iell
Ġsakrist ian
ĠQue ens
Ġproport ion
in rikt
or net
Ġin skript
bet yg
Ġfy lla
ĠlÃ¤m ningar
Ġant ar
Ġstart at
ĠMor itz
Ġvol ymer
Ġas iatiska
Ġinnehav are
b red
p uts
r erat
Ġo smanska
ĠK TH
ri mer
Ġbes lag
Ġfot en
Ġad liga
Ġstads arkitekt
Ġskrift liga
Ġkonserv ativ
otyp en
shÃ¶vd ingen
Ġdramat iker
p enn
Ġf an
ĠP le
est jÃ¤rna
Ġkl ag
Ġskap ats
Ġplac erat
Ġlitter Ã¤r
ĠfÃ¶rklar ades
Ġident ifiera
uktors namnet
Ġf estival
ĠH Ã¤ck
Ġst ycke
ĠK han
ĠW right
ĠWest ern
ĠIm p
Ġprom en
Ġmobilt el
ĠfÃ¶retrÃ¤des vis
d as
Ġav se
em berg
ĠÃ¶ m
sn ivÃ¥
ĠRy an
ĠvÃ¤lj s
ĠstrÃ¥l ning
ĠNazitysk land
an fall
Ġsk Ã¤nkte
Ġgrund lag
ĠmÃ¶jlig gÃ¶r
Ġrun in
regement ets
ĠHawai i
k op
Ġm juka
ĠpÃ¥ min
ĠG rÃ¼
Ġord nade
Ġhem land
abl e
188 9
ĠfÃ¤lt et
ĠCla ude
ĠSuper ettan
Ġomvand lades
Ġemig rerade
Ġgam le
ĠPors che
Ġo nda
ter ingen
ĠÃ¤r enden
es p
te ll
Ġkon vent
bet e
ob a
Ġpat ienten
ĠBat man
ĠAri zona
ĠHud ik
b uch
i ed
sk ogs
ĠT anken
ĠR estaur
sb as
hamn en
Ġflykt en
ĠMÃ¤nn isk
ĠSingap ore
Ġs op
ĠS ina
ĠF yr
ĠL ug
ĠJ orden
Ġre son
Ġbygg mÃ¤stare
Ġvill an
sn amnet
met oden
yll da
y le
st urn
Ġn Ã¥s
Ġr ens
yt en
Ġ17 71
Ġverk an
Ġdag liga
mark naden
Ã¶v are
Ġby ter
Ġolyck an
usin ess
Ġvarum Ã¤rke
ĠKent ucky
ĠWallen berg
h off
Ġo bet
ĠfÃ¶r gift
Ġbl ues
kl e
ĠSk ytt
Ġra ll
ert o
Ġplan eras
ĠKon rad
Ġrest erna
ĠCast le
Ġlov ade
Ġbuss ar
ĠvÃ¤t ska
ra ket
ĠB Ã¶r
Ġan ta
ef orm
op era
ĠAl bin
Ġkatol sk
Ġhy brid
ĠTun is
l os
ĠB erk
ĠC ommun
ĠN Ã¤s
ĠÃ¶ver d
vis ningen
Ġint ag
Ġlag s
Ġpil ot
ĠHor ns
Ġvinn aren
Ġgol vet
r erades
st eknik
at ors
at ive
Ġv d
ĠS yn
Ġg alax
Ġtill handa
ag net
ĠC our
sl av
Ġkommun ic
18 78
ĠY ear
ĠMar ge
ĠLin der
ĠEm ellertid
Ġtilldel ats
smin ne
Ġomgiv ning
ĠLjung by
ĠHong kong
e en
Ġh iss
ĠD ans
ĠU ru
Ġj orde
ĠSp eed
ĠtrÃ¤ sk
Ġfransk t
Ġavveck las
Ġintervju er
x i
ra ll
ĠH andels
ĠT olk
ep s
sÃ¤tt ningarna
ĠBr att
ĠfÃ¶rsv ag
ĠLant bruk
ĠLÃ¼ beck
ĠFartyg et
m ut
it iat
Ġtill komst
ĠN S
Ġ7 9
ĠmÃ¶ bel
Ġsing ell
ĠKommun ens
ĠkrÃ¶n ik
D P
v ol
am ns
ag ement
Ġsk Ã¶ta
Ġvil a
red iens
alis eringen
Ġteck nings
Ġavslut ad
ĠfÃ¶rklar as
Ġregiss erad
Ġlokal erna
Ġmar x
ĠRang ers
ĠRena ult
ufv ud
ra ul
ĠK iruna
ĠO le
Ġfram trÃ¤danden
Ġsm ed
Ġkron a
189 1
ĠfÃ¤st e
ĠRon ald
Ġkull ar
Ġkold ioxid
ĠK rak
ic itet
Ġ17 77
Ġins ekt
ĠÃĸst tyskland
ĠsÃ¤song ens
Ġjobb a
Ġbeb od
ĠRal ph
g rÃ¤
ss l
ĠF ull
Ġan ten
var ter
mark en
Ġkopp las
teck en
Ġkem isk
Ġalternat iva
ĠrÃ¤dd nings
5 00
b rÃ¶d
k oden
s holms
att le
ĠM itch
ov ina
Ġandra plats
ĠfÃ¶rstÃ¶r de
ĠPolit isk
ĠExp ressen
Ġdepress ion
ss eg
ĠK val
Ġdel av
Ġcir kel
vet are
Ġna vig
Ġbetal ade
ĠutÃ¶v a
Ġmedvet en
Ġsat ir
ĠBonn ier
k Ã¶rt
ar isk
ĠfÃ¶r re
ra var
Ġin redning
Ġstud ion
ĠtjÃ¤nst gÃ¶ring
vent arier
ĠfÃ¶rv ir
musik en
Ġsal ong
mak are
Ġkonsek vens
ĠMala ys
Ġomt yck
ĠLlo yd
r erar
u i
Ġs ir
Ġv okal
Ġg ilt
ver ktyg
ĠF Ã¤lt
ĠT ow
Ġall svenska
ĠhÃ¶ ja
ĠDe c
Ġgru nder
ĠAnt arktis
ĠfÃ¶rlor ar
Ġindiv iden
ĠÃ¤l ven
188 8
Ġmur ar
ĠsÃ¤lj as
Ġredig erade
T C
an lÃ¤ggningar
Ġo x
it or
Ġan ledningen
og nit
Ã¶j ligheter
Ġhem sida
Ġet appen
kar aktÃ¤r
ĠFlyg vapnet
Ġfrit ids
ĠkÃ¶ns mog
Ġgla ci
d Ã¶r
k Ã¥
Ġl era
ag arna
ĠK amer
ym bol
ou ch
Ġgud stjÃ¤nst
Ġinrikt ade
ĠJung fru
Ġinstift ades
fatt ning
Ġung ersk
ĠfÃ¶rb judet
ĠvÃ¤n ta
ĠCon rad
Ġbetyd de
Ġallvar lig
ĠFÃ¤r Ã¶arna
Ġkommers iellt
mÃ¤l e
Ġreakt ioner
d ator
g raden
o kt
ĠG raf
Ġupp rÃ¶r
ĠSt all
Ġfl adder
Ġled d
Ġkonst fÃ¶renings
Ġung djur
Ġ178 4
Ġuppskatt ad
W h
Ġ ets
ik omm
ĠM ore
Ã¤n ta
Ġ17 66
Ġmoder smÃ¥l
ĠÃ¶k ning
ĠrÃ¤d dade
Ġdok umenterade
kvar n
ĠLi bert
Ġrot ation
produkt ioner
ĠVÃ¤sternorr lands
ĠS ystemet
ĠJ azz
atur en
sh a
Ġ9 3
ĠEr land
ĠBol ivia
Ġskul der
m Ã¤ngd
Ġbl ind
ĠSk ansen
Ġplan ering
ĠuppfÃ¶r andet
ssk ild
Ġsade lt
ĠSjÃ¶ berg
Ġavb rÃ¶ts
medlem marna
Ġexakt a
Ġlys ande
ĠOrsak en
Ã ¾
Ġb us
Ġp Ã¤l
ĠR und
ens on
ĠÃħ sa
Ġhem stad
lut ning
Ġmor f
ynd ighet
Ġ178 1
ĠKonst fack
Ġutk Ã¤mp
' )
r s
sk ort
Ġtill t
ĠB ef
Ġom v
ĠSt ationen
Ġsp arbank
Ġskri ften
ĠCo sta
ĠMc L
Ġdomin erar
ĠSig frid
Ġanfall et
Ġkonstrukt ionen
ĠSundsvall s
Ġdoktors examen
ĠFound ation
Ġdelav rinningsomrÃ¥den
l ob
Ġb yg
Ġp lay
ĠA ud
Ġplac erar
ĠLib yen
ĠbedÃ¶m s
Ġkomplex a
st rup
Ġk ran
ĠS atur
ning stid
ĠH ills
ark lass
Ġsp Ã¥ren
ĠfÃ¶ret agen
Ġkomp onenter
Ġexp orter
ĠvÃ¥ld samma
fot boll
ĠApp le
Ġflag gan
Ġvarum Ã¤rket
Ġhoris onte
h als
st ilen
ĠS ter
ĠH arl
ot iv
Ã¶d ande
Ġre perto
Ġmellan rum
Ġsen ior
Ġtal are
ĠhÃ¤rad shÃ¶vding
Ġmarknad s
flytt ning
Ġomgiv ningen
Ï Ħ
ĠH yd
ĠH alv
ĠpÃ¥ tag
fÃ¶r draget
Ġ17 79
Ġled arskap
Ġbakgrund en
ĠnÃ¶dvÃ¤nd iga
Ġfant ast
H z
v Ã¤m
ĠM ack
Ġr ol
ĠfÃ¶rs ikt
amp or
ĠLind qvist
Ġsym tom
Ġpresenter as
Ġdial ekter
ĠLawren ce
Ġs ektion
Ġt ap
ĠM Ã¥ns
ĠB ent
ĠF land
Ġut vand
ĠÃ¤ del
ĠJ ok
ĠCh else
sh ot
Ġsex uellt
ĠPol ens
ĠCar ter
sled en
188 7
Ġgren en
Ġbolag ets
Ġkalk sten
ĠEngel b
ĠfÃ¶ran led
g amla
Ġ Ã¶d
ed ers
ĠD im
bl o
ĠfÃ¶rlor a
Ġovan pÃ¥
ĠfÃ¶rhÃ¥ll andena
Ġutgiv ning
ĠfÃ¶rd Ã¶m
Ġunderl Ã¤tt
Ġdiskuss ioner
ĠOft ast
st ycken
Ġi b
il itet
ĠÃ¶ver gÃ¥ngen
ĠGÃ¶ tt
lin der
rom erska
ĠGeorg ien
Ġtilldel as
Ġvari anten
ĠvÃ¤nt ar
ĠNÃ¼r nberg
Ġf unna
ĠP S
ul ar
hÃ¶ll s
ĠvÃ¤gg arna
Ġrykt en
n itz
Ġh Ã¤nt
ĠG at
ĠU N
ann en
rad itionen
Ġhos pital
ĠSal omon
Ġtemperatur er
Ġanlit ades
baj d
l yn
r yn
ett o
Ġupp lÃ¶s
ber lin
sp er
ĠAd rian
Ġfall en
Ġbehand lades
Ġknapp ast
Ġkyrkor ummet
Ġanpass ade
Ġolyck a
ĠsÃ¤nd s
ĠRobin son
snÃ¤m nd
Ã¼hr er
f s
m ogen
Ġatt ent
ĠD irekt
Ġre kor
ĠCh ef
Ġkommun ik
Ġtr ycket
ĠrÃ¶d brun
Ġdjup are
Ġinit i
ĠfÃ¶ren kl
rÃ¤ff ande
Ġkop ior
Ġalt artav
ĠPed ro
slÃ¶v s
Ġryt m
Ġtender ar
á Ľ
Ġd yra
ĠT oy
ĠP omp
ĠC ard
Ġ17 41
Ġstat ssekreterare
ĠKon ung
ĠWar ner
result at
h ire
Ġt un
Ġh Ã¤nderna
or terna
sk usten
ĠB erna
ĠJ Ã¸r
ĠSt ark
Ġvil t
Ġ17 65
Ġkyrk orna
Ġmoder nt
Ġberg sked
fÃ¶rbin delse
ĠArsen al
' m
Ġb oreala
ĠfÃ¶r ebygg
ĠD own
ĠH au
ĠH ilde
ĠA ires
ĠB ass
Ġut d
Ġpro j
riv na
Ġled arna
hÃ¶ gar
Ġbef ogen
ĠDan i
Ġfast sl
Ġpublic erats
Ġsym foni
ĠDav e
Ġbidrag et
Ġau ktion
ĠCop a
ĠSigt una
Ġf yrk
re ich
ĠH ors
ak iska
gÃ¥ng arna
Ã¡ l
sg rÃ¤nsen
Ġtrafik eras
ĠhÃ¤ck nings
ĠSig rid
bost Ã¤der
Ġbill igare
Ġarbetsg iv
A nt
U S
g al
g ard
k Ã¶tt
ill an
Ġin fÃ¶rande
ĠE y
sp rogrammet
ĠhÃ¶g skol
pro vinsen
Ġmoder nare
Ġfall a
ĠEg ypt
Ġuppfatt ningen
hÃ¤st en
Ġbered skap
ĠskilsmÃ¤ss a
Ġt emplet
ĠH in
fÃ¶r emÃ¥l
ĠJ ama
Ġhel ige
mi x
ĠIs ra
Ġkropp ens
ĠJap ans
Ġjud arna
Ġopp ositionen
ĠGÃ¤vl eborgs
I D
Ã ®
Ġr ingen
od ens
oh n
Ġ7 50
Ġsym fon
ĠpÃ¥verk ad
Ġdri ften
Ġgar anter
Ġnoter ades
em edlem
ĠR Ã¼
Ã© ra
ron er
ĠOr den
ĠÃ¥lder dom
ĠVall ey
Ġetapp er
st yrkan
st ycke
ch erna
Ġtill gÃ¥ngar
Ġut m
ans on
sp erson
Ġkonst at
Ġreg im
utveck lingen
ĠfÃ¶rut sÃ¤ttning
ĠTrol igen
ĠVolksw agen
ĠS agan
ĠP att
ĠU d
Ġsl uss
ĠrÃ¤tt egÃ¥ngen
Ġorganis mer
Ġmiss bruk
rÃ¶r elser
Ġgrav sattes
bil den
Ġfred s
ĠSvan te
Ġfikt iva
ĠS ul
ĠH S
Ġvar vet
ĠJ ournal
Ġbeg ick
alis eras
Ġsyd ligaste
Ġintress anta
Ġbehand la
bas erad
Ġbro ar
188 5
Ġskild ring
Ġmisslyck ade
ĠPrin ce
sid or
emin ister
E G
Ġs el
ĠL az
ĠI an
ist ernas
Ġgenom gÃ¥ende
Ġlag kapten
ivit s
ĠKyrk lig
ningss ystem
Ġaustral iska
Ġassister ande
E D
l Ã¥ten
ĠB eslut
rÃ¶ tt
Ġ17 63
ĠCent re
Ġsem ester
ĠJord an
ĠOrganis ation
c s
m Ã¶tet
ĠS onen
ad an
Ġsk juter
ĠK orea
art ad
ĠSt ill
ĠÃ¥r lig
Ġ3 60
Ġel ef
rÃ¤k ter
Ġkor respond
sd al
skomm ittÃ©
Ġutred ningen
ĠHudik svall
Ã¤ bod
st jÃ¤nster
Ġb jud
ĠR Ã©
Ġhistor ier
ich t
ĠFin ans
Ġkn Ã¤
Ġdans are
ĠJÃ¤r fÃ¤lla
sw ald
ĠMauri ce
Ġh immel
ĠG um
Ġkon son
opp a
Ġres ande
Ġkrig sslutet
ĠMad agask
ĠGer man
Ġvide on
hugg are
Ġh Ã¤kt
em ellan
ĠL ac
ĠW is
Ġsm Ã¤rta
Ġans etts
Ġarkitekt kontor
ĠbestÃ¤m d
ĠBu enos
Ġmagn itud
ĠShakespe ares
Ġskandinav iska
ĠD J
ĠB ac
ĠC lev
art iet
Ġsats ade
Ġregistr erades
Ġperman enta
ĠV ib
Ã© en
Ġny byggda
akt iva
le ant
ition er
Ġkateg orier
Ġdisk rimin
Ġbevar ats
Ġ175 6
Ġindel ad
Ġillust rerade
Ġheders ledamot
ĠLy on
ĠTÃ¤t orter
g Ã¶
g rÃ¶n
st yre
Ġh uv
el iga
ĠT eng
ĠE hr
ĠO ce
Ġbland as
Ġkraft igare
Ġarran gÃ¶r
ĠBas el
ĠVers ailles
F L
er gi
st aterna
Ã¶r a
sk ningen
id ag
ĠB oris
ĠN Ã¤rke
Ġunder st
sh ow
au na
iot alet
Ġsym ptom
ĠvÃ¤nt ade
ĠrÃ¥k ar
k ulturen
v ning
z an
am as
el by
Ġst rim
Ġut vÃ¤rder
ĠfÃ¶d an
ĠMusik vide
ĠPat rik
Ġhy per
Ġgyn ns
ĠRuss ell
ĠTai wan
O M
Ġs w
Ġbl yg
ĠR uth
sta ven
ĠJ i
ĠJ ay
bet es
ĠlÃ¤n sstyrelsen
ĠNy strÃ¶m
styr else
Ġprovins erna
H A
ĠD yl
ĠH uss
ĠK ath
Ġbl ick
ĠR Ã¤
Ġsl agen
Ġtal rika
Ġpublic eras
ĠPeter son
Ġbos atta
Ġelekt ricitet
jung a
ĠAc adÃ©mie
Ġtemper erat
ĠManh attan
i ol
Ġb ab
Ġd rÃ¤
ĠfÃ¶r handlingarna
Ġar istokrat
Ġhuvud delen
Ġkyrk obygg
Ġ9 2
pro vis
Ġkomp an
ĠberÃ¤tt as
Ġtryck ta
ben en
kra fter
zer bajd
ĠAla b
ĠHÃ¤rnÃ¶s and
Ġtestamen te
g ods
Ġf ont
Ġm oss
Ġm aster
Ġm innet
id akt
fÃ¶r da
Ġefter lÃ¤mnade
Ġbest Ã¥ndet
ĠsÃ¥l da
Ġpublic era
jÃ¤rn arna
Ġher re
Ġrelig ionen
ĠÃ¶verg av
ĠvÃ¥ld t
ĠPlay station
Ġdoktors av
ĠGes chichte
Ġdro ger
ĠSpeci al
ĠYng ve
Ġryggrad slÃ¶sa
g h
en ius
ĠS udan
ik ts
ĠK orp
ri per
ĠfrÃ¥n varo
ib el
Ġrom antiska
fÃ¶rbundet s
ĠDi ego
Ġlatin ets
ĠpÃ¥trÃ¤ff ades
tit eln
ĠTw o
d ram
Ġh olm
ĠH Ã¸
ĠM ekan
ĠanvÃ¤nd aren
ĠTh at
âĤ ĥ
ĠutmÃ¤rk else
Ġuniversitets bibliotek
ĠOb serv
Ġfukt iga
kons ul
nord iska
ĠstjÃ¤r ten
Ġmemo arer
G S
Ġm Ã¤tt
Ġh ebreiska
Ġut satta
Ġsam lat
um par
ĠmÃ¥l ades
ĠlÃ¥ng var
Ġrad ar
188 1
ĠlÃ¤ ser
ĠStad ium
ĠRud beck
Ġtav lor
j Ã¤mt
Ã¤r kte
ĠS ad
Ġde f
Ġn ivÃ¥n
Ã¤n nen
Ġakt ie
ĠpÃ¥trÃ¤ff as
ĠSimp son
Ġtjug ot
ĠKell y
z zo
Ġin kall
ĠH unt
ĠB olog
ĠP Ã©
all svenskan
Ġre bell
pl Ã¥t
Ġbes Ã¤ttning
Ġkyrk ob
ĠfÃ¶rst Ã¥r
ĠfÃ¶rfatt ar
Ġmatch erna
Ġs Ã¶kt
ĠF ront
ev o
ff a
Ġ17 69
ĠSk att
Ġkonst aterade
Ġlik nade
ĠBo ul
Ġprakt ik
ĠSi eg
Ġb und
ĠT ore
ĠC las
ĠR ag
ĠdÃ¤r vid
Ġdel tÃ¤vlingen
Ã¤ng er
Ã¤v es
Ġplan erad
ĠNy kÃ¶pings
Ġrikt ad
gÃ¶r ande
Ġvari ation
Ġ175 8
Ġattack er
Ġth at
ĠtillÃ¥t et
Ġkontinuer ligt
ĠNÃ¤st an
ĠCiv il
ĠVenez uela
Ġo nt
or ening
Ġb Ã¶
ĠH end
ĠH ome
Ġst Ã¥ng
âĢĿ )
ĠvÃ¤g rar
rukt Ã¶r
ĠmÃ¶r dade
Ġprin sen
Ġdram atik
Ġvitt nes
ĠStud ier
Ġrid dar
Ġprotest antiska
Ġutnyttj as
B er
Ġs Ã¤nk
ed o
ĠM atte
Ġbl Ã¥s
ĠV alk
Ġkommun s
rÃ¤d gÃ¥rden
Ġmin er
Ġal p
Ġmoder ns
mÃ¥l ning
ĠkÃ¤r na
Ġ175 5
Ġobserver ats
Ġtax onom
ĠkÃ¤nn edom
O m
b ra
i ja
t av
ĠC ry
ika pp
ĠprÃ¤ gel
Ġpass a
Ġstark aste
ĠGi use
ĠPark er
Ġanpass a
ĠtillgÃ¤ng ligt
ĠfÃ¶g a
Ġanat omi
m Ã¶r
w ar
ĠK oll
if l
ĠSch e
ĠhjÃ¤l te
Ġlev t
Ġbehand lingen
188 2
ĠJer ry
Ġkomposit Ã¶ren
exp edition
ĠSchw ar
ĠÃ¶vervint rar
f jorden
k anten
de partement
ĠS ign
ol ka
Ġre m
Ġuniversitet ets
ĠRom eo
ĠtillfÃ¤ll ig
Ġgl es
bas en
ĠfÃ¶restÃ¤ll ningen
Ġkra ven
ĠFreder ick
nag are
g rop
i y
l Ã©
l okal
m else
am men
and ro
ĠL ille
Ġsam verkan
ĠJ ava
ste ori
Ġvikt igare
stitut ion
Ġvarm t
Ġimp eriet
ĠRen Ã©
h Ã¤
k ull
s Ã¥ngare
ĠL ax
ĠJ ern
18 75
Ġkomp rom
ĠhÃ¤n visning
ĠReg ering
ĠmÃ¤nsk ligheten
ĠWall in
ĠutÃ¶k ade
ĠMak edonien
Ġhomosex uella
M an
Ġin tendent
ska s
ot et
ĠOr ch
Ġrikt ig
ĠvÃ¤rlds rekord
Ġisrael iska
ĠÃĸrn skÃ¶ld
Ġk Ã¤k
Ġkomp etens
sch weig
er e
Ġh ell
sk amrat
rÃ¥ gar
ĠN eg
Ġing Ã¥tt
ĠPar all
Ġge ografi
ĠtÃ¤v lande
Ġbru tit
obb y
ĠbenÃ¤m nd
ĠArm Ã©
Ġposition er
Ġspecialis erade
Ġriksd aler
I N
Ã¶ na
Ġm osa
Ġb itar
sk jÃ¶ld
ĠG rÃ¤n
Ġland sbygd
ĠÃ¶pp nas
Ġsamarbet ar
ĠbenÃ¤m ndes
Ġleg enden
ĠskÃ¤r m
kamm are
ĠCoun cil
k terna
Ġb ark
ĠDen nis
Ġkl ost
18 80
Ġsex uell
ĠfÃ¶res l
Ġpot atis
Ġrekor det
s u
st ark
ĠD ander
Ġut Ã¥t
Ġans pel
Ġuniversitet en
ĠvÃ¤xt delar
Ã« s
Ġtorp et
ĠMcC art
n ie
Ġp aket
ĠS ac
ĠS nor
Ġst apel
ĠV ari
Ġih Ã¥g
ĠRa in
Ġsymbol iserar
Ġsadelt ak
Ġst Ã¶t
ĠT Ã¤by
ĠSt ol
âĢ ²
Ġlj udet
ymnas ium
ĠstÃ¤nd iga
Ġastronom iska
h in
t jÃ¤nst
ĠF ul
ĠT rump
ĠY u
Ġperson ligt
Ġbeg Ã¥tt
ĠslÃ¤kt skap
sav tal
Ġrekomm end
effekt en
f rek
r ars
Ã¶ teborg
ag es
ĠP ern
ĠV egas
ev ik
Ġ17 30
sb eg
sfÃ¶r fatt
fin al
ĠÃ¶versatt s
ĠAust in
f og
g Ã¤st
j Ã¶t
k ore
tt emberg
ro x
Ġe ll
ĠK ub
ĠSt al
Ġ17 67
Ġ17 62
18 77
sv iken
Ġvis or
ĠslÃ¤pp as
vÃ¤x ling
osition er
Ġresul terar
ĠvÃ¤lk Ã¤nd
ĠColumb us
Ġmyn ning
Ġfrek vens
Ġfund ament
ĠH ertig
Ġbet es
Ġperson erna
Ġbeskriv as
ĠGiuse ppe
r ering
ĠH B
ĠH ack
ĠN Ã¤ss
ĠAl ternat
ĠFl ott
Ġch oklad
ĠinvÃ¥ nar
nÃ¤m nd
Ġvars in
ĠNation ella
ĠSu ff
Ġhertig dÃ¶met
ĠHot ell
ĠDre am
ĠBraun schweig
W e
h man
l ak
ĠK ling
ĠW ick
ĠW ald
ĠW ies
sp rin
ĠAl g
vÃ¤r det
Ġakt Ã¶rer
end s
ĠtÃ¤vling arna
Ġockup ation
Ġteoret isk
ĠNet work
ĠL itteratur
ĠSt ation
bl Ã¥s
Ġof ull
Ġbef all
ash i
ĠMc K
ĠspÃ¥r et
Ġluft vÃ¤rns
po Ã¤ng
Ġrapporter ades
ĠMaur itz
st Ã¶t
st rÃ¤ng
al ie
ĠE ker
Ġan onym
ĠW ir
Ġhon a
Ġsy daf
Ġhus ets
Ġmoder klubb
Ġhot ellet
ĠAnt wer
Ġdat orn
Ġ175 1
flytt ade
ĠHud son
grek iska
Ġf ix
ĠB h
our s
ĠlÃ¤r an
Ġpart iklar
omp anj
s cen
t rakt
ĠH ul
ĠN ob
ĠV et
sp ann
ĠNic olas
ĠofÃ¶r Ã¤nd
ĠOnt ario
A C
is el
ĠP rÃ¤st
ĠG rande
ĠN ova
Ġre ag
Ġkon cern
amp ton
Ġgrav rÃ¶sen
ĠÃ¶gon blick
Ġpublik ationer
Ġradik al
ĠXV I
Ġbrans ch
kandid at
i bb
in rÃ¤tt
ĠA M
ĠM Ã¥
ĠC le
ĠN in
sl ar
Ġspel ningar
Ġdess fÃ¶rinnan
Ġhuvud orten
Ġfy ller
Ġbety da
ĠChrist offer
ĠrÃ¥d ande
Ġresult aten
Ġsid o
bryt ande
ĠfÃ¶rstÃ¥ else
m it
ĠS ka
re de
ĠK iss
ĠL otta
Ġj on
ĠW omen
Ġkomm and
ĠFÃ¶r Ã¤ld
ce des
Ġdelst at
ifier ing
ĠHos pital
ĠKen net
ĠtillkÃ¤nna gav
dor ff
O R
Ġm es
Ġh ung
ĠpÃ¥ v
em ble
Ġsl it
Ġc up
verk ningar
Ġyt or
ering arna
ĠSh ah
ĠjÃ¤m na
ĠmÃ¶ ss
Ġtrum m
ĠlÃ¤mp liga
Ãħ rets
ĠEngel ska
ĠEkonom i
Ġb Ã¤nk
ĠS Ã¥ng
ĠS pl
ĠS ever
ĠL yn
ĠU D
ci um
ĠMon teneg
Ġrepresenter at
ĠkÃ¤ll an
Ġyng ste
Ġmynd igheten
ĠkÃ¤rlek en
slin je
Ġskaff ade
ĠklÃ¤d da
ĠtjÃ¤nstem an
jap anska
Ġa ster
Ġp e
ĠS ony
it Ã¤ra
Ġin stÃ¤llning
os oph
la x
Ġint ogs
ĠhjÃ¤rt at
ĠCro ss
ĠfÃ¶rsÃ¶rj a
Ġintellekt uella
m ilj
Ã ²
Ã ī
el ement
Ġtill trÃ¤de
ĠD iam
ĠA ron
as ch
ĠT iden
ĠJ Ã¶ns
im an
Ġsp egel
ind ian
kom pan
ĠZ en
rukt ionen
ĠEng strÃ¶m
Ġbas erades
ffÃ¤r er
ĠUng arna
ĠuppfÃ¶r da
Ġep is
Ġklimat et
ĠBjÃ¶rk man
ĠTit an
Ġtrium f
y x
Ġav stÃ¥
Ġu p
it ivt
ut u
ĠV apnet
fÃ¶r slag
Ġre server
ĠHo uston
ĠfÃ¶rvalt as
ĠSel ma
ĠfÃ¶resprÃ¥k are
Ġbegravnings platsen
V i
Å Ļ
Ġn itt
Ġst amm
ĠL ing
lig ht
den burg
Ġslut satsen
ĠDÃ¤r utÃ¶ver
Ġnational ekonom
Ġdrag it
Ġkontroller ade
ĠlÃ¤mp ligt
lings Ã¥s
ĠRacing karriÃ¤r
Ġfolkom rÃ¶stning
ĠCaes ar
Ġenz ym
ĠDak ota
Ġh igh
ig o
ĠF r
ĠSt ars
rÃ¤d are
ĠlÃ¤m nas
Ġkar oss
ĠUl t
Ġfur ste
Ġmuse ets
ĠDals land
e berg
Ġ16 70
Ã¶k er
Ġart isten
ĠstÃ¤ll s
smark er
peri od
ĠRost ock
ĠChelse a
L ou
c ens
j ades
Ġav brott
ĠL iga
ĠEfter leden
inn ade
ĠMo on
Ġly fta
Ġprodukt en
ĠBrun ns
ĠSamman lagt
p ot
Ġm Ã¤ster
am Ã¶
ĠI A
ĠlÃ¤g ret
ĠskÃ¥despel erskan
Ġgud ar
Ġavanc erad
ĠfÃ¤ngsl ades
Ġteoret iska
Ġs ling
am an
ĠS tern
ck el
ĠA ston
Ġhan arna
Ġsam fund
Ġefter mid
Ġsy nen
Ġdag ligen
Ġch ock
ĠJan ne
Ġglas bruk
ĠSocial demokrat
ĠHab itatet
Ġlet ar
ĠkrÃ¤ft djur
ĠIsra els
r h
Ġf ira
ag ram
ĠE klund
Ġkonst hantverk
ĠOl iv
ĠBar ry
ĠTur n
ĠMil an
ĠAlb rekt
ĠutgÃ¥ van
strÃ¥ lar
Ġmusikvide o
Ġfi ras
l erna
Ġi l
Ġp aus
Ġvar g
ĠF oss
Ġupp trÃ¤dande
Ġge org
ju kt
flyg ning
188 3
ĠSoll entuna
ĠerhÃ¥ll it
Ġrub rik
k ir
l Ã¤ngd
de landen
Ġm ors
ch es
Ġen heten
ĠR aj
ĠV eck
âĢ ¦
ym ond
Ġmin iat
sfÃ¶r hÃ¥ll
ĠkÃ¶r t
rep ublik
ĠHus by
ĠDaniel sson
ĠdÃ¶r rar
Ġtjock a
ĠSimp sons
Ġkvartsf inal
i om
kt orn
dom stol
Ġtur ism
ĠmÃ¤rk e
Ġtolk ningar
Ġprim Ã¤ra
ĠDahl berg
ĠfÃ¶ljeslag are
f ond
s varande
Ġo Ã¤nd
Ġb io
ĠS au
Ġsk ugg
ĠI de
Ã¤nd are
Ġkon d
ass er
ĠEric son
ĠgÃ¤st spel
ĠBorg Ã¥
O K
Ġo h
Ġsv Ã¥ger
se y
Ġim port
Ġproblem en
Ġorsak as
Ġprote iner
ĠMet oden
ĠGran t
ĠSomm ar
Ġbearbet ning
Ġrytt are
ĠWy oming
ĠFlem ing
Ġasp ekter
ĠLiss abon
. ),
g ry
m ore
ĠT int
ĠE sc
omrÃ¥ des
Ġkomm en
ĠDe ath
Ġ17 68
ong ress
Ġmet af
ĠMich ail
Ġkopp lade
film erna
ĠgrÃ¥ brun
gu ay
Ġir lÃ¤ndsk
ĠfÃ¶rkort at
ĠUg anda
ĠHÃ¤rj edalen
f Ã¶nster
Ġu ll
Ġl arv
ĠT oll
ic i
ĠSk iv
Ġland svÃ¤gen
ater ar
ĠlÃ¤r os
Ġtal es
ĠnÃ¤m nde
ĠIng emar
ĠrÃ¤d sla
ĠS ierra
ran gel
Ġsamarbet at
ĠTur in
ĠOlof sson
Ã¤nk ande
ĠTit eln
Ġbegravnings plats
ĠTrollhÃ¤tt an
s Ã¤songen
ĠS R
ĠA kademi
ĠE rich
ĠP un
ĠC ons
ĠN athan
Ġupp slag
ĠanvÃ¤nd andet
ĠFran c
ĠfÃ¶rl ades
Ġsomm artid
ĠspÃ¥r vÃ¤g
ĠArm Ã©ns
ĠdÃ¶r r
Ġtviv el
Ġjournal ister
Ġrunin skrifter
l ans
ĠS ahl
Ġn jur
ĠpÃ¥ tryck
ĠF Ã¶da
Ġmot satt
Ġ16 30
ĠfÃ¶rsamling arna
Ġstyr et
Ġ175 9
ĠMont real
Ġork est
ĠhÃ¤ls o
Ġtjeck iska
Ġstridsv agnar
antik var
ĠfÃ¶dels edag
Ġorn ament
an jer
ĠL amb
ĠC ourt
ĠÃ¶ ga
ĠV itter
fl y
ob bet
Ġflyg el
ĠmÃ¶r da
Ġkoll aps
Ġbank er
pan el
ĠProdu ktionen
Ġelektron isk
Ġsupp leant
Ġstorhet stid
ĠE arl
ĠP elle
ĠV apen
Ġbel ast
ald i
Ġorganis erades
ĠSa udi
ĠgenomfÃ¶r s
Ġnational ekonomi
ĠMet all
Ġskild rade
arab ien
km ok
an as
Ġb Ã¶ter
ĠD isk
ĠH uvudet
Ã¥r igt
ĠR ym
ĠÃħ lands
ĠfÃ¶rst or
its ch
end ent
ĠIng mar
ĠBro thers
Ġbeseg rat
ĠWar ren
ĠOx enstierna
Ġpor tal
ĠMem orial
Ġham na
c re
Ġde k
ĠL Ã¤k
rÃ¤ t
ic y
jÃ¤r net
Ã¤k i
sv apen
ah a
ĠÃ¥t gÃ¤rd
Ġlag man
sf Ã¥g
sf artyg
Ġflyg ande
Ġkvar lev
ĠhÃ¥ll it
Ġbritt iskt
ĠskÃ¥despel arna
stol pe
Ġkropp ar
Ġupplev elser
cha ft
ĠSoph ia
g ripande
at l
Ġav v
Ġav fall
ĠS Ã¥l
Ġin ta
ĠB oden
ĠL ise
ĠV og
sp ris
Ġar a
Ġsv al
ĠvÃ¤l fÃ¤rd
ach e
ĠOr gel
Ġned gÃ¥ng
ever ket
Ġgrev innan
Ġtunnel bana
Ġextrem iteter
Ġkritis erats
ĠGard ie
ĠGÃ¤st rik
k ung
ar ien
ĠfÃ¶r hopp
um pen
ĠNord ir
komm ittÃ©n
Ġ24 0
ĠtÃ¤ck ta
ĠjÃ¤mfÃ¶r as
ĠRep ublik
Ġbran t
ĠbrÃ¶llop et
Ġschweiz isk
n isk
n ia
Ġm ental
Ġg et
ap a
amilj en
Ġinneh ar
ĠÃ¶versÃ¤tt ningen
Ġlek sak
ĠSun e
ietn ames
ĠInspel ningen
ĠMongol iet
Ġd ol
Ġg evÃ¤r
ĠM P
ri pt
stÃ¤ll t
Ġmusik alen
our g
Ġtillverk at
Ġsym p
ĠMer cedes
Ġgat orna
inkl usive
Ġ Ø§ÙĦ
Ġo xid
Ġk orp
Ġp ant
Ġp yram
Ġl ydde
Ġn ationen
ĠE ster
Ġut lÃ¥
ĠfÃ¶rs edda
Ġans Ã¶kte
splan en
ĠMur ray
illverk ning
Ġserver as
Ġbj Ã¶d
Ġomval des
ĠvÃ¤lgÃ¶r enhet
sakade mi
Ġtort yr
A N
l ika
l Ã¤pp
Ġm it
sb and
Ġ16 90
iet z
ach s
ĠsÃ¤tt as
Ġtal et
ĠSc ot
Ġeffekt iva
ĠLud vika
ĠMusik hÃ¶gskolan
klubb ar
Ġbrev et
Ġvinter tid
ĠNi els
Ġkanadens isk
ĠSpring field
Ġgrov t
Ġhuvudroll erna
ĠGon z
s gruppen
Ġm ad
ĠD est
Ġsk inn
ĠK ock
ĠC u
Ġspel tid
Ġ17 34
ĠFÃ¶r valt
Ġvattendrag s
tor net
Ġhot et
histor ien
ĠÃī cole
ladd ning
Ġdistribut ion
Ġsannolik het
g Ã¥s
u ger
Ġo sman
el ia
Ġvar elser
ut on
Ġr Ã¶j
ĠdÃ¶d sfall
ĠSp ir
Ġhus ar
ĠAB C
ĠFor est
Ġkontin ent
Ġregl eras
Ġinvand rare
ĠAlexand ria
ĠfÃ¶ref aller
ĠmedhjÃ¤lp are
t akt
ã ģ
Ġv Ã¤sen
Ġp ack
ĠO reg
ĠÃħ berg
Ġreg ister
Ġ9 7
yl on
Ġfot ografi
Ġbo ktryck
ĠbelÃ¤g ring
Ġne ur
ĠupprÃ¤tt a
ĠlÃ¶ fte
p syk
t rafiken
t okoll
Ñ ı
in ka
at her
Ġin komster
em s
ĠK ok
ĠG ryt
Ġsp Ã¤r
ug or
Ġgl ans
fÃ¶rfatt aren
ĠBelg rad
ĠsjÃ¤lvbi ografi
Ġpromover ades
b isk
ĠA ld
ci Ã³n
Ġorganis erad
ĠPro fess
Ġjur y
Ġkors ningen
Ġvitt nar
Ġv amp
ĠA utom
ad ers
ĠK ill
ĠK opp
ĠG ur
Ġol ik
ĠsjÃ¶ ss
ĠMon aco
ĠSe attle
Ġanal yt
Ġdon ation
Ġantik ens
Ġgeograf iskt
bour ne
Ġbronsmed alj
ĠEngelb rekt
amÃ¶ terna
Ġm ast
Ġp a
ĠD eger
ĠA lingsÃ¥s
ĠB ev
fÃ¶r mÃ¥ga
Ã¤tt nings
Ġskol orna
Ã¨ ge
ĠLu is
Ġmekan isk
ĠWin ter
f tt
Ġs Ã¤nka
Ġo klar
Ġh ugg
ĠF itz
rÃ¤ det
ĠBl o
Ġnord liga
Ġkraft en
ĠEd mund
ĠHer o
ĠRef orm
Ġdat eras
ĠhÃ¤rst ammade
Ġprivileg ier
Ã©b ec
ĠfÃ¶rnÃ¤m sta
Ung ern
ĠAma zon
ĠArmen ien
m Ã¶nster
Ġa ller
ĠS ag
Ġg repp
ĠH ak
ĠM and
sp Ã¤r
Ġreg imen
ĠAd vent
ĠHistor y
ĠNord ens
ĠTid ig
Ġbetrakt ade
Ġrestaur erades
ĠMary land
Ã¤nsl a
ĠDor ot
ĠKungs holmen
Ġti bet
i eg
al isk
Ġtill sattes
Ġin offic
ĠB Ã©
is mer
Ġom d
ns dag
ran k
Ġ17 42
ĠCh annel
Ġprofess ors
ĠfÃ¤rd as
ĠVas as
ĠBu ch
ĠÃ¥ng est
Ġsan ningen
ĠfÃ¶rg Ã¤ves
papp er
l se
ĠD amm
ĠD ynam
ĠE ken
ĠG ad
stÃ¤ll de
kl Ã¤der
Ġlit urg
ĠPh oen
Ġkandid ater
ĠstÃ¤ng a
Ġdon erade
Ġkry p
ĠTeg nÃ©r
Ġtilltal snamn
Ġs undet
ĠP opp
ĠP rop
Ġre vision
op a
Ġ17 10
18 71
ian ce
ĠpremiÃ¤r ministern
ĠfÃ¶rt ryck
Ġ175 7
ĠvÃ¤rde full
Ġpark ering
Ġelektron iska
Ġastron omi
ĠÃĦld re
ĠÃ¥terh Ã¤mt
A L
S K
ot or
Ġing Ã¥ngen
ĠvÃ¤r sta
ĠfÃ¶rb ruk
ĠPol is
ĠSÃ¶der hamn
Ġavslut ande
sted ts
ĠLor en
ĠLuc as
ĠskÃ¶n litter
Ġkolleg a
ĠLan ka
b un
y sen
el op
Ġg ig
Ġn yt
ĠD ru
ĠSt and
eg ovina
ic um
ĠW ing
rÃ¤tt a
ang a
rum s
Ã¤rk else
ĠfÃ¶rl Ã¤
ĠkÃ¶p ingar
ĠHe idel
Ġkust artilleri
Ġinspir erat
ĠbelÃ¤g ringen
Ġanord nade
ĠHarris on
blomm iga
v at
ing el
re w
ĠF arm
ĠK och
ĠC rist
ĠÃ¥r ens
18 72
min nen
Ġad junkt
ĠLiv regementets
Ġnoggran n
ĠJÃ¶r gen
Ġortn amn
ĠgrÃ¶ns aker
Ġfol kt
Ġs ab
att net
Ġg uden
ĠD allas
ĠK Ã¤rn
ĠG av
Ġfl am
sb acka
18 76
vers ioner
le det
Ġ20 20
ĠInd iska
Ġgra ven
Ġreligi Ã¶st
Ã¤nkt a
ĠfÃ¶rlag a
gift en
Ġtenniss pelare
ĠBolog na
Ġm o
Ġd iss
Ġp igment
Ġg ris
id ar
ĠO ak
ĠW el
Ġuppg rader
ĠAnt oine
Ġlever ant
Ġbibliotek arie
Ġute bl
ĠPitt sburg
l ish
Ġo regel
Ġst Ã¤d
ĠhÃ¶g stad
Ġpopul Ã¤rk
ĠBo e
Ġgrev skapet
ĠTex t
Ġhier ark
Ġm idsomm
al ternat
ro skop
ĠM ut
ag ning
ĠK ings
ĠV Ã¤t
yr or
ic z
im on
ant rop
Ã¶l en
Ġkung ligt
ĠKarl skoga
Ġreger ade
Ġgod t
Ġfri mur
201 9
Ġflott ans
Ġbekost nad
w i
Ġo ver
ĠD od
ĠF lag
ĠK art
ĠFÃ¶r samling
sb Ã¤cken
kon en
ĠvÃ¤l kom
ĠBerg lund
ĠRes er
ĠlÃ¥nghus ets
Ġutse endet
Ġsloven ska
ĠNorrt Ã¤lje
ĠK las
ni us
Ġdom ar
ĠsÃ¥l ts
ĠFre e
ĠLouis iana
Ġambass aden
Ġprest ig
c ock
s ol
s edan
u in
Ġsk Ã¶r
ĠSt ru
ĠY e
sÃ¤tt as
app ar
ĠMedel pad
Ġbev isa
Ġrit a
Ġsyn lig
Ġbos Ã¤ttning
Ġbilder na
Ġmun nen
ĠintrÃ¤ff ar
ĠSjÃ¶g ren
f adern
o sta
ĠL O
Ġbl Ã¤ck
Ġupp byggnad
ĠÃĸster malm
stid ning
ĠRa ymond
ĠGra y
ĠstÃ¤m mer
Ġmyt ologin
ĠIB M
ĠKai ro
ĠSigism und
ĠAlab ama
d ad
i ri
t itel
Ġk asta
ĠfÃ¶r draget
ĠU le
os om
Ġpro stitu
Ġmot stÃ¥ndet
kl Ã¤dda
Ġskick lighet
ĠPh ill
ĠVÃ¤st gÃ¶ta
Ġflick an
ĠÃ¶verlÃ¤m nades
Ġjung fru
l ie
Ġa gen
Ġn it
ĠM odellen
ĠT and
Ġupp vakt
Ġupp sÃ¤ttningar
skap are
pro fessor
Ġvidare utveck
Ġstats vetenskap
Ġbetrakt ar
ĠAg net
Ġfas ader
Ġill eg
Ġarranger ar
fartyg et
Ġnaz istiska
Ġarkit ekterna
ĠRaf ael
Ġsk rot
ek e
Ġmot verka
Ġkan ton
Ġriks rÃ¥d
ĠupptÃ¤ck ten
mat chen
ĠuppmÃ¤rk sam
ĠId Ã©n
ĠtillÃ¥t na
univers itet
Ġtuberkul os
c up
g ow
n ationen
Ġf a
Ġb ass
Ġut lopp
ĠG r
ĠN ina
ĠNor sk
amm aren
Ġspeci alist
ĠfÃ¶rÃ¤nd ra
Ġne uro
Ġskulpt Ã¶ren
Ġhind u
Ġvak nar
s im
ĠfÃ¶rs e
fl er
ni ers
ĠKarl stads
qu et
Ġnord amerikanska
Ġkraft verk
ĠjÃ¤rn Ã¥lder
Ġvetenskap en
kont roll
Ġanord nas
ĠRiks dagen
ĠSystem atik
ĠrÃ¶nt gen
Ġf rÃ¥gar
ent ial
ĠAl v
Ġnamn Ã¤nd
Ġel imin
Ġval da
ĠvÃ¤l bevar
Ġtv illing
Ġge ologiska
Ġlyck a
ĠEx per
Ġsek ret
ĠAustral iens
ĠArm y
Ġfyll t
deb att
Ġunderteck nade
ĠWay ne
Ġmarg inal
ssn itt
ĠML B
k os
Ġv ok
ĠL ex
ĠfÃ¶d de
Ġstud enten
Ġskriv its
ĠfÃ¶rekom sten
ĠkÃ¤nneteck en
b aden
Ġl ott
ĠStor y
Ġallt jÃ¤mt
Ġgener alen
ĠSl am
ĠAnt i
uden ter
Ġdri cka
ĠÃ¤l skare
Ġgodk Ã¤nde
smark naden
ĠRon neby
Ġparall ell
ĠVit ryssland
Ġlug n
ĠvÃ¤s entligt
n Ã¶
s Ã¤kring
v allen
ar as
Ġt Ã¥l
Ġe mer
ĠC ant
ĠN iss
ĠO t
Ġliv s
Ġmark er
ĠBl ood
ĠjÃ¤rnvÃ¤g ar
Ġoper ationer
Ġelekt rom
Ġun ikt
ĠMal in
ĠmÃ¶rd ad
Ġlock a
ĠB am
ĠB udd
ĠP ut
Ġfram trÃ¤der
gen eral
Ġbr ors
Ã¤t es
bo ende
ĠslÃ¤pp ts
Ġvit aktig
rets en
Ġhistorik ern
ĠWe imar
Ġsch ool
ĠCat herine
ifik at
exempel vis
ĠSanti ago
f em
et he
st orget
sk od
Ġg ivet
Ġin sam
ĠM ult
Ġut sl
Ġsl Ã¤t
Ġpl atta
Ġbef rukt
ĠEd gar
Ġtredje plats
Ġetabl erat
Ġamb ul
ĠtillrÃ¤ck lig
ĠfÃ¶red rog
ĠGh ana
ĠLau ra
b ard
Ġv int
ĠfÃ¶r drag
Ġst yrkan
ĠT rek
des ig
Ġdel at
sl ott
Ġgru vor
ĠBer oende
ĠThe ater
ĠEurop am
ĠNord strÃ¶m
ĠlÃ¤k ar
Ġrysk e
ĠAnn ika
Ġlist ar
Ġminist Ã¤r
best Ã¤m
ĠfjÃ¤der drÃ¤kt
ĠkÃ¶nsmog na
n ell
ĠT ell
sp orten
ĠTh omp
ĠOr le
Ġunders Ã¶kte
Ġpsyk iska
Ġkompl ett
ĠFÃ¶rsvar ets
I K
k iska
el is
ra p
ĠF our
ĠV ent
ĠV atik
Ġsl akt
ann ade
sm Ã¤stare
Ġint rÃ¤de
ĠAm alia
ĠstÃ¶d jer
Ġsett s
ĠGun illa
Ġrym de
Ġkolon ierna
Ġgodk Ã¤nnande
ĠdÃ¶ ma
klock an
ĠFalken berg
Ġfyl ke
A nd
s eri
ĠB jÃ¤r
ĠK amb
Ġut rustad
ĠC ort
Ġj et
ĠTill verk
Ġfot o
Ġtegel bruk
Ġuppn Ã¥tt
Ġgill ar
Ġdistrik ts
m ott
id d
ĠD anske
Ġfl ex
Ġsin ness
ger i
ĠMar co
Ġrik edom
Ġrep orter
bygg are
ĠlÃ¤r overket
Ġfall it
Ġutnyttj ade
b re
st opp
ro c
ĠN ut
Ġkrit iken
iam i
ho ven
heim er
Ġpolitik ern
ĠnÃ¶dvÃ¤nd ig
bost ad
ĠstrÃ¤ van
Ġs Ã¶nerna
in ister
Ġl Ã¤ck
ĠV era
um mi
Ġsp jut
Ġ16 58
ĠIn st
sch aft
Ġtillf reds
ĠrÃ¤k nade
Ġim provis
ĠMat chen
ĠâĢ ¢
Ġexpl oder
Ñģ Ðº
Ġbyt en
ĠTanz ania
et eten
at ers
Ġd os
Ġl ill
ĠL uke
ant es
Ġgru s
ott i
Ġkl Ã¤dd
ĠAn im
ĠGe er
ĠAd ri
15 0
ĠjÃ¤m stÃ¤lld
ĠÃ¶n skar
ĠfÃ¶rÃ¤nd rats
ĠtÃ¤ck a
Ġass y
oth y
Ġmatemat iker
ĠSing eln
Ġib n
ĠOreg on
Ġi g
Ġd uk
ad ress
ĠP GA
ĠR ah
ist ens
ist rat
ator isk
ekter a
Ġherr gÃ¥rden
Ġide ell
Ġsal u
ĠFÃ¥g el
ĠdÃ¶ds straff
Ġinvest eringar
p r
ska b
ul er
18 70
sn ed
Ġrel ativ
ix on
Ġter g
ĠfrÃ¥g ade
Ġher ald
Ġgran skning
Ġfinans iera
ĠVan ligen
ĠFa ust
Ġrekonst ru
ĠMalays ia
h os
ri ss
ĠI st
ĠAl ma
ĠHe ad
Ġmag iska
ĠLik nande
Ġsocialdemokrat erna
ĠfÃ¶rvÃ¤nt as
Ġdin osauri
Ġlabor ator
Ġsolo album
ĠSchles ien
ĠHÃ¤ss le
Î »
am man
Ġg nagare
Ġr and
Ġled nings
Ġform ell
Ġer hÃ¥lla
Ġra cer
ĠPro te
ĠBar bro
ĠKat rine
ĠAugust us
Ġrid d
ĠKe ith
ĠIS O
Ġalb anska
evangel iet
l id
l ia
Ã¶ var
ing o
skol orna
ĠfÃ¶rst od
Ġ22 0
Ġbeslut at
Ġaf ro
Ġvari ationer
Ġfokus era
ĠHit lers
Ġmedvet et
ĠskÃ¶ld padd
ĠsÃ¶m n
ĠTess in
in komst
ĠM ap
ĠI owa
18 69
vÃ¤r me
Ġfor ns
Ġskiv kontrakt
Ġutveckling s
Ġutom jord
Ġerk Ã¤nner
âĤ ģ
ebo ok
ĠOla us
ĠRoll ing
Ġodling sbygd
E P
b bl
Ġs fÃ¤r
Ġb anden
ĠM ust
Ġut valda
un en
Ġfl oderna
Ġbruk s
vÃ¤x lande
ĠdÃ¶r ren
Ðµ Ð²
Ġuppn Ã¥dde
Ġsocialdemokrat isk
dÃ¶ men
ĠDemokrat iska
hytt an
ĠMadagask ar
ĠAntwer pen
m elod
ĠS era
ĠD ow
ĠÃ¤r ft
Ġtid ningens
Ġgrund ande
Ġreg ga
kan al
Ġz on
Ġprodukt ioner
Ġkontakt en
splan er
ĠGÃ¶r vÃ¤l
Ġlist as
Ġkritis erades
Ġandel en
ĠRoos ev
ĠPj Ã¤sen
z ar
Ä ±
Ġf ost
Ġg rop
ĠT rum
Ġut fÃ¶rande
ĠU FC
erk e
ĠÃ¥ter kommer
ĠstÃ¶r ningar
ĠSch en
Ġbif l
ĠÃĸster botten
Ġrev y
Ġ23 0
ĠMatt hew
mode ller
j ag
m ingham
Ã¤ de
on del
ĠL ap
ĠG atan
Ã¤g e
ram p
ĠW enner
18 79
iz z
Ġsak nades
Ġseg ment
ĠÃ¥terv Ã¤nt
Ġfung erande
Ġod lade
Ġskild ras
Ġanfall a
ĠCap it
Ġlevnad ssÃ¤tt
ĠRel igion
v arna
Ġt oler
Ġav sak
ik ar
ĠG Ã¥
Ġunder k
olog ical
ste orin
ĠkÃ¶p er
Ġchef s
Ġsnabb aste
rÃ¶r elsens
Ġinf ektion
ĠCent rala
samm are
exik on
ĠSlov akien
R e
u ktion
sk ivan
ĠL oth
ĠC irk
Ã¤ll or
Ã¥l en
ĠDe but
18 66
Ġur s
Ġkyrk o
ĠTh is
ĠAng ola
Ġtryck t
ĠJo el
Ġprivat personer
ĠupphÃ¶r t
ĠKa ukas
ĠfÃ¶ delsen
Ġmol n
Ġbevilj ades
Ġkated ral
I ng
j ak
Ġl od
em y
ari as
vin kel
ĠBerg s
Ġass essor
Ġhyll ning
ĠStÃ¶r sta
ĠMast ers
o ud
t d
t ol
Ġk eyboard
ĠS ande
ĠE isen
Ġsam lare
jor na
ĠFran co
ich er
ĠlÃ¤n et
Ġuppskatt ades
Ġjakt en
Ġtung t
ĠÃ¤rkebiskop en
Ġglob alt
ĠEver t
Ġfal ska
ĠPac ific
Ġhip hop
t rÃ¥d
Ġs Ã¤nktes
at al
am iral
ĠB uss
komm ittÃ©
Ġbas eb
ĠBo et
ĠFÃ¤r j
Ġbryt s
ĠNorm and
B U
R S
e hÃ¶r
Ø ¯
de kor
Ġl an
ĠD riv
ĠN K
ats on
Ġsl Ã¥s
sl Ã¤tt
Ġsp Ã¤d
Ġkl Ã¤cks
min ne
arriÃ¤r en
ĠslÃ¤pp s
ĠgenomfÃ¶r as
Ġ175 2
Ġstruktur er
rÃ¤der i
stÃ¤der na
Ġmotiver ingen
ĠKennet h
r Ã¶da
ĠL ef
ĠV ind
av ik
Ġfl or
Ġ17 47
ron om
ĠÃĸ ste
sv Ã¥rd
Ġlag ring
ĠlÃ¤r ling
ĠPol isen
ĠuppfÃ¶r as
ĠstjÃ¤rn orna
ĠvÃ¤rd shus
Ġkast ade
Ġgraf iska
Ġdyg net
Ġfinansier ing
Ġkomment arer
undersÃ¶k ning
Ġpropag anda
N ord
Ġf under
Ġsk vad
Ġsk andal
ĠL abor
ĠU SS
ber Ã¤k
Ġny upp
vis ningar
18 65
Ġhuvud serien
reter aren
ĠpÃ¥verk ades
ĠmÃ¶jlig gjorde
ĠHolm berg
Ġ175 4
Ġytt rande
reserv atet
Ã¥rs dag
ĠrÃ¶ sten
Ġopin ion
ĠNyn Ã¤
ĠPittsburg h
b idrag
tt e
ĠT iger
Ġkomm enter
Ġ17 61
stÃ¤ll en
Ġrad ios
Ġskri bent
ningarna s
Ġfull a
ĠVar bergs
Ġfakt a
ĠBre sl
Ġupplev a
Ġos Ã¤ker
arkitekt ur
ĠArb oga
Ġdyl ikt
gry te
Ġb inder
al om
Ġin samling
ĠD ion
ĠH Ã¤ger
18 63
sv ill
ĠFl o
Ġklubb arna
giv ningen
ĠQu Ã©bec
ĠbegrÃ¤ns as
Ġsand sten
ĠAlm qvist
Ġsu ver
Ġt ig
Ġg rym
Ġst ro
em ed
ĠL ow
ĠP eng
Ġan slag
ĠG rÃ¶na
ĠSt am
bl adets
Ġsm yck
Ġmark erar
met od
Ġprofess orn
Ġsak kunnig
Ġstyr ande
ĠgenomfÃ¶r t
ĠtrÃ¤ff as
ĠMarc el
ĠvÃ¤nt an
fÃ¶rl it
g y
l arnas
ĠB us
ĠK itt
Ġupp fÃ¶rande
Ġor m
vet et
Ġbeskriv it
anc y
ĠuppfÃ¶r ts
Ġmatemat iken
Ġrevolution Ã¤ra
Ġager ade
ĠÃ¥terfÃ¶ren ades
Ol of
ĠosÃ¤k ert
Ġfyrk ant
ĠOrle ans
k ott
s skola
Ġf et
sk Ã¥p
ĠB au
Ġsk Ã¶rd
ist s
Ġmen ingen
sl okaler
kl Ã¤dd
Ġ16 48
Ã¶k ning
Ġdem on
Ġplan eter
Ã¤kt enskap
Ġnum ret
ĠPro cess
ĠjÃ¤m nt
Ġhamn at
Ġklock or
ĠmÃ¶rk brun
ingsl ivet
Ġtorp ed
ĠMoh am
Ġhuvudperson en
sprocess en
N C
m ission
Ġs akta
Ġf ib
Ġt ruppen
Ġin Ã¥t
jÃ¤r v
ta h
Ġpost umt
Ġsub jekt
Ġbotten vÃ¥ningen
Ġdiskuter a
ĠmissnÃ¶j e
? "
C ar
Ġl ur
es vig
av an
Ġunder ord
ĠvÃ¤r t
dom are
Ġstuder ar
port rÃ¤tt
ument et
ĠhÃ¥rd are
ĠMid d
Ġinfanter iet
ĠTob ias
j ust
Ġ á
in is
Ġt jur
Ġd jÃ¤v
Ġp ens
Ġl ider
ĠV ed
Ġupp byggd
eg enskap
skap en
Ġverk lig
Ã¤k terna
sa y
sf ir
ĠfÃ¶rl Ã¤n
Ġrel ationen
ĠOl ga
ĠChrist oph
Ġinspir erades
Ġep ok
Ġbotan iska
t rar
ĠM erk
ĠG y
ick e
ĠÃ¶ver huvud
Ġsl Ã¶ts
ic es
ĠAn ka
ĠÃ¤g arna
Ã¤gen het
ĠBerg slag
ĠutfÃ¶r as
Ġmon ster
ĠSe a
Ġdy nast
Ġkam era
ĠEv ans
smÃ¤ss igt
Ġvikingat iden
Ġf r
Ġk ulle
es ia
ĠL unde
Ġett a
sp ett
ĠAr ke
Ġ11 5
ĠNord ic
ĠFredrik s
Ġproduc erad
ĠBir d
ĠÃ¥terupp togs
ĠÃ¶verg repp
Ġmatemat iska
Ġkast ar
ĠAtl anta
ĠDis co
fon den
Ġaltar et
ĠÃĦktenskap et
Ġt of
ĠS alm
ĠH ohen
es iska
Ġom vÃ¤rlden
ĠU m
est illhÃ¶righet
Ġ17 48
Ã¥t gÃ¤rder
Ġlj usk
Ġjordbruk smark
ĠSyd ost
ĠBak om
Ġmeddel ande
ĠVan ligtvis
ĠMatt i
ĠdÃ¶p te
b ed
j eb
Ġs anna
on is
ĠS vÃ¤rd
ĠH ier
ri pp
Ġan k
ĠG and
Ġsig ill
ier re
tid ningen
rav et
ĠBl ix
Ġmor far
Ġenhet lig
ĠJÃ¤rnvÃ¤g ar
kre is
Ġrac ing
ĠS ek
ĠH as
ĠE ck
ur st
ev ille
Ġ17 18
Ġ17 43
18 74
ĠSk ulpt
ansk t
Ġ9 4
ĠSam fundet
Ã¶v ning
ĠBur ns
bryt ning
ĠTall inn
ĠWalk er
Ġstens Ã¤ttningar
ĠGÃ¶tt ingen
Å Ł
el ey
ĠF i
ĠT ag
ri es
Ġut sÃ¤tts
iv al
ĠU ni
ekt en
ron g
18 68
ĠIn vest
ansk rit
ĠLe ijon
ĠGe ijer
Ġkomp aniet
ĠpÃ¥verk at
ĠfÃ¶rvalt ningen
ĠrÃ¤ck er
Ġkommunist partiet
Ġavdel ningar
slÃ¤g et
ĠLop ez
ĠBrist ol
st ats
at ed
Ġin hopp
Ġsp er
Ġ17 46
Ġbest raff
ĠAl c
yl er
Ġkraft full
Ġinled ningen
Ġdelst ater
ĠGro ss
ĠfÃ¶restÃ¤ll ning
Ġpark er
ĠfÃ¶rlÃ¤ng de
smat ch
Ġlyss na
Ġpel are
ĠCru z
al us
re am
Ġin sjuk
ĠB enn
ĠP app
ĠG om
Ġfil t
cent ralen
Ġfolk bok
Ġorgan iska
Ġtex terna
Ġhopp ades
eff ekter
Ġutform ningen
sid ig
ĠfÃ¶rber eda
ĠJust in
ĠÃ¥terf ick
Ġmusikal isk
ĠBoll nÃ¤s
ĠKos ovo
ĠHun ter
Ġoperativ system
st aten
ĠB rÃ¥
ĠB usiness
iv o
ĠSt org
ier i
jÃ¤r den
Ġsvensk an
upp roret
Ġton Ã¥r
Ġsyft a
Ġsign aler
Ġintill iggande
skomp ani
Ġb rister
Ġl i
ver i
sb efolk
Ġdag ars
Ġch ass
ĠhjÃ¤l pt
ĠSh a
Ġsym met
Ġpolis er
ĠGar den
Ġerk Ã¤nna
ĠKaz ak
Ġsound track
ch an
Ġd ivisioner
ĠS ay
ĠD ia
ĠA zerbajd
ĠP eri
Ġc igar
Ġmark erade
ĠOr m
ĠnÃ¤rm ade
Ġskydd ar
Ġfys iker
Ġkapten en
Ġhind rade
Ġske de
ĠrÃ¤ck vidd
stan bul
ĠSchles wig
Ġarren der
osf at
ĠJama ica
ag i
ĠR ach
ĠR Ã¥s
ĠmÃ¥l aren
Ġind ikerar
ĠAd olph
Ġbi roll
ĠÃ¥lder n
out ube
ĠkÃ¤r nan
ĠFal u
ĠgrÃ¤ ver
ĠGar y
Ġuttal as
ĠÃĸsters unds
ĠMann en
ĠatmosfÃ¤r en
Ġkas ern
u en
ĠD og
ĠD uv
ĠP y
Ġbar s
Ġter mer
ĠfÃ¤rg erna
ĠFlyg vapnets
rel aterade
Ġanklag elser
Ġjurist examen
Ġstrateg i
ĠSlÃ¤kt estillhÃ¶righet
ĠAllmÃ¤n t
Ġhyd raul
ĠvÃ¤rder ingar
i ernas
an v
an tal
Ġk rut
Ġp ann
ĠfÃ¶r as
Ġl ax
Ġmed aljer
ĠM iami
ĠE cu
ĠK Ã¶
Ġupp sv
Ġj uden
Ġbland ad
ĠDel ta
ĠLund qvist
Ġpsyk ologiska
ĠlÃ¤s are
Ġkonstitut ionen
Ġanat om
Ġlar ver
ĠSerg ej
ar Ã¶
Ġf oder
st ipendium
ing a
Ġp end
ng el
ĠM ellersta
em enter
Ġupp kommer
os hi
Ġ17 64
verk stad
ass istent
ĠZ h
ĠBir mingham
ĠnÃ¤t verket
Ġlandst ig
Ġevent uell
Ġintellig ens
ĠPhoen ix
j t
Ġp ollen
ĠD ala
ĠA ga
Ġom vÃ¤xlande
skap ande
Ġfri sk
tag na
Ġroll erna
Ġren od
ĠVal et
ĠbekrÃ¤ft ades
ĠberÃ¤k nades
Ġstrateg iska
ĠfÃ¶rflytt ades
ĠTrell eborg
O N
V A
ill en
Ġl iga
il es
ĠK inn
fÃ¶r st
um man
ĠÃ¶ver sta
du bb
ĠSp anska
Ġrep et
Ġbeg er
Ġpar terna
Ġteck nad
ĠMet ropolit
Ġmisslyck ats
Ġ170 9
ĠKnut sson
Ġavb Ã¶j
ĠpÃ¥stÃ¥ s
Ġkontrovers iella
Ġhell re
ĠH att
ber ts
ast Ã¥ende
Ġing rediens
Ġval s
ĠlÃ¥ng varig
ĠsmÃ¥ orter
ĠBro w
Ġbek ym
ĠEk sjÃ¶
Ġgud arna
ĠJes per
ĠfÃ¶rbund skapten
ĠinbÃ¶rde skrig
S c
Ġm arina
Ġm Ã¤rket
ĠR oh
ĠAl e
tid a
ĠslÃ¤pp er
Ġklass iker
Ġlever erade
Ġport en
ĠFri a
Ġcentral ort
Ġarke olog
ĠfÃ¶rf al
re a
ĠB om
Ġsk oll
fÃ¶r e
Ġkon cernen
ung ar
Ġsv ansl
ĠÃ¤g nat
Ġrelig ioner
ĠtrÃ¤n ade
ĠvÃ¥ld sam
ĠArm stron
industri ella
Ġelektron ik
ĠÃ¶verl Ã¤t
plex et
ĠglÃ¤d je
el f
ru c
Ã¤n nas
lin s
ĠFl ora
ĠX III
ĠUnivers al
ĠHam mer
Ġident isk
fer ence
tekn iska
ĠUtveck lingen
Ġosk yld
ĠBerÃ¤tt elsen
Ġi ron
ĠS Ã£o
Ġvar igenom
ĠT as
ĠN ott
iv i
ĠV iss
Ġbland at
drag na
rek ordet
ĠAng er
ĠfÃ¥ng st
ĠhÃ¤v da
Ġkoloni al
ĠLÃ¤n svÃ¤g
lÃ¤ng e
ĠDig ital
Ġkommen terade
d ivision
m yr
st eck
Ġupp fÃ¶d
Ġupp lever
Ġskap ande
ĠÃĸster rikes
Ġfyll de
Ġstam banan
Ġnaz isterna
Ġgivit s
ĠFÃ¶rsvars maktens
ĠÃ¶verra skande
Ġvattendrags yta
h ust
r ations
re cept
id ig
ĠK it
Ġfram kom
if a
ĠAl onso
ĠvÃ¤x ell
Ġbeteck na
Ġtest amentet
ĠAir lines
Ġbiograf en
ĠLilj e
Ġsupp ort
ĠGlas gow
ĠoerhÃ¶r t
Ġd rÃ¤n
ĠM iner
ĠR ace
Ã¤g t
op en
he a
Ġber gar
ĠmÃ¥l at
Ġart iller
ĠCo ok
ĠframfÃ¶r a
Ġhot as
Ġorsak at
Ġutred a
Ġtitt ar
Ġauktor itet
ĠPala ce
P osten
Ġg est
od ynam
ĠY tt
unkt ioner
ĠÃĸst gÃ¶ta
ĠaffÃ¤r en
ĠÃĸr gryte
Ġtrum mis
ĠThomp son
H e
Ġk abel
ĠP all
ĠC lara
ell es
ĠÃ¶ver lÃ¤gs
vÃ¤g s
Ġfem ma
Ġpar ter
ĠEx pl
ĠBr yn
Ġdansk arna
ĠSankt a
hard t
Ġfokus erade
ĠavslÃ¶j ades
mÃ¤ss iga
Ġmid dag
Ġkos m
E FA
ĠM is
ĠL td
Ġny Ã¥r
ĠtvÃ¥ Ã¥rskontrakt
ron ic
Ġ16 20
Ġ16 97
Ġverk en
Ġmark is
Ġfolk mun
Ġbarn barn
yl ten
ĠSh aw
ĠPro ject
Ġdo ft
Ġtving a
ĠdÃ¶m d
ĠJean ne
Ġprins essa
Ġpil grim
ĠFors berg
Ġisol erade
Ġavvik ande
F o
b rev
s Ã¤llskapet
ĠÃ¶ver satta
ĠO ran
ĠO vans
ok l
Ġel den
ide ikomm
Ġansvar iga
ĠLar ry
ĠHolm es
kast ning
Ġkav alleriet
Ġtele skop
c rona
ĠS lag
re ma
and ras
Ġn unn
ĠF ont
ĠC art
ĠN ow
Ġart illeriet
Ġrad hus
Ġmilit Ã¤rk
Ġregiss erat
Ġprinci pen
Ġsovjet isk
Ġuttal ande
ĠKap ten
ĠBrook lyn
robot ar
Ġst iger
ĠT rÃ¤dgÃ¥rd
ĠG aller
Ġkomm ender
ĠCh em
ob serv
Ġkrig en
Ġpass ion
Ġby ns
Ġkem ist
Ġskild ringar
ĠstÃ¤ng de
ĠhÃ¤mt ades
ĠÃ¶vertyg ad
Ġstim ul
ĠfÃ¶rverk lig
Ġpendel tÃ¥g
Ġfolkskoll Ã¤rare
ĠBresl au
o ir
Ġm Ã¶d
Ġk upp
Ġtill stÃ¥ndet
ĠM ul
ĠL ist
ĠR ak
pt on
ĠFin al
Ġkvinn ans
Ġbyggnad ens
Ġjag as
Ġbetrakt a
ĠdÃ¶m de
Ġuppf anns
Ġmanus et
ĠFrÃ¶ lunda
apt iste
Ġslutgilt iga
v art
Ġt arm
Ġtill var
ĠE ber
ĠR ij
fÃ¶r ingen
ĠÃ¶ver hÃ¶g
Ġ17 23
Ġstor stads
alv Ã¶n
Ġob eb
Ġrikt ningen
sc y
ĠFor skning
Ġuttryck t
konst ruktion
ĠLu igi
Ġmisst Ã¤nk
Ġutform ad
Ġanpass ad
Ġbran ta
ĠPerson er
Ġdiff er
G er
a ven
sk ultur
ĠfÃ¶r ort
Ġut pek
ĠÃ ©
Ġar vs
he it
ry p
reg ion
Ġborg mÃ¤staren
Ġregion alt
ĠfÃ¶reg Ã¥ngaren
ĠgÃ¤r ning
ĠmÃ¤kt iga
hanter ing
y nastin
Ï ĥ
om o
il ey
and ers
ĠM ind
ĠM Ã¸
ĠB rott
ĠF ut
ast ad
Ġar mar
Ġpl Ã¥g
ĠAr till
yn det
stem per
Ġfolk liga
ĠNord sjÃ¶n
ĠrÃ¶r liga
ĠgÃ¥ vor
ĠstrÃ¤ck or
ĠRa ven
ĠMatt h
Ġpresenter ar
ĠPlan et
ĠÃ¥terkom sten
Ġteat rar
hab ilit
Ġ q
Ġs utt
st rÃ¶
Ġv ib
ĠK Ã¥
av Ã¤g
Ġkan ter
Ġ16 75
Ã¤nn Ã¤s
Ġhand ikapp
Ġverksam t
bel Ã¶n
ĠfaststÃ¤ll a
ĠnÃ¤bb en
speri oden
Ġrank ades
Ġveget ation
ĠBened ic
B ar
m jÃ¶l
Ġk la
na c
ĠD oc
em ens
Ġom rÃ¶stning
ĠO ct
ne ys
Ġ17 45
Ġw e
Ġack ompanj
ĠfÃ¤rg ade
ĠBjÃ¶r ne
sjÃ¶ Ã¥n
ĠKat e
Ġkolon is
ĠJul ie
Ġkart an
ĠBru ket
Ġpension ering
ĠFern ando
Ġrefer erar
Î µ
re ppen
Ġtill god
ĠH jul
ĠM usk
ĠM ira
ist ret
ĠÃ¶ ms
Ġsam fundet
ĠO ss
rat ern
ant in
ab ol
Ġval ut
ach Ã©
ĠAlex andra
Ã¥k kÃ¥
ĠPre miÃ¤r
driv na
ĠFÃ¶rfatt aren
ĠfÃ¤ltt Ã¥get
ĠrenÃ¤ss ansen
ĠElect ric
Ġtend ens
Ġprestig ef
h avs
Â »
Ġs agor
id iska
ĠM G
Ġut slÃ¤pp
ĠL ukas
art z
ĠÃ¥r skurs
ok o
ari an
Ġutg Ã¥ngen
ĠlÃ¥ng sikt
Ġ10 8
Ġbel agt
ĠKal ix
ate atern
ĠPo ul
ĠslÃ¤tt bygd
ĠarbetslÃ¶s het
Don ald
r Ã¶der
Ġv ax
Ġg aller
it lar
Ġex am
ĠHon da
ograf ier
Ġfem tio
Ġlyck ade
ĠBo bby
ĠbÃ¤st e
Ġmun kar
ĠTechn ology
ĠBerna d
s Ã¥r
at u
Ġa sk
Ġst Ã¶ter
Ġj obbet
del ningar
ne bo
ĠW rangel
ĠW atson
Ġc ont
sb ruk
Ġmat lag
ay e
sg raden
Ġdra st
ĠVÃ¤st europa
Ġang rep
Ġna kna
Ġjag a
Ġanim erade
Ġvic egu
ĠUle Ã¥
j andet
ch ts
ĠfÃ¶r nu
ver ser
ort odoxa
Ġro ad
alist en
ct ions
ĠkÃ¤n sliga
ĠRik ard
Ġab ort
Ġdri cks
Ã¥k ra
Ġsub t
Ã¤rkt a
Ġfrivill igt
ĠSec ret
ĠdÃ¥tid a
bag gar
Ġgrott or
Ġjustiti eminister
Ġockuper ades
ĠPiet ro
% .
f iske
p unk
v Ã¥r
ĠL ass
fÃ¶r delningen
Ġj arl
um ber
ĠÃ¶ver lÃ¤gsen
ff en
Ġsp Ã¤nning
18 73
18 67
Ġbet rÃ¤ffande
ob y
hÃ¥ll s
Ġfort et
ĠÃ¥t fÃ¶lj
Ġkultur historiska
Ã¤rd heter
ĠÃ¥terupp tog
stall et
Ġakadem isk
ĠfÃ¶rsvars omrÃ¥de
Ġest niska
ĠfullstÃ¤nd iga
Ġtransporter a
Ġentrepren Ã¶r
ĠTrop hy
Ġs ulf
ĠF lin
ĠN ors
ĠJ enn
ier at
ĠhÃ¶g ste
ĠStor e
oner ande
Ġrikt ar
ĠkÃ¤n ns
stid ens
ĠSo ul
fen an
Ġpri orit
ĠNordir land
T e
Ġf er
ig ade
Ġtill fÃ¶rdes
art ister
Ġc ap
res an
ĠBl ock
Ġkrig are
Ġpass agerar
ĠRad ios
ĠGi ro
skont oret
ĠvÃ¤ck a
Ġfastighet s
Ġmateri el
Ġskade stÃ¥nd
Ġinbj ud
I P
d ra
ar erna
st orm
sk ansl
ĠS ud
ĠS old
Ġsk Ã¶ter
ĠT ong
ĠP ack
ĠP sy
ĠG ast
ĠÃ¶ del
Ġgenom gripande
Ġarbet smarknad
ĠAl k
sv Ã¤sendet
Ġval uta
Ġhov rÃ¤tts
ĠAlf ons
ĠVan or
Ġindivid uellt
Ġriv a
ĠSong s
Ġmarin en
officer are
ĠbeslÃ¤kt ade
L P
d Ã©
Ġi fall
Ġa kademin
ĠF oster
Ġsk rid
ĠK uri
ĠL eks
ĠP rog
Ġled da
min ster
ib i
ĠTur ner
Ġfriher rin
ĠIngenjÃ¶r svetenskapsakademien
ĠMississ ippi
kompan iet
ĠSaudi arabien
l ess
Ġm oment
Ġk na
ĠSt iern
sl Ã¤r
sm ak
ĠPer cy
ĠfÃ¶rÃ¤nd rade
ĠMont rÃ©
ĠÃ¶verg ripande
Ġauktor iteter
ĠRym d
ĠHeidel berg
Ġ ×
ĠfÃ¶r ank
ĠfÃ¶r vÃ¤g
al ys
ĠH eb
ĠpÃ¥ stÃ¥r
ĠK ore
ĠP lac
ĠR ib
Ġupp komst
ang s
Ġmin a
Ġint rig
ĠSch ult
gÃ¥rd s
ĠÃ¶v nings
Ġsammans att
skon ferens
pol is
Ġutspel as
bÃ¥g e
Ġreferens er
n ivÃ¥n
at um
Ġa ppar
Ġd run
Ġd Ã¤mp
Ġg ry
ĠM it
ĠO tta
Ã¤nd ning
Ġgen us
akt ligen
sb ek
ĠÃ¥ter speg
Ġvatten byggnad
rÃ¤n sa
Ġbild ande
Ġlag a
bo y
iz e
Ġam ir
ĠfÃ¶retag sledare
Ã¦ us
Ġtryck a
ĠstÃ¥nd punkt
Ġbeh Ã¤rsk
Ġobl ast
H C
k Ã¤lla
v orna
ell ing
Ġsp ont
Ġ17 33
Ġliv ets
Ġmark nader
komm issionen
Ġmon opol
Ġstads rÃ¤ttigheter
ĠBon niers
Ġacc eler
ĠtrÃ¤dgÃ¥rd s
rang emang
Ġfj Ã¤drar
ĠtillÃ¥ ta
ĠsmÃ¤r re
Ġf ron
at ib
Ġt Ã¶m
ĠÃħ re
ĠAr terna
ater ats
Ġ12 8
ĠSh eff
ĠPro fessor
Ġmiss hand
Ġbek anta
ĠAt las
ĠBur ma
Ġkatol iker
ĠkrÃ¤ va
ĠfÃ¶rbundet s
platt or
Ġmyst iska
Ġreport age
ĠUru guay
ĠBoe ing
w o
Ġh u
ĠH ind
ag ua
ri fter
ĠV or
ĠO g
Ġstad skÃ¤r
ĠZ o
old ing
ĠHuvud delen
ĠMars e
Ġork estern
Ġomvand las
vÃ¤gg ar
Ġrektangul Ã¤rt
d ale
Ġu dde
Ġmusik ern
Ġdikt samlingen
ĠPo int
ĠprÃ¤g lade
ĠTest amentet
Ġtje j
ĠClev eland
ig ny
Ġn on
as j
ĠL od
eg ren
Ã¤m ningen
Ġtid ningarna
Ġsp rang
ĠLe h
ĠRo x
Ġhalv bror
Ġvapen huset
Ġexpand erade
ĠEc onom
j ken
l iber
o ider
s debut
Ġh yra
Ġb Ã¤ck
sk id
ĠD S
ĠH Ã¶k
ag aren
ĠI stanbul
ĠC IA
Ġupp ger
eb us
ĠfÃ¶rst nÃ¤mnda
fin ans
Ġprovin ser
Ġflygplan en
ĠsÃ¶k ande
Ġuppkall at
sjuk hus
Ġmelod ier
Ġnormal backen
ĠAtlant ic
slÃ¤kt et
acht meister
ĠMonteneg ro
p op
al ken
Ġst ul
ĠAv snittet
Ġliv lig
yl Ã¤
ĠNation als
Ġtor ka
Ġmass med
ital ien
Ġuppf ann
Ġslav iska
ĠhÃ¤m nas
Ġbotan ik
ĠtillÃ¥t else
Ġkvartsf inalen
cast le
ĠLoren zo
e on
k ling
z jan
ĠT ab
ĠK ak
Ġut kast
ĠL ion
ĠP otter
cent ret
Ġbil arna
Ġkvinn o
for man
Ġvi ol
ĠkÃ¤ll orna
ĠLar sen
ben et
ĠjÃ¤mfÃ¶r a
Ġkonstrukt ioner
Ġkompon erades
Ġkorru ption
ĠH Ã¼
og ne
ĠhÃ¶g skolor
Ġ13 5
ĠQ ing
Ġprodukt iv
Ġ175 3
ĠstÃ¤m mor
Ġkapell mÃ¤stare
Ġavb rÃ¶t
operat iva
Ġcirk us
m Ã¤sterskapen
Ġu bÃ¥t
ĠS D
es on
ĠR inner
ent i
ĠJ ena
of er
Ġliv sstil
Ã¤rk es
Ġlik vÃ¤l
Ġtv ist
Ġrec ension
ĠMi y
Ġsur re
ĠPont us
Ġiaktt ag
Ġk elt
sk rit
ĠT eck
ĠT rip
Ġut vin
var s
var an
ste ins
lighet ens
sled ningen
Ġrepublik anska
Ġsutt it
h itt
m Ã¤sterskapet
Ġg re
sta f
ster n
he id
sb or
sj uka
Ġmark era
Ġgl id
Ġgro va
vand ring
Ġuppen bart
Ġtillbak ad
infl ammation
sprodu kter
ĠHamp shire
Ġlid ande
ĠGib son
Ġtecknings lÃ¤rare
e handa
n ot
et abl
ss prÃ¥k
Ġsk ans
Ġbas ist
ĠhÃ¶j des
kv art
Ġcy linder
Ġstuden terna
ĠRas mus
ĠJup iter
a cks
Ġf Ã¤der
Ġf Ã¶tterna
Ġa kademi
ĠD ubb
ĠP lut
Ġc ollege
ec tor
Ġfast Ã¤n
Ġz u
liv ade
Ġundervis a
Ġerk Ã¤nd
ĠfÃ¶rmÃ¥g or
Ġavbryt a
ĠstÃ¤llfÃ¶ret rÃ¤dande
ĠanmÃ¤rk nings
b Ã¤cks
Ñ ĭ
ĠS jÃ¶n
ĠD omen
ri o
ĠL un
Ġhem ligt
ĠEl is
upp lag
ĠrÃ¤tt visa
ĠKÃ¶p ing
ĠLill Ã¥n
ĠAnn ie
fÃ¥g eln
ĠfÃ¶rel ig
ĠgÃ¶m mer
Ġdop f
Ġhantverk are
Ġsubstant iellt
ĠGÃ¤strik land
ĠÃĸste uropa
w w
ĠfÃ¶r vÃ¥
Ġg iven
Ġupp s
stÃ¤ll ande
18 61
Ġ10 2
Ġ10 7
bol agen
ĠrÃ¤k nat
Ġfred sfÃ¶r
ĠfÃ¶ren ades
Ġuttal at
ĠHÃ¶ gan
Ġaut od
Ġkoppar stick
Ġstudieres a
ĠavgrÃ¤ns as
fÃ¶rÃ¤nd ringar
l Ã¥tar
s omrÃ¥den
en heter
ĠT ch
ĠE ls
ri j
Ġbl ogg
Ġex ek
stad ion
Ġrik aste
Ġ10 9
olleg iet
Ġass oci
Ġparall ella
Ġkongress valet
ĠColl ins
Ġbyt es
sfri het
ĠÃ¥rhundrade t
ĠfÃ¶ranled de
s grupp
Ġf ark
st org
st artade
ĠF est
ĠC es
av et
Ġdel tÃ¤vling
ĠW ess
Ġ10 4
Ġflyg eln
Ġtillverk nings
ĠBak er
Ġsvar a
figur er
Ġstre jk
Ġkolleg or
ĠPu erto
d ur
g ie
h ans
m are
s ex
Ġst illa
ss oci
Ġkan ten
Ġsp arken
ĠÃ¤n de
Ġvis ion
Ġflytt ats
Ġuttryck er
ĠNorth ern
ĠLenn on
Ġkomed i
Ġdim ension
Ġmorm or
Ġorienter ing
Ġalfa betet
ĠOrig inal
ĠArmstron g
b Ã¥gen
Ġo rÃ¤tt
ĠM ant
ĠI ris
Ġan lag
Ġhan gar
ĠG la
ĠV es
ak nings
ĠÃ ¾
Ġbild ning
ĠstÃ¤ll as
ĠOl ov
ĠKn ow
Ġskrift stÃ¤llare
Ġstam men
Ġrest rikt
ĠSouth ern
ĠfÃ¶rf Ã¤der
Ġprat a
Ġbatalj on
ĠbÃ¥ts man
c la
t as
Ġs ati
st ipend
om at
Ġd iv
Ġp ung
ĠfÃ¶r aren
ag Ã¥ng
ĠP am
ĠW ad
ĠW oll
Ġ17 44
Ġ17 49
alt h
kon sten
sf rÃ¥gan
arbet ena
old s
ĠKung ariket
Ġbyggnad sminne
ĠKan adas
Ġz ur
Ġindivid erna
tekn iker
fen ben
ĠMilj Ã¶p
ĠSkill naden
ĠSheff ield
b orn
f ark
y u
Ġp itch
ĠA P
ĠA ck
ag ens
ĠB rÃ¶
ĠB ug
es is
ĠC ell
est Ã¥ndare
pel et
Ġ16 45
sm al
Ġvatten ytan
ĠY ale
ĠDon au
ĠJul ian
Ġdekor ativa
Ġret ir
Ġkonstru erades
Ġegendom ar
Ġlivstid s
Ġlabor atorium
rax is
ĠSuff olk
m oni
er ia
Ġf Ã¶l
Ġv accin
Ġg o
Ã¤n kar
Ã¤nd an
Ġgenom gÃ¥r
Ġstor skal
Ġland skamp
Ġ6 50
hÃ¥ll aren
ĠlÃ¤r da
Ġtekn ologi
Ġfatt ade
ĠtrÃ¤n aren
Ġkoll is
ĠfÃ¶rkort ning
Ġutk anten
Ġspring a
ĠKatal onien
Ġminiat yr
A P
n r
s Ã¥g
Ġf Ã¶tt
ĠS ver
te p
ka pp
ug gan
Ġsm ugg
ĠNe ver
ĠHistor iskt
Ġrel ev
Ġrikt ningar
ny o
arlament et
Ġdelst ats
Ġregel bundna
ĠBor lÃ¤nge
Ġtitel rollen
ĠstÃ¤m ma
isch es
Ġstaf ett
Ġlan tern
Ġb rÃ¤d
ill on
ol et
ĠB ridge
is et
Ġre sen
man us
ov ic
ĠtjÃ¤n are
ric t
ĠBr Ã¼
dem ars
Ġkejs arens
ĠMad ame
Ã¶jtn anten
ĠSig ne
lay er
ĠvÃ¤rd ighet
Ġpoj ken
Ġvinn ande
Ġtrapp a
Ġvic ek
Ġskogsb ruk
Ġud da
R C
d atorer
l Ã¤d
l uft
Ġb of
Ġst um
ĠG unn
te fter
ans varig
ĠAn ita
lÃ¶ ste
ĠNe u
Ġ11 2
ĠVÃ¤st indien
Ġver b
Ġkost naderna
Ġtidig ast
Ġindel at
Ġislam iska
ĠRiks dag
Ġbelg isk
c ourt
Ġp avilj
ĠA D
ĠB ess
Ġan ge
fÃ¶r as
Ġre vis
rik iska
sm odell
Ġslut en
fl ikten
Ġel fte
mat cher
Ġborg are
jen ko
Ġfung erat
Ġinform ationen
mÃ¤r kt
Ġep ide
St ock
ĠSjÃ¶ fart
Ġtem por
ĠEmil ia
ĠinkÃ¶p tes
ĠÄ Į
ĠMoz art
Ġvent il
Ġo tal
ia e
Ã¤ck t
Ġad ulta
ĠnÃ¤m nd
Ġkompl ement
ĠgrÃ¤ns erna
sbygg nader
ningss Ã¤tt
ĠfÃ¶rekom st
Ġarab isk
ĠSoll efteÃ¥
at om
Ġt yr
ĠfÃ¶r ena
ro k
ĠB rid
Ã¤ll an
Ġkon v
ug nar
Ġny klass
yd det
ĠIn itiat
Ġart ens
ĠhjÃ¤l t
Ġgrav itation
Ġbiograf er
Ġlyr ik
U F
sk ollegium
Ġde utsch
Ġn obel
Ġst rÃ¶
ĠB Ã¤r
ĠE kel
ĠL ane
eri el
ĠvÃ¤rld sp
ĠfÃ¶rfatt ning
ĠRo sk
ĠRom s
Ġhalv Ã¥r
ĠMet ro
Ġfigur en
atÃ¶r erna
ĠhÃ¤mt at
ĠdÃ¶p t
Ġutred ningar
sing el
B l
s ig
Ð ±
ĠP it
Ġupp l
omm aren
sl ista
Ġ17 21
Ġlag ras
Ġform givare
met oder
ĠkÃ¤r l
ĠUl vs
Ġkopp lingar
Ġkonf eder
ĠÃ¥tal ades
Ġuppfost ran
ĠLab our
Ġspring er
ĠOtta wa
a ire
et id
ist ans
ĠO de
ung efÃ¤r
Ġru iner
ĠGu ard
ich ef
Ġmark ant
rikt ning
ec a
ĠInd iens
ĠRom a
ĠfÃ¶rbÃ¤tt ringar
Ã« l
Ġspekt rum
Ġsepar erade
ĠÃ¶vertal a
ĠtillfÃ¥ngat ogs
samman hang
k oll
Ġ 01
ar um
Ġf os
ĠR it
ier as
Ġ17 31
ĠY outube
Ġinneb andy
ĠNe il
ĠOr der
hÃ¤ll en
Ġred o
Ġriksdag svalet
ĠUn o
Ġext rema
Ġuppfatt ades
ĠMat erial
ĠCom ics
Ġpsalm bok
ĠBab y
spolit iken
ĠkÃ¤mp a
ĠfÃ¶reslag its
olley boll
ĠfÃ¶rflut na
N or
Ġf eber
Ġb oj
ol id
ĠN ept
ĠSt ina
18 60
ĠPro vinsen
jut ning
ĠCon ference
ĠHed en
insk ij
Ġsingell istan
j at
n us
sk Ã¥ren
Ġp ed
ĠT egel
Ġut pl
ĠÃ¥ter kall
ĠEfter mÃ¤le
ĠEng lish
stitut et
Ġuttryck a
Ġort ens
Ġupphov sman
Ġhundrat al
DA P
Ġt rott
Ġv Ã¤
sk Ã¶r
att ning
ik ki
ĠH Ã¥ll
ĠR ygg
ens burg
Ġfin t
Ġc ement
Ġsp orten
ĠEn kÃ¶ping
ess ion
sv Ã¤xter
ĠkÃ¶p man
ĠHe dem
ĠMont g
Ġensk ilt
ĠgÃ¤r nings
Ġkrets en
ĠArkitekt ur
Ġtriv s
ĠTau be
Ġling vist
ĠfÃ¶resl Ã¥r
s Ã¤song
att rakt
el ig
ĠB las
ĠÃ¥ nyo
ann on
ĠIn re
ĠÃ¤g nar
Ġind o
ĠMet al
Ġgods Ã¤gare
ĠKont rakt
ĠjÃ¤rnvÃ¤gsst ationen
ĠmisstÃ¤nkt a
ĠSÃ¶d erk
Ġkonsum tion
ĠShang hai
ĠMitch ell
Ġbaseb oll
c raft
Ġde porter
Ġen dem
Ġg reven
ĠF ed
ĠC ad
Ġgenom slag
ĠEl vis
Ġakt uell
ĠLund strÃ¶m
Ġnational rom
amb ia
ĠtvÃ¤r s
illverk are
Ġhyr de
Ġarrang era
Ġavdel nings
Î¿ ÏĤ
Ġbibl iska
ĠOrch estra
c ore
h ip
Ġa kvar
sk ades
ĠfÃ¶r ts
ra ck
Ġsk ikt
Ġsk Ã¤gg
ĠE arth
fÃ¶r stÃ¥nd
ĠhÃ¶ ns
ĠFÃ¶r lag
ĠvÃ¤g arna
ĠHer m
bil en
ĠSal zburg
ĠLÃ¥ng tjÃ¤rnen
ĠRas m
Ġglob al
inspel ning
R oy
p oj
ar terna
Ġd Ã¶v
il m
id as
ĠA ber
ĠB ald
ent s
Ã¤l te
ĠÃ¶ver allt
ĠnÃ¤r ingslivet
Ġ17 39
verk ade
ond o
Ġra st
Ġtro ende
Ġim mig
ĠVÃ¤ster vik
ĠMa ine
ĠAb u
Ġorganisation ens
Ġfyll d
Ġkulture llt
ĠutgÃ¥ vor
ĠMann er
Ġdemonst ration
ĠfÃ¶relÃ¤s are
mÃ¤t are
lich e
Ġviolin ist
Ġgross handlaren
Ġautod idakt
d r
f ix
on as
al p
Ġde sp
il ius
ĠK id
ĠV ikten
Ġman ip
Ġor nit
ĠCh allen
ĠÃ¥ter stÃ¤lla
Ġstat ist
Ġprofess uren
ĠgÃ¥rd ens
ĠvÃ¤st vÃ¤rlden
ĠArt ens
Ġsilver medalj
Ġbotan iker
prÃ¤ st
isto ire
ĠHÃ¤rnÃ¶s ands
Ġinvad erade
stjÃ¤rn or
ĠVÃ¤rn amo
Ġ å
Ġb jÃ¶rn
al jÃ¶r
ĠK vin
ĠdÃ¤r om
Ġsl Ã¶jd
org en
ĠIn formation
amp en
vÃ¤l det
Ġbol sj
Ġinspel nings
ĠfÃ¶rlag d
kont roller
smed lem
Ġnamng avs
halt en
Ġsjun ker
3 00
s ydlig
Ġa min
ĠS ed
Ġtill byggnad
ĠH ers
est rÃ¶m
ĠO ll
sp Ã¥ng
im il
ĠfÃ¶rl oss
rol et
ĠVetenskap s
Ġsiff rorna
fÃ¶rbin delser
Ġautonom a
ĠParall ellt
j Ã¤g
an lÃ¤ggningen
ar veckan
ĠM au
ĠT io
ĠL amm
fÃ¶r andet
Ġsig natur
sl Ã¶jd
Ġgru van
Ġsm yg
ĠhÃ¤r sk
ĠSp e
Ġart on
van a
Ã¥d or
Ġsn Ã¤ck
ĠframgÃ¥ng arna
ĠĠĠĠ Ġ
Ġbos Ã¤ttningar
ĠJo an
ĠTer ry
Ġkost ym
ĠerÃ¶v ring
Ġpr Ã¤r
Ġmedlemsst ater
om ak
ĠS Ã¥g
it ekter
Ġsk ept
ĠT rygg
ĠK la
Ġr ingar
Ġandra s
ĠHistor ien
Ġrom ansk
ĠBe a
jÃ¶ ns
Ġlever era
Ġang av
ĠtrÃ¤ff at
Ġban brytande
bru nt
ĠMel bourne
Ġstab schef
ĠutmÃ¤rk er
Ġflit ig
Ġolj emÃ¥l
bur ger
Ġtrumm isen
M art
Ġf inger
or iska
Ġk rÃ¤n
Ġtill fÃ¶rlit
ro ppen
ĠF uru
Ġsk ratt
ĠW ang
Ġgrund aren
fl u
ĠfÃ¶rsÃ¶k en
Ġlin jerna
ĠKan alen
ĠDem oc
Ġtom ter
ĠavslÃ¶j a
ĠDrottning gatan
ĠkÃ¤mp ar
Ġnarkot ika
ch ens
ĠD ire
Ġst uga
ĠG rad
ĠC annes
ĠW as
ĠW etter
sl iknande
sp rÃ¤ng
im i
ass a
Ġord entligt
ĠÃĦ nd
Ġmon terades
Ġdikt samling
ĠsÃ¤ ter
Ġoffens iv
Ġkalen dern
i ak
m ade
n ut
v alen
om Ã¥l
Ġh jort
Ġh ygien
ĠS ik
Ġvar andras
ĠÃ¶ fver
os am
yr elsen
olog ier
med icin
Ġ10 3
ĠSl Ã¶jd
ĠjÃ¤rnvÃ¤g s
ĠVal ent
tex ten
styr elsens
ĠOff ice
Ġkrimin ella
ĠRi bb
ĠtÃ¤nk ande
ĠVÃ¤ sby
u rus
Ġb ett
ng atan
ru bb
un ion
vÃ¥ ld
Ġny f
sm usik
ĠAl ess
Ġflyg ning
her ren
Ġfilosof en
ai os
rip a
Ġbevar ande
Ġann ons
G e
O L
d da
h Ã¤v
s ilver
u il
an ol
Ġf ors
ĠS ill
Ġfl ask
sh el
ac iteten
ĠfÃ¶rst Ã¥s
Ġfar liga
Ġuppt agen
Ġbort om
Ġtysk ar
imm ars
Ġdemokrat ernas
distrikt et
Ġunderl Ã¤kare
Ġadministrat ivt
ĠfÃ¤ngsl ad
b Ã¶ckerna
p ekt
de tal
Ġf ideikomm
Ã¶r ns
Ġl ot
Ġg alleri
ĠN ancy
ĠU s
eg ram
Ġ17 38
iz of
ĠAm anda
stid ningen
Ġtving ats
ĠVer mont
Ġvitt nen
wer in
Ġanlit ade
Ġgarn is
Ġfi ol
Ġspeg lar
Ġlo var
st Ã¥n
ĠH jÃ¤r
ĠH imm
ĠF rom
ĠE f
ĠN Ã¤m
op ed
Ġsp Ã¶k
Ġ16 76
Ġ10 6
Ġkung sgÃ¥rd
ator iskt
Ġuppt rÃ¤tt
Ġinled a
Ġtag g
Ġgran ne
ly ft
ĠStad steater
kla h
bes Ã¶k
onn yn
Ġfikt iv
ĠPot sdam
Ġabsor ber
l ung
Ġk risen
al ier
ĠL ike
ĠG yl
fÃ¶r laget
ĠJ ournalist
Ġ16 42
fl Ã¶det
kan aler
Ġsprid s
ĠPe ople
Ġkrav et
ĠÃ¶verlev nad
Ġir rit
Ġpredik ant
Ġts aren
ĠMontrÃ© al
' ll
c irk
m Ã¤lt
Ġs ev
ĠM ode
Ġut Ã¶ka
og in
Ã¤l sa
Ġgen rer
Ġc l
Ġflytt en
ĠKl oster
ĠRo bb
co unt
Ġpsyk olog
Ġhed ra
ĠmÃ¶jlig gÃ¶ra
Ġrym ma
ĠvÃ¤xt lighet
ĠHÃ¥ kon
Ġkammar musik
Ġkulture ll
Ġinrikes minister
ĠClem ens
ĠFland ern
h art
Ï Ģ
Ġan skaff
Ġom byggnaden
ĠW achtmeister
Ġar ena
Ġbe skatt
Ġbes vik
ĠNe um
Ġflyg vapen
omb ud
ĠÐ Ĳ
ĠRec ord
bryt are
bes lÃ¤kt
fÃ¶rsvar et
Ġholl Ã¤nd
ĠRyd berg
ĠGÃ¤ll ivare
ĠpÃ¥tryck ningar
s yd
w al
Ġav satt
ĠH och
ĠE C
ĠC S
ĠV Ã¥
ĠdÃ¶d at
Ġsen ats
Ġ16 86
rit oriet
ator y
ĠtrÃ¤ det
Ġmedel stor
Ġuniversitet sl
ilit Ã¤r
Ġreger ingar
Ġbas isten
sst at
Ġjur yn
ĠWest minster
ĠStan is
fur st
Ġbrig aden
vÃ¤gg arna
Ġskil des
Ġbesitt ning
Ġdekoration smÃ¥l
ĠNormand ie
m Ã¥g
s il
ĠE del
ĠK lem
ev e
Ġ16 89
ĠÃ¥ter tog
18 64
18 58
Ġpol ar
ĠkonstnÃ¤r erna
ĠEk eby
ĠDal arnas
Ġrisk erar
Ġvol ont
ĠTy res
ĠÃ¶verfÃ¶r a
ĠDrag on
Ġomtyck t
sskild ringar
Ġkomprom iss
4 00
Ã¤ ppen
in aler
id ningar
ĠR agn
Ġfolk mÃ¤ngden
ĠlÃ¤n k
Ġtro vÃ¤rd
Ġrom anska
Ġuts Ã¶nd
ĠLin ux
amb a
ĠhÃ¶jd punkt
Ġstudent kÃ¥r
Ġh inner
ĠB ren
ĠL omb
ĠP on
iv ning
ĠSt rat
ĠO ve
ma in
ĠEn erg
Ġ16 44
Ġfot s
ipp er
olit iska
ĠLand kreis
Ġskydd as
ĠAugust e
ĠKro ppen
Ġsats ning
Ġinner stad
ĠfÃ¶rsÃ¶rj de
result atet
ĠMade le
ĠMalt a
Ġmexik anska
c op
om ys
ĠfÃ¶r teckning
Ġl am
ĠA sch
ĠB otten
Ġut skottet
ĠR ex
ĠN edan
Ġmot satta
Ġgrund serien
Ġmat en
ĠUpp tÃ¤ck
musik album
Ġturn Ã©er
ĠbegrÃ¤ns ningar
Ġapp lik
ĠGlob e
Ġdispon ent
ĠTrell eborgs
ĠÃ¤lsk arinna
Ġcens ur
A M
l orna
u ppen
v eget
Ġt raf
ĠH yp
ĠI v
ĠG ef
ĠO klah
sp Ã¥ret
Ġskol gÃ¥ng
Ġsn arl
Ġsamling arna
Ġbrott et
Ġtyd ligare
ĠGott fried
Ġtransporter as
Ġsmekn amn
Ġgerman ska
ĠArist otel
B e
h astigheten
Ġv elat
Ġb itter
Ġk uri
ĠS Ã¶l
ĠD ata
ĠF ader
ĠL ima
ĠV and
Ġsig nat
ĠAll iance
ĠrÃ¶r els
Ġstads hus
ĠFÃ¤r gen
Ġattack erade
Ġinflu erad
ĠjÃ¤tt estjÃ¤rna
ĠAth let
ĠMoto GP
ĠNicol ai
ĠRoosev elt
izof ren
p ire
ar ra
Ġk Ã¥ren
ĠM ull
Ġsk olk
Ġsk ugga
ok u
ap ten
Ġned lagda
ĠLund in
Ġuppt ar
Ġengel ske
Ġbeskriv ningar
ĠBro s
ĠPre uss
Ġuppgifter na
Ġradi ok
ĠInt ress
fir man
skans ler
Ġpatri ark
Ġstatsk upp
ĠVÃ¤ners borg
E x
b Ã¤rare
g Ã¤ld
m usk
Ġd alen
Ġin faller
ĠpÃ¥ fÃ¶ljande
ĠT ap
ĠN agu
ĠU tah
ĠÃħ by
Ġkl ot
yd ande
Ġbes att
ĠsÃ¤ker stÃ¤lla
Ġab sid
Ġuppf innare
Ġkombin erade
annol ikt
Ġinitiat ivet
ĠlÃ¶p ande
Ġbostads omrÃ¥de
Ġbrygg eri
ĠsjÃ¤lvbi ografiska
Ġflottilj en
Ġbelys ning
Ġvicegu vernÃ¶r
H ol
g ata
l ant
s verksamhet
in ental
re staur
Ġtill gÃ¥ngen
ĠW ho
op ot
sb ev
Ã¶k ande
Ġro s
spel aren
ĠberÃ¤tt at
ĠfÃ¶rlor ad
Ġsing elt
Ġmy ster
Ġregl erar
Ġbilj ett
ĠMaxim ilian
Ġavf yr
ĠFrÃ¤ls nings
H an
k orn
Ä Ľ
Ġm Ã¤rken
Ã¶r des
Ġk afÃ©
Ġg unst
ĠM old
ĠK lar
ĠC amer
ĠR isk
ast ro
ĠY x
oci alistiska
ĠrÃ¤tt vis
ĠX i
ny ter
kur s
Ġbesk ick
Ġdansk t
mask inen
Ġtrum pet
Ġdecenn ierna
ĠKrig svetenskapsakademien
lÃ¤n ningar
Ġbin da
Ġkommend ant
Ġdomkyrk o
" ;
m enten
Ġs Ã¶rj
in spir
ĠfÃ¶r skola
ĠD anny
ĠB etty
ĠT et
ĠK av
ĠC Ã©
ok ia
red skap
ind lar
sv ans
ĠDÃ¤r ifrÃ¥n
Ã¸ n
Ġgrav kor
mÃ¥l ade
kan en
ĠMot orn
ĠRik svÃ¤g
ĠfaststÃ¤ll de
ĠunderhÃ¥ll nings
ĠvÃ¤rldsm Ã¤sterskapen
ĠfÃ¶rvand las
ĠomÃ¶j lig
Ġutsmyck ning
Ġstadsm useum
ĠSah ara
ĠEcu ador
g ades
l im
en o
ne kt
Ġ3 20
Ġ16 34
ĠCh Ã¢
borg en
Ġmin skad
Ġfolk partiet
sn Ã¤t
ĠPer ry
rep resent
Ġmakt Ã¶ver
ĠkÃ¤ll are
mor det
Ġkost naden
ĠupphÃ¶r a
ĠÃ¶r onen
Ġinb eg
Ġdefin itivt
Ġinvand ring
Ġhast igheten
ĠPhilipp e
ĠÃ¶nsk emÃ¥l
ĠTunis ien
antikvar ie
h Ã¥r
â ĪĴ
Ġa sf
el berg
ĠH asse
ro y
ĠM unt
ĠN ebra
Ã¥ng ers
ation al
ĠSk Ã¥
ĠlÃ¥ng sam
ĠPar ma
ĠtjÃ¤n ar
ĠBe i
ĠErik s
Ġmor aliska
Ġarkitekt uren
vet e
Ġsol ok
Ġport rÃ¤tter
Ġkopp lad
cer emon
Ġmisslyck as
ĠRh ode
Ġarg umenter
Ġuppdel at
skytt e
ĠSev illa
Ġomlopp sbana
Ġbysant inska
ĠClass ic
ĠNep al
Ġantisem it
Ġbergar ter
ĠÃ¶ms es
S D
U M
m Ã¶rd
n ick
Ġo rang
it es
ĠF astighet
ĠT og
Ġan teckningar
ak o
ĠÃ¶ver skott
Ġc afÃ©
Ġsp ru
Ġ17 16
Ġ5 000
Ġ15 50
ym f
vÃ¤x ande
sc ens
Ġtor v
ĠMin ne
ĠKap ellet
Ġum gÃ¤ng
pj Ã¤ser
Ġvaria bel
ĠKazak stan
ra in
ĠG rÃ¤nsen
ĠN ak
av y
ek under
Ġex terna
ĠÃ¥ter ta
ĠAv esta
Ġbeg rÃ¤nsa
Ġfall skÃ¤rm
iden ter
ĠPeter s
Ġfisk are
ĠGl en
ĠPat ri
nde z
ssam hÃ¤llet
ĠFac ebook
Ġspor ad
Ġbrasil ianska
Ġdiscipl in
ĠP aj
av snitt
ic as
ĠAl s
rom anen
ĠGen e
Ġob eh
Ġtillverk ats
nor ska
Ġvalkrets en
ĠpopulÃ¤r aste
Ġlags aga
C on
S O
o ot
Ġa er
ĠD iv
ĠT ier
Ġj uv
ci al
du k
Ġfor um
ĠOl sen
Ġmiss ions
Ġkultur historiskt
ĠkÃ¤n s
Ġfotboll sklubb
ĠgrÃ¥ sten
ĠLeon ardo
ĠbestÃ¤ll de
ĠPers ien
Ġinfanteri regementet
Ġpsal mer
ĠMoun tain
ĠSydost asien
ag ent
ĠP syk
ĠG ia
ĠC are
te gel
ut skott
fl Ã¶d
Ġord na
ĠnÃ¥gon stans
Ġklass as
ux na
hjul sd
Ġabsolut a
ĠKle in
Ġvag nen
ĠKum la
ĠHim ala
imb ab
ĠDyl an
I L
t una
v Ã¤sen
id i
Ġhar d
Ã¤m net
riv ileg
Ġsvensk sprÃ¥kiga
orn o
ĠSch l
Ġbak kroppen
Ġutbild ningar
Ġinform ations
ĠjÃ¤mfÃ¶r els
stift elsen
Ġgodk Ã¤nd
ĠingenjÃ¶r en
Ġprotest erade
Ġlast bilar
smat cher
Ġbackhopp arveckan
Ġinteri Ã¶r
ÅĦ ski
ĠSvenskt oppen
ĠBundes liga
ĠÃ¶verhÃ¶g het
b s
f run
j in
á ļ
Ã¤ des
Ġf at
Ġfl u
yck el
ĠnÃ¤r mar
Ġbruk spat
vÃ¤nd igt
Ġhund en
Ġpsyk isk
Ġbevar as
Ġhopp ar
ĠgrÃ¥ tt
ĠvÃ¤ck tes
strand s
kat eg
ĠEdward s
Ġlands flykt
Ġpseud onym
ĠKrak Ã³w
ĠS ull
ĠM iljÃ¶
ĠT opp
ĠE ur
im ore
Ġvil kas
rom aner
Ġma ff
lÃ¶s het
ĠCount ry
tex ter
ĠLill ie
ĠWh at
ĠBrand t
kap ell
ĠAp ost
Ġkam rat
Ġrobot ar
Ġhast igt
Ġemer itus
in son
at em
Ġp u
Ġsk rik
ĠG is
um n
ĠO der
ug gar
Ġ17 13
hÃ¥ll en
Ġro terande
ĠfÃ¶rst Ã¤rka
ĠSp en
ĠlÃ¥ng strÃ¤ck
ou x
Ġfolk s
Ġpar odi
Ġomfatt as
ske det
ĠPeter sson
Ġtron fÃ¶ljd
ĠfÃ¶rbÃ¤tt rades
ĠlÃ¶s ningen
Ġdrottning ens
Ġvack ert
Ġkontrovers iell
ĠEsp a
ĠAT P
cre utz
ĠKamb od
F l
m ier
t immars
ĠS vin
ĠS oft
ĠH i
ri que
av is
Ġspel ning
ĠÃ¥ter fÃ¶rening
arbet ade
Ġkomp akt
ĠfÃ¶rsv unna
Ġvarier ade
ĠberÃ¤k ningar
ĠstÃ¤nd ig
ĠMÃ¤l ar
ĠBot kyrka
Ġgill ade
ĠAristotel es
b iskop
h jel
y on
Ġs o
Ġn ar
ĠB ock
ĠB of
sp syk
Ġland shÃ¶vdingen
Ġint ar
Ġrel aterade
Ã¡ ndez
Ġseg rande
Ġprogram vara
Ġfunkt ionen
ĠRobert o
ĠWe iss
Ġlad da
ĠJane iro
Ġgross handlare
b ens
i pel
s unds
ĠS upp
ĠB ing
kt iga
ĠC rom
ir en
ant z
Ġny hets
ĠFÃ¶r r
ĠÃ¤n t
Ġperson alen
ĠUt stÃ¤llningen
ĠSch Ã¼
Ġskriv as
ĠTer min
Ġexper ter
sby rÃ¥n
Ġgodk Ã¤nt
offic ers
ĠSon ic
ĠMaj est
vux na
ĠklÃ¤tt ra
ĠGlob al
ĠAkadem iska
ĠkrÃ¶nt es
Ã¤ kl
ĠH ern
ĠT Ã¥g
ĠÃ¶ver natur
kl Ã¤d
Ġol Ã¤mp
Ġinled er
Ġna cken
ĠÃ¥terupp byggdes
Ġfyll nad
ĠKlock an
ĠfÃ¶rbjud na
Ġabstrakt a
Â ¹
en or
Ġt Ã¥
ing ens
ĠS ide
ĠK aren
ur sprung
fÃ¶r aren
ĠW es
Ġsp ara
ĠCh ev
ĠY l
ĠTh un
Ġfilm regissÃ¶r
reg imen
ĠNord in
Ġengag erades
ĠVil helmina
Ġengelsk ans
Ð¾ Ð»
skjut ning
inspekt Ã¶r
ĠÃ¥klag are
ĠSnor re
ĠHedem ora
d okument
ol sk
ĠC ode
ĠMar ch
ip e
sy ft
Ġveck ot
Ġaf rikansk
Ġkamp anjen
ĠberÃ¶m de
pol en
ĠCan ada
ĠArk ansas
skill nad
Ġkoncent rerade
Ġolyck or
ĠlÃ¤rjung ar
Ġstru pe
Ġintellig ent
ĠDef in
ĠutfÃ¤rd ades
ĠVide o
ĠTradition ellt
Ġundv iker
ĠlÃ¶ns am
f ront
in formation
Ġi kon
al ag
it ung
Ġn ick
ol ini
ĠF iat
ĠP ubl
ĠC ow
Ġ17 37
ĠfÃ¶rfatt at
ĠHer ald
ĠTro lle
uter ad
over n
Ġrestaur angen
forsk aren
ĠClin ton
Ġtjugot al
Ġuppsv ing
ĠHÃ¶gan Ã¤s
B erg
m ers
Ġl as
ĠH F
ĠC yr
Ġupp seende
Ġor mar
18 55
Ġsv Ã¤lt
form iga
ĠsjÃ¤lv studier
ĠOr t
Ġbev itt
Ġred aktionen
ĠsamhÃ¤ll svetenskap
Ġdikt ning
Ġbiskop ar
ĠGra z
Ġimp onerande
ĠTo ul
Ġunderl Ã¶jtnant
Ġmelod in
usch witz
ĠFast Ã¤n
Ġmusikvide on
ĠvÃ¥t marker
ĠRosk ilde
f rÃ¶
o ok
Ġh imm
na z
ĠG ond
Ġkom iska
Ġarbet st
Ġsv agare
Ġmin skning
Ġplan era
Ġlyck ad
rak terna
ifier ade
Ġinb Ã¶rdes
Ġkoll id
Ġkal if
Ġnog a
Ġnomin erade
Ġbetal ning
ĠPlan en
ikop ter
Ġinnefatt ade
ĠGert rud
Ġimpl ementer
E L
ar ed
in jen
Ġin sjÃ¶
iv es
ĠV ag
ĠU K
Ġre alistiska
Ġre agerar
ĠSt Ã¥
ari at
Ġvatt ens
ĠÃ¥ter stod
Ġsm ycken
ĠkÃ¤n slig
Ġbos Ã¤tta
Ġdu on
iff ror
ĠJo y
skomm issionen
Ġregistr ering
Ġuppkall ade
Ġexpl oat
ĠDra ke
Sa int
Ġi sb
Ġb uff
ĠL uth
ĠÃ Ĩ
ĠO il
Ġkl as
Ġ16 74
dag arna
ĠNor berg
vÃ¤r r
ĠGe sta
Ġant ib
Ġprof et
sg ud
Ġerk Ã¤ndes
Ġager ande
fyll da
sfor skning
Ġhuvudt rÃ¤nare
Ġdef ens
ĠOklah oma
Q u
m uren
t ab
t ouren
Ġi scens
Ġp rÃ¶
ĠH ults
ss an
Ã¥ng arna
ĠmÃ¥l ningarna
Ġpre p
ĠSom alia
alk ar
Ġhot ar
Ġkal cium
ĠAp otek
Ġkongress ledamot
Ġkonver terade
ĠGÃ¶tal ands
Ġsjutt on
Ġrat ific
ĠvÃ¥ldt Ã¤kt
st ammar
ĠM ing
ĠG ang
ĠN ac
ĠÃ ŀ
var v
ov skij
Ġdem o
ĠlÃ¤r dom
Ġbel opp
Ġsten hus
alj en
ĠJos h
ÃŃ k
ĠBakgrund en
ĠnÃ¶dvÃ¤nd igtvis
ĠsÃ¤nd as
ĠbedÃ¶m des
agu ay
akade min
Ġrefl ekter
Ġkoncentration slÃ¤ger
' ).
f iber
l eb
l Ã¥n
r oleum
Ġm odet
Ġm iste
Ġd rÃ¶ja
ĠS ick
ĠS AS
ĠF ynd
ĠT v
ĠN Ã¤t
Ġkon dens
Ġ16 55
ym met
bild ad
ĠvÃ¤g de
ĠSh ad
ĠBl omm
ĠBar on
rans port
ph y
Ġexp ression
Ġgl Ã¶d
Ġmott ogs
ĠArt ur
Ġengelsk sprÃ¥kiga
Ġbetal ar
ĠÃ¥s ikt
Ġann onser
Ġdecenn ium
Ġkil o
Ġfantas y
Ġuppfyll a
ĠlÃ¤rob Ã¶cker
H F
p il
p es
Ġ <
Ġf Ã¤bod
id on
ĠF anny
ĠG S
Ġre habilit
ĠÃ¶ver sikt
sm ar
ĠfÃ¶rs vinna
io us
sy ster
rikt ningen
ĠrÃ¤tt s
bar ns
Ġklass iskt
teck ningen
ĠÐ ¡
ĠbedÃ¶m ning
sfÃ¶rbundet s
tan nat
Ġnat rium
ĠBask et
Ġasy l
Ġs ann
Ġb arna
Ġn ationer
Ġst el
ĠA uschwitz
ven ce
ell schaft
pel aren
sl Ã¤nder
Ġkan ot
Ġkom iker
Ġ17 15
kl ara
Ġgrund ats
18 50
Ġtr il
Ġju gend
Ġgren adjÃ¤r
ĠGh ost
ĠskÃ¶tt es
Joh n
Ġomorganis erades
G u
z t
â Ķ
Ĩ Ĵ
Ġm ust
al as
ĠA udi
Ġ2 10
ĠL okal
ĠI C
ĠP ent
ĠU EFA
art an
Ġsp in
bb or
ĠAl ek
ib a
sfÃ¶r mÃ¥ga
Ġpass ande
Ġspekt ak
Ġmynt ades
Ġdal gÃ¥ng
Ġbryt ning
Ġsekt orn
Ġlapp mark
ĠBour bon
pj Ã¤s
Ġfriherrin nan
l eby
Ġs ik
Ġm ogen
om gÃ¥ngen
Ġd un
Ġl Ã¶d
ĠT ings
Ġhan e
ut iska
ĠhÃ¥ll bar
mÃ¥l ad
Ġlu ftt
ĠprÃ¤st gÃ¥rd
Ġminnes mÃ¤rke
Ġhyll ade
Ġutnyttj ar
Ġkirur gi
ĠfÃ¶rhand la
Ġexperim enter
ĠFro st
ĠEug Ã¨ne
t aket
Ġst arter
ss ek
Ġj Ã¤gare
Ġc ol
ĠmÃ¥ nd
ĠSp orts
vÃ¤g arna
14 9
Ġsoci ologi
Ġmet aller
ĠBerg a
Ġgeneral stab
ĠgrÃ¤ va
Ġanslut na
skont roll
Ġkompon erad
Ġobjekt iv
Ġkonf ron
Ġiran ska
Ġkak el
Ġkommunic era
I B
y ng
Ġf Ã¶nstren
et o
Ġt ong
Ġn ektar
Ġsk Ã¤nktes
ĠU ef
ak at
Ġ17 35
akt ighet
kl otet
Ġ16 95
ac a
sv art
Ġhand skrifter
mark nad
ec tion
Ġfran c
Ġalbum en
ĠLin des
ĠanstÃ¤ll de
Ġutbred d
Ġpoj kv
Ġomedel bar
Ġintens ivt
Ġdoktorsav handling
ĠjÃ¤mstÃ¤lld het
x a
Ġ )
Ġd ammar
att or
Ġatt acken
Ġst ar
ĠP od
ĠP epp
og n
Ġupp satt
ĠO ok
Ġman lig
Ġ17 14
bb e
ĠÃĸ d
Ġtillb ehÃ¶r
ha upt
uc c
gren adjÃ¤r
Ġtj uv
ĠCla us
ĠVan liga
Ã¤llskap ets
mass an
Ġfysi ologi
ĠÃĦg gen
Ġsult an
ĠovÃ¤nt at
Ġbebod des
l itz
or id
ĠA gen
ĠL oc
ul ering
ram a
yr an
ic ia
ĠFÃ¶r slaget
Ġkl y
Ġhel ig
gru van
ĠDan zig
ĠkÃ¶p ingen
Ġge ologi
ĠframfÃ¶r s
Ġ26 0
fÃ¶lj den
ĠSe an
Ġkors ade
Ġdebut en
Ġsyns Ã¤tt
ĠPi per
ĠBirg it
ĠdokumentÃ¤r film
Ġuppmunt rade
Ġinvolver ad
g evÃ¤r
at ic
ch y
ĠH az
ĠT roms
ĠE ssen
Ġut efter
Ġj Ã¤g
ĠÃ¶ver befÃ¤lhavare
od os
ygg a
Ġny startade
ring e
Ġ16 68
Ġtro gen
Ġbok staven
Ġsign erade
Ġkunskap en
ĠsÃ¤m sta
ĠÃĦngel holm
Ġdiskrimin ering
ĠNÃ¤ss jÃ¶
ed omen
Ġn Ã¶jd
ĠA fter
ĠK ri
ĠI M
rist ian
Ġind ik
Ġbidrag ande
Ġadel sman
slin jer
Ġerbjud ande
ĠtonsÃ¤tt aren
bibliotek et
Ġsyst rarna
ĠAlexand re
Ġpan el
ĠPla ce
ĠstÃ¶tt e
h as
k inesiska
Ġb ay
sk Ã¤lla
tt jÃ¤rnen
ĠM Ã¶ll
ĠT art
ĠI z
ĠR esten
ĠV ern
Ġgenom kors
ĠfÃ¶rs Ã¶ket
Ġpre station
ĠHistor iska
ĠlÃ¥ ts
ĠhÃ¥ll its
ĠSl ussen
ĠSÃ¶der hamns
giv et
Ġpresident val
Ġuttal anden
Ġbeton ade
Ġkomplic erade
Ġkalen der
ĠAzerbajd zjan
c or
Ġde i
ro ts
sp eci
Ġ17 01
Ġfort sÃ¤ttningen
ĠlÃ¥ng sammare
Ġlik ad
ĠHe de
ĠHar old
Ġljus grÃ¥
ĠgenomfÃ¶r ts
Ġskydd ad
ĠWall ace
Ġockup ations
Ġisol ering
Ġunderteck nades
Ġstridsv agn
ĠFalken bergs
Ġelektrom agnet
st rÃ¤v
ĠS ot
it Ã¤t
ĠF ahl
ot yper
ĠJ Ã³
sp an
verk ar
18 56
Ġru g
ĠhjÃ¤l m
olf te
Ġkejs arinna
ĠFolk partiet
Ġuppf yller
ĠfÃ¶rlust en
zz i
lever ant
Ġknut na
Joh an
G B
] ,
i ater
s napp
ĠH Ã¶j
ĠT ib
ĠG ide
Ġupp tog
ĠJ el
art ikel
Ã¤nd ringar
Ġex cent
Ġdi ar
Ġskap are
ĠOr tn
ĠBar bar
ĠkÃ¶r en
ĠChrist ine
ĠFri es
Ġrepresenter as
Ġmag i
ĠCol in
Ġkontrakt spro
umm el
kunn iga
Ġster e
Ġoce anen
ĠrumÃ¤n ska
ĠBiel ke
skra fter
ĠÃ¥tn jÃ¶t
ĠInst rument
d jup
w eg
Ġs over
sk ikt
Ġp rel
Ġav el
ĠD iet
ĠL ina
Ġ17 28
Ġol ymp
ĠfÃ¶lj s
ĠEl ia
Ġpar f
Ã¶g na
ĠhjÃ¤lp medel
Ġ28 0
ĠWe ek
bor ough
kap ellet
Ġstopp ades
Ġadminist rationen
Ġsekund Ã¤r
ĠunderrÃ¤tt else
Ġbeskydd are
Ġven et
ĠKamer un
ĠMontg omer
U n
k and
Ġm obb
ĠF Ã¼r
Ġan hÃ¶r
ost ad
Ġ15 40
sv Ã¤rd
Ġplats erna
yp en
Ġlever eras
Ġren sk
ĠMon a
ĠarmÃ© er
Ġide ologi
ĠÃ¶gon bry
ĠNic las
Ã« ng
Ġfrukt ade
ĠVol ta
lÃ¤n ta
kopp ling
Ġkry pt
ĠunderrÃ¤tt elset
ĠbevÃ¤p nade
Ġgeneralgu vernÃ¶r
f ysik
w ing
on ica
ĠA da
ĠP oll
ĠP rades
Ġbl Ã¥g
ev Ã¤gen
Ġar rest
Ġall mog
Ġfram ryck
18 48
ĠEl m
ĠvÃ¤x lar
ĠtjÃ¤nst gÃ¶ra
tag andet
ĠCl iff
ĠfÃ¶rsv Ã¥r
Ġkategoris eras
ĠNic olaus
Ã° ur
ĠBell man
ĠRas en
ĠKrit iker
Ġkated ralen
Ġstock holm
Ġbefogen heter
R K
Ġm embran
or ns
ĠH ey
Ġsk Ã¤m
ĠnÃ¤r beslÃ¤kt
pl atta
Ġkommun alt
Ġland ade
Ġord fÃ¶randen
band en
Ġslott ets
Ġgl est
ĠfjÃ¤rde plats
ĠÃ¶r e
Ġanord nar
ĠMath ias
Ġutfor ska
ĠTint in
b ust
Ġh ockey
Ġb ull
Ġk Ã¶l
Ġut hÃ¥ll
Ã¤l ten
Ġmen as
he at
Ġ5 50
fl Ã¶de
sh amns
qu in
ĠJohan ne
sch e
ĠtjÃ¤nst gjort
ĠYork shire
kan ter
ĠFlyg planet
Ð¸ Ð¹
kast are
ĠÃ¶vertyg a
material et
Ġpedagog ik
ĠKast ilien
ĠKropp slÃ¤ngden
ĠGÃ¶tal and
ĠLatin amerika
ĠMekan iska
ĠinvÃ¥nar antalet
A d
z bek
Ã »
Ġt res
Ġu ran
Ġden s
ĠB rag
ov an
Ġfil olog
ors et
Ġ12 1
sfÃ¶r bin
Ġbek Ã¤nn
ĠRik sutstÃ¤llningar
ĠInternation ellt
Ġdriv it
ĠGre y
ĠHed lund
Ġfunktion sned
ĠtÃ¥g en
Ġklipp a
osa ur
Ġbrun n
ĠrÃ¤ t
ĠRev olution
Ġlock ade
krig en
Ġprot otyp
Ð¾Ð² Ð¸Ñĩ
ĠGaller y
s arbete
w ater
Å ¼
Ġm ala
Ġp ont
Ġtill varo
ĠH ilda
Ġsk on
ĠR otter
sp or
Ġc ar
Ġland sfÃ¶rsamling
ĠBer nd
ry l
ĠFl oden
Ġklock a
iment et
Ġfir ades
ĠfÃ¶rd rÃ¶j
mÃ¶ te
lok aler
mass or
kong ressen
Ġkoncentration slÃ¤g
ĠVet landa
ĠfÃ¶r pack
ade tt
ag h
ĠB in
ĠB io
ĠB agg
ĠB NP
ĠF rÃ¥gan
Ġut sprid
Ġkon fisk
Ġny kom
akt Ã¶ren
Ġkl arl
Ġ16 88
Ġarbet arklass
ĠCh en
Ġtre Ã¥rskontrakt
ĠfÃ¥ s
Ġlit au
Ġtillb ringar
end al
ĠSa inte
Ġfilosof in
Ġinter vall
Ġsyft ande
Ġskulpt uren
ĠÃ¶verlev t
ĠvÃ¤rldsm Ã¤sterskapet
Ġinsta bil
orum met
Ġnoggran t
Ġbj uder
ĠRÃ¥s unda
A T
k ad
l j
Ġs Ã¤tes
ĠpÃ¥ kost
ĠF Ã¥r
ĠK riget
Ġre alism
sl ey
Ġpl as
Ġ16 67
Ġsitt platser
ĠZ ar
bo ut
Ġfilm ades
Ġton Ã¥ren
ĠfÃ¥g larna
Ġmott agare
ĠNov gor
ĠrÃ¥det s
Ġkompletter ades
Ġnut id
ĠAut o
Ġtang ent
orening ar
u o
Ġvar tannat
ĠN ol
ĠV Ã¤ll
âĢ ³
ĠtvÃ¥ an
Ġ16 83
ĠhÃ¤r en
Ġord nings
Ġ14 5
Ġkung af
Ġ11 1
ĠKar el
ĠmÃ¶jlig heterna
Ġparlament ets
ĠHed in
ĠId ol
san lÃ¤ggning
tekn iken
ĠKor anen
sverk samheten
ĠÃ¶verfÃ¶r ing
Ġlug na
Ġka os
lubb en
ĠlÃ¤kt aren
ĠbelÃ¶ ning
Ġfont Ã¤n
g eten
n erna
Ġs iden
sk ov
ĠfÃ¶r Ã¥ld
Ġg Ã¤l
nd als
ĠD N
ĠD rÃ¤kt
ĠH Ã¥rd
ĠB ott
ĠC ic
ĠR Ã¶st
Ġom disk
ep art
vis as
vis nings
ina e
Ã¼ b
Ġgrupp spelet
Ġam fib
hov et
ĠfÃ¶rÃ¤ld ral
ĠtrÃ¤n ar
Ġseri erna
vÃ¤rld ens
Ġkonkurren ter
Ġsvansl Ã¤ngd
k Ã¶
s ad
Å ĳ
Ġt itta
Ġl un
ĠD iana
ĠH T
Ġsk Ã¤ra
ĠO tter
ĠW ig
gen ren
skap ets
eb ror
Ġspel ad
Ġ17 36
Ġkl ubbl
Ġ16 82
ĠÃħr hus
ris er
sÃ¤tt ande
ĠOr g
ĠSen ator
ĠbestÃ¤m s
Ġne w
ĠtÃ¤vling s
ĠerÃ¶v ringen
ĠDo ktor
Ġposit ionen
Ġstav ning
skal ken
Ñģ ÑĤ
Ġmission Ã¤r
Ã¢ tre
Ġinvest ering
ĠKÃ¤r lek
Ġmaxim alt
trum mor
ĠutlÃ¥ nad
e ys
m m
m Ã¼
Ø ¨
om Ã¤ss
ĠS Ã¤kerhet
Ġsom rarna
Ġom slag
Ġdel ning
var n
Ġc ellen
ĠDe b
Ġsamt iden
ĠmÃ¥l ad
Ġfy nden
part ier
minist ration
sst Ã¶r
ĠmÃ¶r ker
Ġinled ning
Ġvarm are
ĠLiv ing
ĠMatt sson
tÃ¤ck tes
ĠFast igheten
ĠStort jÃ¤rnen
Ġinflytelser ik
ĠstÃ¥t hÃ¥llare
ĠvÃ¤p nade
ĠBis marck
ĠMarse ille
h ow
j est
Ġb ygden
Ġav stod
Ġu bÃ¥tar
Ġupp sÃ¤ttningen
del eg
Ġgenom gÃ¥
18 59
le ys
Ġfar mor
Ġge olog
Ġkraft fulla
ĠSl av
Ġmor fars
ij i
ĠsÃ¤k rade
Ġdy ka
Ġfir ma
ĠMu hamm
ĠIns pir
Ġoriginal et
emin ariet
ĠDrottning holm
ĠlandskapsmÃ¥l ningar
ĠHerc egovina
ĠfÃ¶dos Ã¶ker
d Ã¤ck
h Ã¤nder
j ans
de burg
Ġt olfte
ĠD okument
ĠH aj
ĠT empl
Ġut byggnaden
ĠP rom
ĠC i
fÃ¶r bud
Ġ17 11
18 45
Ġru in
Ġutg jort
ĠNew castle
ĠNord korea
Ã¤kt a
ĠlÃ¥ na
ĠUl v
Ġsch izofren
but ik
aff e
cept ion
Ġkontin ental
ĠSystem s
Ġexpedition er
Ġann ekter
ĠRoad racing
ĠTenn is
ĠJess ica
ĠFabrik en
ĠAgnet a
ĠjÃ¤mfÃ¶rels evis
Ġm Ã¤staren
ĠfÃ¶r orter
Ġin hy
[...]
