{"<s>":0,"<pad>":1,"</s>":2,"<unk>":3,"<mask>":4,"!":5,"\"":6,"#":7,"$":8,"%":9,"&":10,"'":11,"(":12,")":13,"*":14,"+":15,",":16,"-":17,".":18,"/":19,"0":20,"1":21,"2":22,"3":23,"4":24,"5":25,"6":26,"7":27,"8":28,"9":29,":":30,";":31,"<":32,"=":33,">":34,"?":35,"@":36,"A":37,"B":38,"C":39,"D":40,"E":41,"F":42,"G":43,"H":44,"I":45,"J":46,"K":47,"L":48,"M":49,"N":50,"O":51,"P":52,"Q":53,"R":54,"S":55,"T":56,"U":57,"V":58,"W":59,"X":60,"Y":61,"Z":62,"[":63,"\\":64,"]":65,"^":66,"_":67,"`":68,"a":69,"b":70,"c":71,"d":72,"e":73,"f":74,"g":75,"h":76,"i":77,"j":78,"k":79,"l":80,"m":81,"n":82,"o":83,"p":84,"q":85,"r":86,"s":87,"t":88,"u":89,"v":90,"w":91,"x":92,"y":93,"z":94,"{":95,"|":96,"}":97,"~":98,"¡":99,"¢":100,"£":101,"¤":102,"¥":103,"¦":104,"§":105,"¨":106,"©":107,"ª":108,"«":109,"¬":110,"®":111,"¯":112,"°":113,"±":114,"²":115,"³":116,"´":117,"µ":118,"¶":119,"·":120,"¸":121,"¹":122,"º":123,"»":124,"¼":125,"½":126,"¾":127,"¿":128,"À":129,"Á":130,"Â":131,"Ã":132,"Ä":133,"Å":134,"Æ":135,"Ç":136,"È":137,"É":138,"Ê":139,"Ë":140,"Ì":141,"Í":142,"Î":143,"Ï":144,"Ð":145,"Ñ":146,"Ò":147,"Ó":148,"Ô":149,"Õ":150,"Ö":151,"×":152,"Ø":153,"Ù":154,"Ú":155,"Û":156,"Ü":157,"Ý":158,"Þ":159,"ß":160,"à":161,"á":162,"â":163,"ã":164,"ä":165,"å":166,"æ":167,"ç":168,"è":169,"é":170,"ê":171,"ë":172,"ì":173,"í":174,"î":175,"ï":176,"ð":177,"ñ":178,"ò":179,"ó":180,"ô":181,"õ":182,"ö":183,"÷":184,"ø":185,"ù":186,"ú":187,"û":188,"ü":189,"ý":190,"þ":191,"ÿ":192,"Ā":193,"ā":194,"Ă":195,"ă":196,"Ą":197,"ą":198,"Ć":199,"ć":200,"Ĉ":201,"ĉ":202,"Ċ":203,"ċ":204,"Č":205,"č":206,"Ď":207,"ď":208,"Đ":209,"đ":210,"Ē":211,"ē":212,"Ĕ":213,"ĕ":214,"Ė":215,"ė":216,"Ę":217,"ę":218,"Ě":219,"ě":220,"Ĝ":221,"ĝ":222,"Ğ":223,"ğ":224,"Ġ":225,"ġ":226,"Ģ":227,"ģ":228,"Ĥ":229,"ĥ":230,"Ħ":231,"ħ":232,"Ĩ":233,"ĩ":234,"Ī":235,"ī":236,"Ĭ":237,"ĭ":238,"Į":239,"į":240,"İ":241,"ı":242,"Ĳ":243,"ĳ":244,"Ĵ":245,"ĵ":246,"Ķ":247,"ķ":248,"ĸ":249,"Ĺ":250,"ĺ":251,"Ļ":252,"ļ":253,"Ľ":254,"ľ":255,"Ŀ":256,"ŀ":257,"Ł":258,"ł":259,"Ń":260,"en":261,"er":262,"an":263,"Ã¤":264,"Ġs":265,"ar":266,"de":267,"Ã¶":268,"in":269,"Ã¥":270,"Ġf":271,"et":272,"Ġo":273,"ll":274,"st":275,"at":276,"Ġm":277,"om":278,"ch":279,"Ã¶r":280,"Ġt":281,"Ġh":282,"Ġv":283,"Ġoch":284,"Ġi":285,"or":286,"on":287,"Ġb":288,"Ã¤r":289,"Ġa":290,"Ġk":291,"sk":292,"ing":293,"Ġd":294,"Ġp":295,"ed":296,"Ġ1":297,"ig":298,"Ġav":299,"ĠfÃ¶r":300,"al":301,"ade":302,"am":303,"Ġu":304,"ĠS":305,"Ġde":306,"ill":307,"att":308,"Ġen":309,"ck":310,"el":311,"na":312,"Ġsom":313,"Ġl":314,"Ġg":315,"it":316,"nd":317,"re":318,"Ġtill":319,"ra":320,"il":321,"ter":322,"ning":323,"id":324,"ik":325,"and":326,"Ġin":327,"Ġatt":328,"Ġmed":329,"Ġn":330,"ol":331,"ĠD":332,"ĠH":333,"Ġst":334,"ĠpÃ¥":335,"pp":336,"rÃ¥":337,"ng":338,"Ġvar":339,"Ġ19":340,"ĠÃ¤r":341,"ss":342,"ska":343,"tt":344,"ĠA":345,"ro":346,"ĠM":347,"ag":348,"Ġden":349,"ĠB":350,"kt":351,"ver":352,"ad":353,"Ã¥r":354,"Ġe":355,"are":356,"ion":357,"is":358,"Ġ(":359,"Ġ2":360,"ru":361,"em":362,"as":363,"ĠF":364,"Ġsk":365,"es":366,"ett":367,"ĠT":368,"ĠE":369,"ĠK":370,"ot":371,"ri":372,"Ġut":373,"Ã¤n":374,"ĠL":375,"lig":376,"ĠI":377,"ande":378,"ĠP":379,"ur":380,"Ġan":381,"Ġhan":382,"00":383,"us":384,"ĠG":385,"un":386,"nder":387,"Ġbl":388,"rÃ¤":389,"Ġdet":390,"ven":391,"ĠC":392,"ĠR":393,"ĠN":394,"te":395,"Ġett":396,"ut":397,"iv":398,"Ġom":399,"og":400,"ist":401,"Ã¶d":402,"Ġhar":403,"ens":404,"rÃ¥n":405,"ĠÃ¶":406,"ĠV":407,"fÃ¶r":408,"ades":409,"ell":410,"ent":411,"Ġupp":412,"fter":413,"sta":414,"Ġr":415,"ĠfrÃ¥n":416,"av":417,"ul":418,"ĠÃ¤":419,"Ġsam":420,"all":421,"Ã¥ng":422,"ev":423,"ĠU":424,"ĠJ":425,"ber":426,"art":427,"den":428,"Ġ18":429,"Ġvid":430,"der":431,"Ġre":432,"ans":433,"yg":434,"iska":435,"Ġj":436,"ĠSt":437,"est":438,"isk":439,"nings":440,"ation":441,"ock":442,"eter":443,"Ġfl":444,"omm":445,"Ã¤l":446,"um":447,"des":448,"ak":449,"Ġunder":450,"tal":451,"Ã¤ll":452,"ft":453,"ns":454,"pel":455,"ort":456,"os":457,"ĠÃ¥r":458,"land":459,"ĠÃ":460,"Ġsin":461,"ĠdÃ¤r":462,"Ã¤g":463,"Ã¥g":464,"ick":465,"ud":466,"det":467,"ĠÃ¶ver":468,"ĠO":469,"ek":470,"ling":471,"del":472,"Ġsig":473,"eg":474,"erna":475,"ĠHan":476,"arna":477,"Ġdel":478,"rin":479,"ast":480,"ram":481,"Ã¤nd":482,"âĢ":483,"Ġefter":484,"itt":485,"omrÃ¥":486,"ats":487,"ne":488,"sam":489,"Ġsl":490,"ord":491,"yr":492,"ic":493,"ĠW":494,"ller":495,"od":496,"Ġmen":497,"het":498,"Ã¤m":499,"ĠDen":500,"ers":501,"Ġ\"":502,"var":503,"Ã¤st":504,"ark":505,"ir":506,"Ġkon":507,"Ġblev":508,"rik":509,"sl":510,"01":511,"ok":512,"Ġ200":513,"ĠÃ¥":514,"Ġgen":515,"ien":516,"Ġinte":517,"ningsomrÃ¥":518,"ygg":519,"ef":520,"sp":521,"Ã¤tt":522,"era":523,"im":524,"Ġtid":525,"els":526,"da":527,"ia":528,"ĠÃ¤ven":529,"rinningsomrÃ¥":530,"Ġvil":531,"Ġfin":532,"ket":533,"la":534,"bet":535,"Ġpro":536,"Ġmot":537,"ningen":538,"org":539,"yck":540,"Ġc":541,"Ġhon":542,"talet":543,").":544,"ff":545,"man":546,"Ġhade":547,"ap":548,"Ġar":549,"Ġsj":550,"Ġkan":551,"19":552,"vÃ¥":553,"Ġkomm":554,"Ġand":555,"Ġ3":556,"Ã¥l":557,"Ġeller":558,"Ġ201":559,"ran":560,"ma":561,"ov":562,"rÃ¶":563,"ust":564,"yt":565,"ull":566,"Ã¤ng":567,"Ġall":568,"edan":569,"op":570,"Ġgenom":571,"ĠdÃ¥":572,"Ġman":573,"Ġsp":574,"liga":575,"amn":576,"ka":577,"rat":578,"und":579,"âĢĵ":580,"Ã©":581,"bl":582,"rig":583,"ger":584,"eck":585,"Ġfram":586,"ant":587,"orm":588,"ung":589,"ĠsÃ¥":590,"gen":591,"ĠhÃ¶":592,"ekt":593,"skap":594,"ĠDe":595,"Ġkv":596,"Ġandra":597,"red":598,"ier":599,"ĠDet":600,"Ġsamt":601,"ts":602,"ild":603,"ligt":604,"Ġgru":605,"ĠfÃ¶rsta":606,"Ġor":607,"aren":608,"ld":609,"ari":610,"erade":611,"olm":612,"Ġfinns":613,"eb":614,"ningar":615,"ets":616,"Ġkom":617,"ster":618,"ug":619,"ĠÃħ":620,"ĠnÃ¤r":621,"Ã¶rj":622,"Ġny":623,"cks":624,"),":625,"nat":626,"Ġspel":627,"Ġ17":628,"Ġvilket":629,"ĠfÃ¶d":630,"if":631,"ika":632,"akt":633,"Ġex":634,"iss":635,"pl":636,"eri":637,"bb":638,"Ġkall":639,"ex":640,"ott":641,"holm":642,"ann":643,"Ġstor":644,"Ġ199":645,"ellan":646,"arl":647,"ĠdÃ¶d":648,"Ġsy":649,"ikt":650,"Ġvatt":651,"ĠtvÃ¥":652,"he":653,"Ã¶n":654,"Ġbland":655,"mer":656,"Ġanv":657,"verk":658,"erk":659,"ring":660,"ilj":661,"ala":662,"cksÃ¥":663,"ometer":664,"Ã¶p":665,"ĠocksÃ¥":666,"ilometer":667,"ĠEn":668,"alt":669,"ĠbÃ¶rj":670,"Ġpl":671,"yrk":672,"Ġsven":673,"Ġfick":674,"Ġing":675,"ab":676,"stÃ¤ll":677,"istor":678,"raf":679,"berg":680,"sen":681,"Ġ4":682,"ind":683,"nan":684,"Ġdess":685,"ember":686,"oh":687,"jor":688,"ten":689,"ĠnÃ¥g":690,"riv":691,"Ġmellan":692,"ser":693,"igt":694,"ron":695,"nar":696,"ĠFÃ¶r":697,"rinningsomrÃ¥det":698,"rÃ¤tt":699,"Ġ197":700,"Ã¶j":701,"Ġkl":702,"ĠfÃ¶dd":703,"Ġled":704,"sson":705,"sb":706,"olk":707,"Ġsen":708,"opp":709,"ep":710,"Ġbygg":711,"Ġhans":712,"verig":713,"Ġsedan":714,"kl":715,"rag":716,"edel":717,"Ġbest":718,"Ġstad":719,"ĠSverig":720,"ĠvÃ¤r":721,"Ġ16":722,"Ġ196":723,"oll":724,"uv":725,"Ġarbet":726,"ĠCh":727,"ĠhÃ¶g":728,"iga":729,"jÃ¤r":730,"Ġbar":731,"Ġannat":732,"per":733,"Ġha":734,"Ġol":735,"yd":736,"fatt":737,"Ġ198":738,"Ġgrund":739,"son":740,"Ġ5":741,"sm":742,"ci":743,"Ġkommun":744,"ĠStock":745,"ulle":746,"vis":747,"ost":748,"ars":749,"ytt":750,"Ġbe":751,"ĠAl":752,"Ã¶l":753,"Ġinne":754,"ĠStockholm":755,"Ġverk":756,"ĠÃ¥ter":757,"nen":758,"itet":759,"ĠÃĸ":760,"men":761,"18":762,"Ġskulle":763,"rist":764,"ĠÃħr":765,"Ġ194":766,"rad":767,"Ġ195":768,"Ġ%":769,"Ġhel":770,"Ġvatten":771,"andet":772,"Ġslut":773,"nad":774,"Ġbet":775,"ĠfÃ¶rs":776,"ĠUnder":777,"ard":778,"nt":779,"rev":780,"Ġfil":781,"Ã¥ll":782,"ĠEfter":783,"fl":784,"ĠAr":785,"Ã¥nga":786,"inn":787,"ĠSk":788,"ie":789,"Ã¤ck":790,"Ġnamn":791,"ligen":792,"ors":793,"tta":794,"ĠÃ¤n":795,"aget":796,"Ġkvad":797,"ĠHon":798,"rÃ¶m":799,"Ġkvadrat":800,"ern":801,"ĠAv":802,"ingen":803,"Ġland":804,"Ġber":805,"ĠIn":806,"ende":807,"olog":808,"ionen":809,"Ġutan":810,"net":811,"Ġsitt":812,"som":813,"ess":814,"ass":815,"kilometer":816,"Ġkvadratkilometer":817,"rÃ¤d":818,"Ġbr":819,"nas":820,"ult":821,"ĠstÃ¶r":822,"Ã¥rd":823,"Ġkonst":824,"vers":825,"Ġreg":826,"Ġhav":827,"du":828,"Ġ193":829,"Ã¤k":830,"mans":831,"atur":832,"hus":833,"veck":834,"enn":835,"ift":836,"Ġkun":837,"ta":838,"Ġsenare":839,"Ġsina":840,"dag":841,"Ġty":842,"mar":843,"Ġ6":844,"tid":845,"uvud":846,"Ġdock":847,"Ġur":848,"Ã¶k":849,"ack":850,"Ġflera":851,"Ġpol":852,"Ġinom":853,"anska":854,"ob":855,"le":856,"ĠJoh":857,"ste":858,"Ġ192":859,"Ġ15":860,"samling":861,"rit":862,"ni":863,"ĠSverige":864,"usik":865,"je":866,"ang":867,"ograf":868,"ella":869,"Ġolika":870,"cent":871,"rop":872,"Ã¤t":873,"io":874,"ken":875,"ĠanvÃ¤nd":876,"Ã¤v":877,"ym":878,"jorde":879,"eras":880,"min":881,"Ġmest":882,"Ġhavet":883,"erson":884,"Ġru":885,"Ġvara":886,"Ġutg":887,"Ġsv":888,"iskt":889,"yn":890,"ycket":891,"Ã¶lj":892,"res":893,"Ã¤lv":894,"Ġsamma":895,"rakt":896,"aj":897,"Ã¥t":898,"uk":899,"Ġtre":900,"Ġyt":901,"led":902,"Ġdetta":903,"Ã¤x":904,"igare":905,"ĠgÃ¥ng":906,"rÃ¤n":907,"iet":908,"borg":909,"strÃ¶m":910,"Ġ7":911,"lag":912,"ĠAn":913,"kon":914,"Ġhuvud":915,"Ġbes":916,"ys":917,"Ġmin":918,"ian":919,"skol":920,"ren":921,"rid":922,"ĠfÃ¥":923,"sh":924,"ĠY":925,"form":926,"Ġmeter":927,"lÃ¶":928,"alen":929,"Ġsvensk":930,"Ġkyrk":931,"ering":932,"empel":933,"ĠAvrinningsomrÃ¥det":934,"ac":935,"rinningsomrÃ¥de":936,"sv":937,"Ġmycket":938,"Ã¤gg":939,"ĠbÃ¥":940,"sten":941,"orn":942,"se":943,"ĠsjÃ¤lv":944,"Ġvis":945,"Ġal":946,"ress":947,"000":948,"Ġlig":949,"sammans":950,"stad":951,"drag":952,"âĢĿ":953,"up":954,"Ġoft":955,"of":956,"ĠPÃ¥":957,"ris":958,"avrinningsomrÃ¥de":959,"ruk":960,"hÃ¥ll":961,"Ġtog":962,"alm":963,"lar":964,"ĠBer":965,"Ġinnan":966,"Ġint":967,"Ġbild":968,"erades":969,"ĠmÃ¥nga":970,"ina":971,"ĠĠ":972,"Ġsm":973,"Ġdenna":974,"Ġfort":975,"Ġmat":976,"Ġ8":977,"oder":978,"Ã¥n":979,"orna":980,"Ã¤nder":981,"ĠomrÃ¥":982,"ubb":983,"nivers":984,"ĠMar":985,"rott":986,"gÃ¥ng":987,"heter":988,"Ã¤nn":989,"ĠmÃ¥l":990,"Ġmer":991,"ĠbestÃ¥r":992,"aste":993,"ow":994,"Ġliv":995,"Ġdag":996,"anu":997,"rar":998,"Ġperson":999,"Ġnor":1000,"Ġans":1001,"ry":1002,"Ġgjorde":1003,"ib":1004,"Ġel":1005,"ĠhÃ¤r":1006,"Ġ191":1007,"\".":1008,"Ġof":1009,"heten":1010,"Ġstora":1011,"else":1012,"Ġdi":1013,"hÃ¶r":1014,"Ġro":1015,"lem":1016,"ansk":1017,"sa":1018,"Ġalla":1019,"Ġval":1020,"ĠLe":1021,"ĠfÃ¶rst":1022,"Ġung":1023,"ĠlÃ¤ng":1024,"ĠFran":1025,"ĠmÃ¥":1026,"au":1027,"erad":1028,"Ġvan":1029,"Ġsock":1030,"Ġtr":1031,"Ġexempel":1032,"ip":1033,"nade":1034,"ĠVid":1035,"eln":1036,"efter":1037,"anuari":1038,"ĠUt":1039,"ppen":1040,"Ġhistor":1041,"ĠSp":1042,"bild":1043,"Ġkont":1044,"hÃ¶":1045,"Ġtidigare":1046,"Ġjanuari":1047,"Ġdem":1048,"dom":1049,"ĠbÃ¶rjade":1050,"rav":1051,"urop":1052,"Ġsvenska":1053,"ugust":1054,"ĠThe":1055,"Ġ-":1056,"med":1057,"Ġger":1058,"satt":1059,"ober":1060,"Ġplats":1061,"Ã¤son":1062,"rum":1063,"Ġtillsammans":1064,"Ã¤rk":1065,"tern":1066,"ah":1067,"Ġrik":1068,"Ġfy":1069,"unkt":1070,"ubl":1071,"jÃ¤n":1072,"rÃ¤m":1073,"Ã¤ster":1074,"ĠÃ¤g":1075,"ĠslÃ¤":1076,"Ġord":1077,"ĠlÃ¥ng":1078,"Ġskog":1079,"ls":1080,"stem":1081,"Ġmusik":1082,"iker":1083,"Ġ9":1084,"SA":1085,"Ġblir":1086,"Ġinneb":1087,"Ġligger":1088,"ater":1089,"hand":1090,"ationen":1091,"Ġhonom":1092,"ĠÃ¥t":1093,"gan":1094,"Ġ190":1095,"enskap":1096,"iken":1097,"Ġlag":1098,"sf":1099,"ĠNor":1100,"Ġform":1101,"ĠGu":1102,"ĠgÃ¶r":1103,"Ġ12":1104,"ank":1105,"ĠvÃ¤rld":1106,"ition":1107,"Ġnya":1108,"ennes":1109,"ept":1110,"Ġbef":1111,"vÃ¤r":1112,"ister":1113,"by":1114,"ĠÃĦ":1115,"arbet":1116,"use":1117,"Ġhem":1118,"Ġ189":1119,"Ġdessa":1120,"Ġhand":1121,"raft":1122,"ich":1123,"elsen":1124,"ja":1125,"ĠfÃ¶lj":1126,"ĠGÃ¶":1127,"lands":1128,"kom":1129,"ay":1130,"ĠNÃ¤r":1131,"slag":1132,"vÃ¤g":1133,"Ġart":1134,"ĠZ":1135,"rÃ¥k":1136,"Ġvill":1137,"gru":1138,"Ġ14":1139,"Ġutveck":1140,"Ġpolit":1141,"riget":1142,"rog":1143,"ĠSch":1144,"jÃ¤l":1145,"Ġson":1146,"amm":1147,"uni":1148,"Ġofta":1149,"ĠHans":1150,"Ġtot":1151,"Ġrep":1152,"Ġhos":1153,"Ġkunde":1154,"ĠUSA":1155,"ĠfÃ¶rsamling":1156,"lin":1157,"uder":1158,"ellt":1159,"sÃ¤tt":1160,"stÃ¥":1161,"ĠbÃ¶rjan":1162,"Ġ10":1163,"Ġlik":1164,"ont":1165,"naden":1166,"ografi":1167,"Ġnu":1168,"Ġ188":1169,"Ġlit":1170,"ĠkÃ¤nd":1171,"Ã©n":1172,"ĠfrÃ¤m":1173,"Ġkung":1174,"amp":1175,"Ġbeg":1176,"ce":1177,"ub":1178,"jur":1179,"ner":1180,"sak":1181,"sj":1182,"uli":1183,"spru":1184,"Ġ13":1185,"varande":1186,"ĠfÃ¶rb":1187,"etta":1188,"Ã¶der":1189,"Ã¤rn":1190,"ĠavrinningsomrÃ¥det":1191,"eder":1192,"tog":1193,"Ã¶t":1194,"ĠSven":1195,"Ġvarit":1196,"our":1197,"ĠingÃ¥r":1198,"Ġgick":1199,"ĠTh":1200,"oci":1201,"ysk":1202,"amilj":1203,"Ġap":1204,"spel":1205,"bum":1206,"anns":1207,"ĠNe":1208,"ou":1209,"terade":1210,"Ġflyg":1211,"erar":1212,"mark":1213,"lade":1214,"Ġ186":1215,"utom":1216,"Ã¶m":1217,"Ġind":1218,"ril":1219,"erat":1220,"Ġdec":1221,"Ġflytt":1222,"sprung":1223,"van":1224,"Ã¼":1225,"Ġmaj":1226,"bygg":1227,"terna":1228,"iva":1229,"ĠfÃ¤r":1230,"Ġfor":1231,"ĠlÃ¤r":1232,"ĠFl":1233,"lass":1234,"ĠDel":1235,"Ġte":1236,"Ġsocken":1237,"nare":1238,"ĠstÃ¶rre":1239,"ĠsÃ¤son":1240,"ĠfÃ¶rl":1241,"ĠnÃ¥gra":1242,"sy":1243,"gel":1244,"Ġska":1245,"las":1246,"ĠstÃ¤ll":1247,"merik":1248,"Ġmark":1249,"Ġpre":1250,"ugusti":1251,"Ġprodu":1252,"Ġunivers":1253,"ĠvÃ¤l":1254,"ara":1255,"Ġaugusti":1256,"ral":1257,"ationer":1258,"ey":1259,"Ġjuni":1260,"Ã¤nde":1261,"ida":1262,"rikt":1263,"Ġ000":1264,"Ġeg":1265,"sfÃ¶r":1266,"Ġvann":1267,"ĠStor":1268,"Ġnov":1269,"rÃ¤ck":1270,"Ġstud":1271,"ĠlÃ¤m":1272,"Ġverksam":1273,"Ġ187":1274,"Ġhela":1275,"Ġer":1276,"Ġmars":1277,"ista":1278,"ĠDetta":1279,"arri":1280,"Ġ0":1281,"Ġfanns":1282,"ĠfÃ¶ret":1283,"Ġkommer":1284,"ĠGe":1285,"Ġfolk":1286,"ĠKarl":1287,"ĠvÃ¤g":1288,"ighet":1289,"Ġgav":1290,"ĠinnebÃ¤r":1291,"ĠAd":1292,"ond":1293,"ong":1294,"indre":1295,"hÃ¶j":1296,"Ġviss":1297,"ĠHistor":1298,"ommun":1299,"fÃ¶rdes":1300,"nader":1301,"Ġamerik":1302,"Ġoff":1303,"ator":1304,"Ġskrev":1305,"val":1306,"ĠEl":1307,"Ġbarn":1308,"Ġmedlem":1309,"ĠvÃ¤x":1310,"ĠUpp":1311,"Ġjuli":1312,"lut":1313,"upp":1314,"ĠSam":1315,"rekt":1316,"17":1317,"Ġuppg":1318,"mÃ¤n":1319,"Ġcent":1320,"Ã¶v":1321,"ĠtrÃ¤":1322,"Ġpart":1323,"Ġdecember":1324,"Ġokt":1325,"vatt":1326,"Ġfyra":1327,"Ġursprung":1328,"Ġegen":1329,"eptember":1330,"sn":1331,"Ġnamnet":1332,"Ġra":1333,"ert":1334,"unn":1335,"ioner":1336,"ĠrÃ¤tt":1337,"ĠTill":1338,"Ã¤der":1339,"ings":1340,"Ġfem":1341,"Ġoktober":1342,"Ġhennes":1343,"Ġseptember":1344,"Ġallt":1345,"\",":1346,"yl":1347,"ec":1348,"ĠDÃ¤r":1349,"Ġmindre":1350,"Ġmilj":1351,"ilt":1352,"Ġch":1353,"pt":1354,"ĠbÃ¥de":1355,"Ġtotalt":1356,"ĠfÃ¶rfatt":1357,"ĠOm":1358,"app":1359,"ĠSM":1360,"teborg":1361,"Ġdom":1362,"ebru":1363,"Ġkilometer":1364,"Ġskol":1365,"ĠPar":1366,"qu":1367,"Ġbara":1368,"ine":1369,"Ġakt":1370,"Ã¤s":1371,"arriÃ¤r":1372,"Ġant":1373,"band":1374,"Ġpar":1375,"Ġstaden":1376,"Ġmedel":1377,"ĠfÃ¶rek":1378,"gar":1379,"ĠgÃ¥r":1380,"Ġapril":1381,"urg":1382,"uss":1383,"Ġspelade":1384,"ĠnÃ¥got":1385,"Ġ11":1386,"ĠBi":1387,"jÃ¶r":1388,"ebruari":1389,"Ġrel":1390,"Ġ20":1391,"Ġbli":1392,"ĠÃ¥rs":1393,"ĠCarl":1394,"rand":1395,"Ġprof":1396,"ĠtillhÃ¶r":1397,"ĠGÃ¶teborg":1398,"ons":1399,"va":1400,"Ġstat":1401,"ĠfÃ¥r":1402,"ana":1403,"skri":1404,"Ġfebruari":1405,"ĠlÃ¤n":1406,"Ġskap":1407,"plats":1408,"Ġbak":1409,"Ġtro":1410,"Ġnovember":1411,"Ġvikt":1412,"eller":1413,"strÃ¶ms":1414,"Ġtv":1415,"int":1416,"ĠMedel":1417,"Ġkvar":1418,"ret":1419,"Ġomfatt":1420,"rade":1421,"ĠEurop":1422,"ism":1423,"ĠDess":1424,"Ġfran":1425,"ej":1426,"ĠÃ¤ld":1427,"ternation":1428,"ĠinvÃ¥":1429,"Ġrad":1430,"ĠMan":1431,"Ġkm":1432,"ĠFin":1433,"Ġcir":1434,"otter":1435,"Ġplan":1436,"ĠJohan":1437,"tes":1438,"Ġhus":1439,"ach":1440,"Ġsamman":1441,"etenskap":1442,"ĠdÃ¤refter":1443,"Ġuniversitet":1444,"Ġkort":1445,"ivit":1446,"orp":1447,"ĠÃ¤nd":1448,"ement":1449,"ĠanvÃ¤nds":1450,"yrka":1451,"Ġfar":1452,"ĠhjÃ¤l":1453,"stra":1454,"kte":1455,"Ġark":1456,"met":1457,"lingen":1458,"Ã¤ra":1459,"pro":1460,"adels":1461,"Ġkallar":1462,"ĠOr":1463,"Ġser":1464,"ekn":1465,"Ġstuder":1466,"bo":1467,"ĠSh":1468,"Ġmestadels":1469,"ĠstÃ¶rsta":1470,"ĠlÃ¥g":1471,"idan":1472,"old":1473,"Ġytan":1474,"ĠâĢĵ":1475,"Ġfilm":1476,"ĠOl":1477,"reg":1478,"Ġfot":1479,"Ġres":1480,"ius":1481,"ĠtjÃ¤n":1482,"ĠDan":1483,"Ġbok":1484,"Ġderas":1485,"Ġmedan":1486,"ultur":1487,"Ġned":1488,"Ã¤rsk":1489,"Ġend":1490,"Ġtillb":1491,"ium":1492,"ilit":1493,"oner":1494,"Ġta":1495,"ĠGusta":1496,"Ã¤nt":1497,"Ġ%.":1498,"ĠEtt":1499,"16":1500,"Ġet":1501,"lÃ¤nd":1502,"Ġvin":1503,"rÃ¥d":1504,"Ġorgan":1505,"trÃ¤d":1506,"Ã¶dra":1507,"rukt":1508,"amla":1509,"rom":1510,"vin":1511,"als":1512,"Ġmoder":1513,"ytor":1514,"ĠinvÃ¥nare":1515,"ĠsÃ¤tt":1516,"Ġbel":1517,"Ġstart":1518,"hÃ¶jden":1519,"ork":1520,"ĠAnd":1521,"HI":1522,"ĠnÃ¥r":1523,"ordning":1524,"ĠuppstrÃ¶ms":1525,"ras":1526,"Ġendast":1527,"Ġvattnet":1528,"ivt":1529,"Ġreger":1530,"Ġprofess":1531,"Ġrom":1532,"skriv":1533,"ĠomrÃ¥det":1534,"aka":1535,"ĠSMHI":1536,"rike":1537,"Ã¶pro":1538,"ĠdelavrinningsomrÃ¥de":1539,"Ġ%).":1540,"ĠFrÃ¥n":1541,"oden":1542,"15":1543,"ever":1544,"ĠDelavrinningsomrÃ¥de":1545,"ĠNew":1546,"Ġlj":1547,"Ġfast":1548,"Ġslutet":1549,"Ġvattenytor":1550,"amot":1551,"Ġad":1552,"Ã¶procent":1553,"Ġfamilj":1554,"ĠsjÃ¶procent":1555,"Ã¤sta":1556,"Ġbil":1557,"hÃ¤ll":1558,"lÃ¤gg":1559,"opul":1560,"Ġtur":1561,"fÃ¶rande":1562,"Ã¶g":1563,"ode":1564,"nÃ¤r":1565,"ĠMedelhÃ¶jden":1566,"ĠmÃ¶j":1567,"ĠkÃ¶p":1568,"ĠFrank":1569,"Ġpo":1570,"Ġnatur":1571,"ĠMed":1572,"ĠBl":1573,"Ġ185":1574,"its":1575,"ĠNy":1576,"ĠmÃ¤nn":1577,"ĠfÃ¶rekomm":1578,"Ġthe":1579,"end":1580,"kring":1581,"mi":1582,"Ġpubl":1583,"Ġvon":1584,"Ġcirka":1585,"ĠAll":1586,"Ġvattendrag":1587,"skolan":1588,"far":1589,"Ã¥d":1590,"nÃ¤m":1591,"Ġnord":1592,"Ġnation":1593,"gÃ¥rd":1594,"rÃ¥g":1595,"Ġeftersom":1596,"ĠII":1597,"Ġredan":1598,"Ġgener":1599,"Ġinv":1600,"Ġkvinn":1601,"Ġdelen":1602,"Ġlok":1603,"ĠNord":1604,"Ã¤ndes":1605,"ĠSom":1606,"Ġge":1607,"ĠnÃ¥gon":1608,"Ġkomp":1609,"Ġare":1610,"ologi":1611,"unt":1612,"Ġvilken":1613,"ske":1614,"Ã¤kt":1615,"jekt":1616,"Ġbif":1617,"ĠÂ":1618,"Ġantal":1619,"ĠâĢĿ":1620,"ge":1621,"stÃ¥nd":1622,"ĠslÃ¤pp":1623,"her":1624,"atan":1625,"lopp":1626,"iz":1627,"ĠFil":1628,"Ġenligt":1629,"igheter":1630,"Ġsista":1631,"rek":1632,"alist":1633,"Ġstort":1634,"Ġfler":1635,"ald":1636,"Ġsex":1637,"rinningsomrÃ¥den":1638,"Ġmatch":1639,"14":1640,"Ġdelar":1641,"kÃ¶p":1642,"Ġ25":1643,"Ġfall":1644,"Ġ30":1645,"Ġbety":1646,"itekt":1647,"ĠÃ¶v":1648,"ryck":1649,"ĠEng":1650,"Ã¥ende":1651,"Ġbev":1652,"Ġgod":1653,"ĠÃ¥ren":1654,"amen":1655,"Ġem":1656,"ive":1657,"bruk":1658,"part":1659,"Ġkat":1660,"Ġgrupp":1661,"rÃ¤k":1662,"ax":1663,"Ġlyck":1664,"olf":1665,"ening":1666,"Ġfri":1667,"kade":1668,"ĠKl":1669,"igen":1670,"Ã¥s":1671,"alv":1672,"Ġkrig":1673,"ĠsmÃ¥":1674,"200":1675,"oss":1676,"Ġ2010":1677,"Ġkraft":1678,"ĠKon":1679,"slut":1680,"ena":1681,"ĠTysk":1682,"ĠavrinningsomrÃ¥den":1683,"Ġjord":1684,"ĠmÃ¤nnisk":1685,"ĠsÃ¤rsk":1686,"ĠtÃ¤v":1687,"minist":1688,"ĠsÃ¤g":1689,"ĠfrÃ¤mst":1690,"bland":1691,"Ġ184":1692,"Ã¶tt":1693,"Ã¤lt":1694,"Ġnum":1695,"Ġtiden":1696,"talien":1697,"ĠflÃ¶d":1698,"ĠÃ¶pp":1699,"Ã¤stra":1700,"Ġner":1701,"Ġtal":1702,"Ġmitt":1703,"Ġbi":1704,"ĠFred":1705,"komm":1706,"stit":1707,"Ġavvatt":1708,"ĠhjÃ¤lp":1709,"agn":1710,"ide":1711,"Ġriks":1712,"ĠhÃ¶gsta":1713,"ĠTV":1714,"bol":1715,"Ġgift":1716,"ĠbiflÃ¶":1717,"ĠflÃ¶dar":1718,"ĠKung":1719,"Ġavvattnar":1720,"Ġid":1721,"enne":1722,"yp":1723,"ĠfÃ¶re":1724,"ĠSveriges":1725,"esta":1726,"ĠBiografi":1727,"desordning":1728,"ĠbiflÃ¶desordning":1729,"Ġund":1730,"ity":1731,"Ġskriv":1732,"ins":1733,"Ġsak":1734,"Ġsn":1735,"az":1736,"ĠjÃ¤rn":1737,"ton":1738,"elser":1739,"llen":1740,"Ġskri":1741,"ĠrÃ¶r":1742,"Ġomkring":1743,"ningarna":1744,"lades":1745,"huset":1746,"konom":1747,"Ã¡":1748,"Ã¤gen":1749,"ĠAnder":1750,"ĠLund":1751,"Ġ2006":1752,"ernas":1753,"agen":1754,"Ġkallas":1755,"ĠBe":1756,"fin":1757,"ĠsÃ¥ng":1758,"Ġsjuk":1759,"Ġsoci":1760,"ligare":1761,"sg":1762,"fÃ¤r":1763,"Ã¥ller":1764,"Ġbas":1765,"Ġhelt":1766,"Ġforsk":1767,"ĠGen":1768,"Ġvissa":1769,"mÃ¤rk":1770,"ore":1771,"ĠCo":1772,"jort":1773,"Ġidag":1774,"Ġpopul":1775,"ĠBo":1776,"erens":1777,"sst":1778,"ĠinfÃ¶r":1779,"Ġmilit":1780,"emper":1781,"skriget":1782,"Ġgamla":1783,"lighet":1784,"Ġuppt":1785,"orter":1786,"ĠStockholms":1787,"Ġ2008":1788,"amnet":1789,"ĠframfÃ¶r":1790,"Ġ2007":1791,"Ġhur":1792,"ĠdÃ¤rfÃ¶r":1793,"Ġrunt":1794,"Ġkap":1795,"ha":1796,"run":1797,"illa":1798,"Ġkro":1799,"andel":1800,"ĠsÃ¤songen":1801,"Ġ2009":1802,"ĠlÃ¥":1803,"Ã¤d":1804,"ĠallmÃ¤n":1805,"Ġbruk":1806,"ĠLa":1807,"Ã¸":1808,"Ġorganis":1809,"ham":1810,"ĠgÃ¥ngen":1811,"Ġdirekt":1812,"ĠhÃ¥ll":1813,"lan":1814,"ĠEd":1815,"stÃ¤llet":1816,"orge":1817,"okrat":1818,"fil":1819,"Ġw":1820,"Ġdeb":1821,"ĠHen":1822,"iden":1823,"eci":1824,"Ġutbild":1825,"Ġalbum":1826,"ipp":1827,"Ġmet":1828,"plan":1829,"alk":1830,"ident":1831,"ĠAB":1832,"yss":1833,"tor":1834,"Ġblivit":1835,"Ġred":1836,"undet":1837,"ĠHer":1838,"lac":1839,"me":1840,"ler":1841,"ĠPro":1842,"serv":1843,"ĠnÃ¤ra":1844,"Ġengel":1845,"Ġob":1846,"uld":1847,"ĠX":1848,"ĠbÃ¥da":1849,"iel":1850,"lingar":1851,"Ġpersoner":1852,"Ã¶st":1853,"Ġsamband":1854,"Ġtillverk":1855,"rÃ¤ns":1856,"fall":1857,"ĠSvenska":1858,"ĠÂ°":1859,"Ġekonom":1860,"Ġper":1861,"Ġdotter":1862,"Ġhenne":1863,"Ġinga":1864,"boll":1865,"aden":1866,"cen":1867,"Ġbyggdes":1868,"Ġtred":1869,"Ġtillbaka":1870,"fors":1871,"ue":1872,"Ġvad":1873,"nes":1874,"ĠPer":1875,"13":1876,"ĠMalm":1877,"ĠHistoria":1878,"Ġinneh":1879,"Ġprog":1880,"ĠfÃ¶rekommer":1881,"Ġstuderade":1882,"aten":1883,"ĠBar":1884,"despel":1885,"ĠÃĦven":1886,"Ġkyrkan":1887,"ke":1888,"Ã¥despel":1889,"ĠgÃ¥nger":1890,"ĠErik":1891,"Ã¶s":1892,"Ġarm":1893,"ĠJohn":1894,"Ġutt":1895,"Ġytter":1896,"Ġbort":1897,"iot":1898,"jer":1899,"vid":1900,"ĠhÃ¶r":1901,"sala":1902,"skola":1903,"useum":1904,"ĠPol":1905,"Ã¥rden":1906,"ĠgÃ¥":1907,"ure":1908,"istrikt":1909,"Ã¤ss":1910,"ĠParis":1911,"efolk":1912,"ydd":1913,"Ġvilka":1914,"satte":1915,"utveck":1916,"Ġ2011":1917,"Ġvit":1918,"Ġdeltog":1919,"bar":1920,"alis":1921,"ĠInd":1922,"nande":1923,"aler":1924,"ata":1925,"ĠTyskland":1926,"ĠsÃ¥l":1927,"ĠgÃ¶ra":1928,"skommun":1929,"Ġhot":1930,"Ġkommunen":1931,"jÃ¶n":1932,"jÃ¶":1933,"ĠBerg":1934,"ĠframgÃ¥ng":1935,"emperatur":1936,"Ġvarje":1937,"kel":1938,"Ġigen":1939,"imat":1940,"Ġstyr":1941,"ĠMen":1942,"Ġtyska":1943,"Ġers":1944,"ften":1945,"Ġklass":1946,"ĠHe":1947,"Ġkrit":1948,"ĠnÃ¤m":1949,"sch":1950,"ĠKrist":1951,"ĠRe":1952,"Ġkring":1953,"skapet":1954,"Ġklubb":1955,"Ġledamot":1956,"ask":1957,"Ġ2000":1958,"Ġtit":1959,"Ġkunna":1960,"lden":1961,"ĠutfÃ¶r":1962,"ĠtjÃ¤nst":1963,"Ã¥gs":1964,"Ġ22":1965,"Â²":1966,"Ġrikt":1967,"Ġinternation":1968,"Ġmiss":1969,"Ġseg":1970,"tag":1971,"ĠSl":1972,"Ġ24":1973,"rika":1974,"burg":1975,"amer":1976,"Ġprofessor":1977,"Ġkallade":1978,"Ġutb":1979,"Ġ183":1980,"lek":1981,"Ġam":1982,"ĠHar":1983,"Ġannan":1984,"rafik":1985,"artyg":1986,"Ġsyd":1987,"ĠUppsala":1988,"Ġflyttade":1989,"elsing":1990,"ĠDenna":1991,"ĠRo":1992,"ker":1993,"delse":1994,"resident":1995,"ĠÃ¤ldre":1996,"ric":1997,"ĠSan":1998,"Ġledde":1999,"stitut":2000,"Ġmedverk":2001,"Ġvidare":2002,"Ġfull":2003,"ĠBland":2004,"ĠÃĸster":2005,"ĠNorr":2006,"Ġuts":2007,"Ġmor":2008,"ament":2009,"ĠStat":2010,"svar":2011,"rades":2012,"ux":2013,"ĠIs":2014,"ĠSa":2015,"Ġfilmen":2016,"ĠfÃ¶rsvar":2017,"ĠsÃ¶dra":2018,"12":2019,"ĠSedan":2020,"Ġsvart":2021,"Ġprogram":2022,"Ġbritt":2023,"ice":2024,"ban":2025,"ander":2026,"Ġtysk":2027,"nu":2028,"ingar":2029,"ĠlÃ¤g":2030,"ĠnÃ¤st":2031,"ĠutgÃ¶r":2032,"ĠFrankrike":2033,"ĠkonstnÃ¤r":2034,"idigt":2035,"apen":2036,"Ġbildades":2037,"Ġy":2038,"Ġtillf":2039,"hel":2040,"ynd":2041,"Ġsna":2042,"Ġpublic":2043,"loppet":2044,"ĠHelsing":2045,"ĠMo":2046,"ix":2047,"Ġkultur":2048,"rÃ¤v":2049,"ĠfÃ¶rm":2050,"Ġtex":2051,"ĠSte":2052,"ĠmÃ¶r":2053,"ror":2054,"ĠberÃ¤tt":2055,"10":2056,"Ġ2005":2057,"uc":2058,"Ġbeslut":2059,"port":2060,"Ġintress":2061,"ĠÃ¤m":2062,"ĠPeter":2063,"arnas":2064,"gÃ¶r":2065,"Ġ1960":2066,"ĠvÃ¤n":2067,"Ġ1970":2068,"Ġarkitekt":2069,"Ġben":2070,"Ġnorra":2071,"Ġspeci":2072,"ĠordfÃ¶rande":2073,"ĠprÃ¤":2074,"iat":2075,"Ġ2016":2076,"Ġ2012":2077,"ju":2078,"Ã¶ck":2079,"rogram":2080,"199":2081,"ĠÃ¶vrig":2082,"Ġhitt":2083,"ĠPa":2084,"Ġlev":2085,"rÃ¤ng":2086,"hÃ¶ll":2087,"Ġsten":2088,"ĠLin":2089,"ĠjÃ¤m":2090,"Ġter":2091,"blem":2092,"bergs":2093,"Ġrev":2094,"vent":2095,"onen":2096,"rans":2097,"Ġberg":2098,"ĠfÃ¥tt":2099,"klar":2100,"Ġ23":2101,"ĠEnligt":2102,"Ġ1990":2103,"ĠanstÃ¤ll":2104,"50":2105,"20":2106,"Ġarbetade":2107,"Ġchef":2108,"anden":2109,"ĠslÃ¤kt":2110,"farande":2111,"co":2112,"Ġkol":2113,"ĠistÃ¤llet":2114,"unkten":2115,"yska":2116,"Ġkron":2117,"Ġkar":2118,"Ġsnabb":2119,"ĠkÃ¶r":2120,"ĠÃ¶ster":2121,"Ġteck":2122,"Ġpass":2123,"Ġ2014":2124,"ĠskÃ¥despel":2125,"iner":2126,"ĠSÃ¶der":2127,"ĠtrÃ¤d":2128,"pÃ¥":2129,"Ġinled":2130,"lad":2131,"Ġkyrka":2132,"201":2133,"vÃ¤x":2134,"Ġkor":2135,"Ã¶kte":2136,"Ġ1800":2137,"Ġriksdag":2138,"rets":2139,"ve":2140,"ĠAnt":2141,"ĠsprÃ¥k":2142,"ĠIng":2143,"Ġlever":2144,"Ġtredje":2145,"ij":2146,"Ġflesta":2147,"Ġingen":2148,"ĠQ":2149,"Ġarean":2150,"rupp":2151,"ester":2152,"ivis":2153,"osof":2154,"ĠmÃ¥ste":2155,"vet":2156,"ĠRom":2157,"ĠAm":2158,"ĠutanfÃ¶r":2159,"gick":2160,"ĠstÃ¶d":2161,"Ġplac":2162,"Ġsol":2163,"Ġ1980":2164,"rim":2165,"ĠÃ¶n":2166,"Ġdo":2167,"atten":2168,"ĠlÃ¤nder":2169,"senter":2170,"arie":2171,"ĠlÃ¥t":2172,"ammar":2173,"ĠChrist":2174,"Ġstrid":2175,"Ġ&":2176,"Ã¤stare":2177,"ĠsamhÃ¤ll":2178,"ga":2179,"Ġ28":2180,"cess":2181,"Ġenda":2182,"giv":2183,"Ġnytt":2184,"atet":2185,"Ġamerikansk":2186,"ĠHand":2187,"utveckling":2188,"abrik":2189,"Ġ1900":2190,"arm":2191,"ĠgÃ¤ll":2192,"Ġoffic":2193,"ĠEuropa":2194,"ĠDessa":2195,"Ġtekn":2196,"ktion":2197,"ĠBen":2198,"rÃ¥det":2199,"ĠsÃ¶der":2200,"Ġack":2201,"ĠTro":2202,"th":2203,"Ġby":2204,"Ġ26":2205,"Ġ27":2206,"Ã¤ngd":2207,"snitt":2208,"ktor":2209,"Ġfortfarande":2210,"gi":2211,"ĠlÃ¤ngre":2212,"ĠrÃ¤k":2213,"Ġperi":2214,"ĠFinland":2215,"lev":2216,"ustri":2217,"ĠTe":2218,"Ġband":2219,"Ġ2013":2220,"alj":2221,"Ġ2004":2222,"ider":2223,"etter":2224,"we":2225,"Ġbed":2226,"ĠsÃ¤rskilt":2227,"Ġtyp":2228,"under":2229,"Ã¥ren":2230,"bart":2231,"fÃ¶lj":2232,"Ġlandskommun":2233,"ĠvÃ¤rldskriget":2234,"Ġtrad":2235,"Ġrit":2236,"organ":2237,"ulerade":2238,"Ġrepre":2239,"ldrig":2240,"ĠBefolk":2241,"lats":2242,"Ġmedeltid":2243,"igh":2244,"yll":2245,"ĠfÃ¶rfattare":2246,"jut":2247,"Ġsamtidigt":2248,"ĠCar":2249,"chen":2250,"Ġlandet":2251,"ĠKyrk":2252,"ĠNil":2253,"ument":2254,"ĠmÃ¤n":2255,"Ġins":2256,"sman":2257,"rÃ¶r":2258,"ĠHel":2259,"ĠsÃ¥d":2260,"Ġnorr":2261,"Ġvers":2262,"ĠfÃ¶retag":2263,"ath":2264,"risk":2265,"off":2266,"ĠUnivers":2267,"sd":2268,"Ġim":2269,"ystem":2270,"Ġslott":2271,"gren":2272,"Ġ21":2273,"ĠÃ¥terv":2274,"stÃ¤nd":2275,"ĠTid":2276,"Ġvars":2277,"Ġgrav":2278,"atte":2279,"ĠYork":2280,"uter":2281,"ĠEx":2282,"mÃ¥l":2283,"grund":2284,"ĠanvÃ¤ndes":2285,"197":2286,"iens":2287,"nades":2288,"ĠkÃ¤nda":2289,"ĠdÃ¤rmed":2290,"erie":2291,"kar":2292,"Ġaldrig":2293,"Ã¤mp":2294,"efÃ¤r":2295,"spekt":2296,"Ġlitter":2297,"Ġbid":2298,"Ġskall":2299,"ĠRef":2300,"ĠSm":2301,"ĠfrÃ¥g":2302,"bin":2303,"ĠWill":2304,"kter":2305,"Ġamerikanska":2306,"Ġsek":2307,"af":2308,"Ġmon":2309,"198":2310,"ph":2311,"Ġytterligare":2312,"ministrat":2313,"Ġdra":2314,"sjÃ¶n":2315,"ĠÃ¥ret":2316,"Ġnuvarande":2317,"ĠDÃ¥":2318,"miÃ¤r":2319,"hamn":2320,"ori":2321,"Ġ1999":2322,"Ġsamarbet":2323,"Ġmiljoner":2324,"vik":2325,"ĠmilitÃ¤r":2326,"ĠsjÃ¶":2327,"ĠMalmÃ¶":2328,"Ġhistoria":2329,"ĠfÃ¶rlor":2330,"Ã¶ren":2331,"trÃ¤":2332,"Ġfranska":2333,"lund":2334,"SE":2335,"olit":2336,"Ġstod":2337,"bro":2338,"erial":2339,"ĠkarriÃ¤r":2340,"oende":2341,"Ġljus":2342,"jÃ¤rn":2343,"repp":2344,"ĠbÃ¤sta":2345,"olut":2346,"jet":2347,"ifte":2348,"Ġfortsatte":2349,"iam":2350,"kan":2351,"Ġsidan":2352,"Ġslag":2353,"ĠLond":2354,"Ã¤mt":2355,"Ġsystem":2356,"ĠUn":2357,"Ġkriget":2358,"Ġhamn":2359,"ĠĠĠĠ":2360,"ĠBr":2361,"kor":2362,"Ġinfl":2363,"aw":2364,"ct":2365,"till":2366,"itter":2367,"Ġhuvudsak":2368,"Ġroll":2369,"Ġdjur":2370,"sc":2371,"ĠGustaf":2372,"Ġibland":2373,"Ġbeskriv":2374,"anc":2375,"Ġackum":2376,"ĠDanmark":2377,"ĠfÃ¶rv":2378,"Ġ2015":2379,"Ġrum":2380,"isa":2381,"Ġsyn":2382,"ĠKal":2383,"Ġ100":2384,"ĠEngland":2385,"rakten":2386,"bert":2387,"ĠVÃ¤ster":2388,"Ġ1950":2389,"dem":2390,"ĠBro":2391,"ĠLand":2392,"196":2393,"ĠLind":2394,"Ġpresident":2395,"Ġfilosof":2396,"..":2397,"Ġlu":2398,"ĠhÃ¤n":2399,"omb":2400,"Ġbek":2401,"Ġgjort":2402,"ĠNation":2403,"Ġackumulerade":2404,"Ã¶ver":2405,"ĠTor":2406,"Ġviktig":2407,"ire":2408,"arin":2409,"eningen":2410,"uden":2411,"ĠlÃ¤mnade":2412,"ĠÃ¥l":2413,"ĠsÃ¤k":2414,"ĠEr":2415,"ĠsvÃ¥r":2416,"Ġ2002":2417,"jÃ¤rnen":2418,"ĠBefolknings":2419,"ĠLondon":2420,"Ġvetenskap":2421,"vist":2422,"ĠMa":2423,"Ġvia":2424,"one":2425,"ĠSen":2426,"Ġ182":2427,"ĠWil":2428,"ĠhÃ¶ll":2429,"emperaturen":2430,"ĠAntalet":2431,"hov":2432,"ĠkÃ¤n":2433,"Ġansvar":2434,"igur":2435,"ĠCon":2436,"ox":2437,"ĠvÃ¤rlden":2438,"Ġslutade":2439,"ĠBefolkningsutveckling":2440,"ĠupptÃ¤ck":2441,"ilda":2442,"ĠVÃ¤r":2443,"Ġinter":2444,"Ġher":2445,"Ġ29":2446,"Ġbehand":2447,"ĠMaria":2448,"ĠsÃ¥som":2449,"ĠBerlin":2450,"vig":2451,"Ġstads":2452,"ĠHall":2453,"ĠfÃ¶rsÃ¶k":2454,"andra":2455,"ĠFredrik":2456,"Ġkallad":2457,"ĠmÃ¤nniskor":2458,"skan":2459,"ekter":2460,"Ġse":2461,"Ã¥tt":2462,"Ġpriv":2463,"Ġgifte":2464,"Ã³":2465,"omp":2466,"ads":2467,"Ġhalv":2468,"ierna":2469,"istiska":2470,"Ġunders":2471,"rep":2472,"ĠÃ¥lder":2473,"Ġhov":2474,"Ġegna":2475,"ĠReferens":2476,"ĠRos":2477,"Ġvisar":2478,"samhet":2479,"Ġskick":2480,"ĠfÃ¤rg":2481,"Ã¤nda":2482,"vÃ¤l":2483,"Ġpris":2484,"Ġtradition":2485,"age":2486,"mat":2487,"ood":2488,"Ã¤knas":2489,"NSE":2490,"Ã¶cker":2491,"ritann":2492,"ith":2493,"ĠmÃ¶":2494,"NSEE":2495,"ivet":2496,"ĠinnehÃ¥ller":2497,"Ġpunkten":2498,"ny":2499,"ĠrÃ¶d":2500,"Ġren":2501,"Ġgrundades":2502,"Ġmitten":2503,"ica":2504,"Ġstudier":2505,"ige":2506,"ĠPh":2507,"ale":2508,"inner":2509,"lÃ¤ndska":2510,"Ġca":2511,"Ġveck":2512,"Ġ2003":2513,"grupp":2514,"ĠgÃ¥rd":2515,"ebygg":2516,"Ġtar":2517,"'s":2518,"ĠMot":2519,"Ġverksamhet":2520,"Ġbror":2521,"Ġ180":2522,"ĠjÃ¤rnvÃ¤g":2523,"enter":2524,"rÃ¶n":2525,"ada":2526,"Ġborg":2527,"Ġ179":2528,"Ġsym":2529,"Ġskiv":2530,"Ġton":2531,"ĠStorb":2532,"iskop":2533,"ĠlÃ¤tt":2534,"ĠDav":2535,"Ġsju":2536,"ĠnÃ¤rm":2537,"ĠVÃ¤st":2538,"osit":2539,"redning":2540,"ĠvÃ¤ster":2541,"inge":2542,"for":2543,"jen":2544,"Ġtag":2545,"Ġuppgick":2546,"ĠnÃ¤stan":2547,"ĠomrÃ¥den":2548,"Ġstra":2549,"Ġoper":2550,"ĠEm":2551,"eriet":2552,"Ġ1971":2553,"over":2554,"Ġovan":2555,"30":2556,"Ġ50":2557,"ĠstÃ¥r":2558,"usk":2559,"ĠStorbritann":2560,"194":2561,"ovjet":2562,"dern":2563,"Ġavs":2564,"Ġang":2565,"rÃ¤ttades":2566,"rich":2567,"jordes":2568,"anter":2569,"osition":2570,"stid":2571,"otten":2572,"Ġlyckades":2573,"Ġlin":2574,"Ġville":2575,"ĠCharl":2576,"oc":2577,"Ġavslut":2578,"ĠhÃ¤l":2579,"ogs":2580,"ĠutnÃ¤m":2581,"Ġengelska":2582,"Ġarbete":2583,"Ġexempelvis":2584,"hem":2585,"Ġindiv":2586,"ĠSc":2587,"Ġkontro":2588,"ifrÃ¥n":2589,"ions":2590,"Ġvi":2591,"ĠMich":2592,"ĠtillfÃ¤ll":2593,"ĠNorge":2594,"70":2595,"ĠJon":2596,"ĠJos":2597,"ĠNamnet":2598,"Ġspela":2599,"ĠsÃ¤ll":2600,"Ġprin":2601,"ĠMon":2602,"Ġproduc":2603,"ĠungefÃ¤r":2604,"ĠhÃ¤st":2605,"ille":2606,"stol":2607,"uterade":2608,"ĠJan":2609,"ĠHÃ¤r":2610,"ejs":2611,"avs":2612,"11":2613,"ĠbehÃ¶":2614,"Ġbred":2615,"temperaturen":2616,"Ġproblem":2617,"bundet":2618,"ĠbrÃ¶":2619,"ĠuppfÃ¶rdes":2620,"Ġport":2621,"Ġsing":2622,"Ġbos":2623,"ĠSu":2624,"Ġ%)":2625,"ansen":2626,"Ġ1952":2627,"ĠtillhÃ¶rde":2628,"ĠÃ¶vriga":2629,"ĠHandling":2630,"Ġbetyd":2631,"Ġih":2632,"ourn":2633,"ĠGustav":2634,"Ġuppdrag":2635,"ĠbestÃ¤m":2636,"ĠUtloppet":2637,"ash":2638,"ologiska":2639,"Ġbyggnad":2640,"Ã¤lj":2641,"ĠstrÃ¤ck":2642,"Ġrelig":2643,"Ġstats":2644,"epp":2645,"Ġroman":2646,"ĠRyss":2647,"ĠslÃ¤pptes":2648,"Ġna":2649,"Ġbefolk":2650,"jup":2651,"syk":2652,"Ġ2001":2653,"Ġeff":2654,"Ġ1930":2655,"ffÃ¤r":2656,"Ġpolitiska":2657,"Ġtrol":2658,"Ġfotboll":2659,"ĠhÃ¶j":2660,"ĠrÃ¥d":2661,"ĠBjÃ¶r":2662,"Ġdog":2663,"samlingen":2664,"rikes":2665,"lat":2666,"histor":2667,"ĠpremiÃ¤r":2668,"kÃ¶ping":2669,"ementet":2670,"bok":2671,"omrÃ¥det":2672,"andid":2673,"ĠfÃ¤rd":2674,"Ã¨":2675,"Ġdu":2676,"Ġelekt":2677,"Ġdagar":2678,"ĠEk":2679,"ish":2680,"inska":2681,"sÃ¤ttning":2682,"attes":2683,"jord":2684,"Ġ1920":2685,"Ġtor":2686,"Ġstark":2687,"Ã¦":2688,"ĠPaul":2689,"Ġtrakten":2690,"Ġexp":2691,"ĠÃĸst":2692,"ĠlÃ¤k":2693,"ĠVar":2694,"Ã¥nd":2695,"bil":2696,"abl":2697,"rodu":2698,"ĠKÃ¶p":2699,"ĠfjÃ¤r":2700,"Ġliten":2701,"ĠMart":2702,"ager":2703,"oni":2704,"Ġmode":2705,"ĠRÃ¤knas":2706,"Ġstil":2707,"Ġvarav":2708,"ĠÃ¤nnu":2709,"inal":2710,"helm":2711,"Ġgl":2712,"out":2713,"Ġ2017":2714,"Ġjag":2715,"ĠhÃ¶gre":2716,"ino":2717,"iber":2718,"Ġgamm":2719,"Ġbost":2720,"eiska":2721,"ringar":2722,"trÃ¤dde":2723,"Ġbor":2724,"uren":2725,"ĠfÃ¶rhÃ¥ll":2726,"rus":2727,"Ġmakt":2728,"Ġutveckling":2729,"ĠItalien":2730,"ĠKan":2731,"ader":2732,"ai":2733,"ĠReg":2734,"Ġkvinnor":2735,"Ġprocent":2736,"Ã¤ld":2737,"hav":2738,"ĠpoÃ¤ng":2739,"andets":2740,"bliot":2741,"hl":2742,"Ġdes":2743,"Ġtrans":2744,"Ġungdom":2745,"Ġfisk":2746,"olleg":2747,"Ġoftast":2748,"cis":2749,"estiv":2750,"emot":2751,"ĠUng":2752,"kur":2753,"ĠSer":2754,"elt":2755,"ora":2756,"bj":2757,"verket":2758,"ĠavrinningsomrÃ¥dena":2759,"ĠFri":2760,"ĠomrÃ¥de":2761,"ĠJohann":2762,"195":2763,"ĠGenom":2764,"ministrativ":2765,"Ġgem":2766,"ĠAb":2767,"arlament":2768,"resent":2769,"Ġtrots":2770,"Ġvanligt":2771,"ĠStorbritannien":2772,"Ġorsak":2773,"Ġstartade":2774,"Ġinkl":2775,"25":2776,"ĠSe":2777,"lÃ¤ndsk":2778,"ente":2779,"Ġfung":2780,"Ġver":2781,"ĠAnna":2782,"pen":2783,"Ġ178":2784,"erska":2785,"ĠkÃ¤r":2786,"organis":2787,"ĠfÃ¶ddes":2788,"ynnar":2789,"ĠUl":2790,"ĠFor":2791,"itz":2792,"Ġhaft":2793,"ĠutstÃ¤ll":2794,"Ġmotor":2795,"arken":2796,"Ġkrist":2797,"album":2798,"skatt":2799,"Ġkons":2800,"Ã¶sa":2801,"ĠHam":2802,"Ġpen":2803,"ĠAndra":2804,"Ġtving":2805,"Ġvapen":2806,"Ġskill":2807,"ĠAng":2808,"Ġkropp":2809,"ias":2810,"Ġfartyg":2811,"atern":2812,"spir":2813,"ĠsÃ¤ga":2814,"Ġrepresenter":2815,"Ġmedverkade":2816,"Ġ1940":2817,"Ġmedlemmar":2818,"orden":2819,"Ġliksom":2820,"Ġmedic":2821,"ĠKonst":2822,"Ġpolitiker":2823,"Ġkopp":2824,"ykt":2825,"Ġsomm":2826,"Ġmatcher":2827,"ĠanvÃ¤nda":2828,"oster":2829,"hÃ¶g":2830,"Ġun":2831,"60":2832,"ÃŃ":2833,"Ġnumera":2834,"bliotek":2835,"Ġitalien":2836,"vÃ¤nd":2837,"ĠanvÃ¤ndas":2838,"ĠfÃ¶rÃ¤nd":2839,"be":2840,"Ã¶ka":2841,"Ġtj":2842,"Ġvanlig":2843,"Ġbra":2844,"iver":2845,"ĠHelsingfors":2846,"Ġanses":2847,"Ġ1998":2848,"igheten":2849,"40":2850,"ĠRik":2851,"Ġmag":2852,"Ġflertal":2853,"ĠKar":2854,"ĠuppmÃ¤rk":2855,"Ġ40":2856,"Ġbru":2857,"ĠsÃ¤song":2858,"Ġavled":2859,"ĠCl":2860,"Ġ2018":2861,"itar":2862,"75":2863,"Ġaf":2864,"Ġursprungligen":2865,"Ġvarandra":2866,"Ġoffici":2867,"ĠWilliam":2868,"vern":2869,"full":2870,"ĠStora":2871,"ette":2872,"ĠmÃ¤rk":2873,"Ġlitteratur":2874,"ĠAlex":2875,"ies":2876,"ĠIF":2877,"Ġregering":2878,"ĠrÃ¶st":2879,"che":2880,"ames":2881,"ĠGÃ¶teborgs":2882,"Ġsamling":2883,"190":2884,"Ġinf":2885,"ations":2886,"ĠVal":2887,"nda":2888,"oj":2889,"ĠsjÃ¤lva":2890,"cher":2891,"sjÃ¶":2892,"Ġkust":2893,"Ġhund":2894,"72":2895,"Ġarten":2896,"ĠkÃ¤ll":2897,"Ġkomma":2898,"Ġ31":2899,"ĠvÃ¤stra":2900,"serien":2901,"65":2902,"ĠSv":2903,"eringen":2904,"aktÃ¤r":2905,"kn":2906,"omen":2907,"ĠRober":2908,"ĠuppfÃ¶r":2909,"ines":2910,"istan":2911,"eta":2912,"ĠlÃ¥nga":2913,"Ġdessutom":2914,"Ġjordbruk":2915,"ign":2916,"ĠKat":2917,"ĠSten":2918,"Ã¤rt":2919,"Ġext":2920,"Ġdels":2921,"193":2922,"eld":2923,"ĠSj":2924,"ĠSy":2925,"slaget":2926,"byggnad":2927,"kadem":2928,"Ġkn":2929,"Ġrespekt":2930,"Ġcm":2931,"ĠÃ¶stra":2932,"Ġoffent":2933,"ĠtÃ¤ck":2934,"ila":2935,"lla":2936,"inna":2937,"Ġbandet":2938,"Ġfransk":2939,"Ġutom":2940,"ĠSyd":2941,"smedel":2942,"ĠGeorg":2943,"reter":2944,"ĠCol":2945,"Ġlika":2946,"ensam":2947,"bund":2948,"ĠgenomfÃ¶r":2949,"empl":2950,"les":2951,"vi":2952,"arkt":2953,"ĠhÃ¥r":2954,"Ġvisade":2955,"Ġskydd":2956,"Ġbakom":2957,"iff":2958,"Ã¤nner":2959,"ĠInternation":2960,"ĠgrÃ¤n":2961,"ilver":2962,".\"":2963,"Ġinform":2964,"ndes":2965,"Ġyng":2966,"tn":2967,"rust":2968,"ĠAnders":2969,"Ġgruppen":2970,"Ġ1700":2971,"Ġpolis":2972,"Ġklubben":2973,"aga":2974,"Ġbrittiska":2975,"Ġmodern":2976,"ĠfÃ¤ng":2977,"Ġbol":2978,"ĠRyssland":2979,"ustral":2980,"sprÃ¥k":2981,"Ġcentr":2982,"una":2983,"ĠvÃ¤xte":2984,"Ġtryck":2985,"ĠmÃ¥nader":2986,"skar":2987,"edde":2988,"ean":2989,"Ġkval":2990,"oris":2991,"Ġkejs":2992,"omas":2993,"Ġdubb":2994,"Ġscen":2995,"Ġregeringen":2996,"unk":2997,"Ġeffekt":2998,"63":2999,"Ġskad":3000,"bi":3001,"Ġnorm":3002,"ĠHa":3003,"ĠTur":3004,"Ġ'":3005,"Ġ1994":3006,"odde":3007,"ile":3008,"ĠHÃ¶g":3009,"Ã¥dde":3010,"Ġbegrav":3011,"rarna":3012,"skog":3013,"Ġeget":3014,"ley":3015,"Ġjur":3016,"Ġpast":3017,"ĠUniversity":3018,"ĠfÃ¶res":3019,"Ġguld":3020,"ward":3021,"ĠJo":3022,"ĠrÃ¥":3023,"ĠIII":3024,"djur":3025,"ola":3026,"ĠlÃ¥ten":3027,"Ġfred":3028,"68":3029,"ĠFilmen":3030,"Ã¤tter":3031,"Ġdistrikt":3032,"Ġgeneral":3033,"ĠsÃ¥g":3034,"talets":3035,"Ġkandid":3036,"ĠKungliga":3037,"ĠanvÃ¤nder":3038,"ivision":3039,"ĠpÃ¥verk":3040,"ĠlÃ¥ngt":3041,"Ġinternationella":3042,"Ġfunkt":3043,"Ġryska":3044,"olv":3045,"Ġkallades":3046,"emÃ¥l":3047,"flyg":3048,"rem":3049,"69":3050,"ĠHennes":3051,"Ġprakt":3052,"Ġpost":3053,"ĠtrÃ¤ff":3054,"orer":3055,"ĠMellan":3056,"189":3057,"ĠArten":3058,"Ġ500":3059,"Ġtext":3060,"ĠRa":3061,"ivÃ¥":3062,"Ġinst":3063,"teck":3064,"ĠÃ¶k":3065,"gon":3066,"Ġmak":3067,"Ġtogs":3068,"Ġpat":3069,"73":3070,"Ġ1997":3071,"mann":3072,"Ġspelar":3073,"II":3074,"ĠfÃ¶rt":3075,"Ġfamiljen":3076,"192":3077,"Ġtilldel":3078,"ulpt":3079,"Ġis":3080,"ĠSim":3081,"ĠHenrik":3082,"Ġgran":3083,"system":3084,"Ġ1992":3085,"Ġbytt":3086,"minister":3087,"Ġskolan":3088,"tar":3089,"yrkan":3090,"Ġ1945":3091,"ĠÃ¥tervÃ¤nde":3092,"Ġbesk":3093,"Ġgrek":3094,"Ã¶ll":3095,"produ":3096,"ĠvÃ¤st":3097,"Ġeurop":3098,"utt":3099,"ĠGud":3100,"Ġz":3101,"ĠVM":3102,"sel":3103,"ĠrÃ¤d":3104,"Ġma":3105,"ĠlÃ¤t":3106,"Ġomfattande":3107,"arat":3108,"rottning":3109,"Ġresult":3110,"Ġnational":3111,"80":3112,"mot":3113,"ula":3114,"gÃ¥rden":3115,"ĠfÃ¶rklar":3116,"Ã¶nster":3117,"seende":3118,"ahl":3119,"ĠKn":3120,"ĠlÃ¤nge":3121,"Ġkateg":3122,"Ġpsyk":3123,"enten":3124,"Ġtim":3125,"ryt":3126,"ĠKÃ¶pen":3127,"fÃ¶d":3128,"Ġ1996":3129,"Ġindustri":3130,"Ġinvig":3131,"Ġdansk":3132,"Ġvarm":3133,"Ġ1995":3134,"INSEE":3135,"Ġfys":3136,"Ã¤cken":3137,"omrÃ¥de":3138,"Ġdelst":3139,"ĠBak":3140,"Ġat":3141,"ĠtÃ¤n":3142,"ativt":3143,"demokrat":3144,"delning":3145,"Ġprojekt":3146,"Ġspelades":3147,"cke":3148,"marker":3149,"Ġder":3150,"Ġban":3151,"ĠlÃ¤rare":3152,"unnit":3153,"ĠSand":3154,"arp":3155,"ĠbÃ¶rjar":3156,"ĠsÃ¤ker":3157,"Ġihop":3158,"ĠDÃ¤refter":3159,"Ġbetydelse":3160,"Ġab":3161,"Ġsid":3162,"Ġass":3163,"amb":3164,"Ġtio":3165,"Ġrespektive":3166,"ĠMe":3167,"ĠÃ¤kt":3168,"Ġdri":3169,"delen":3170,"Ġgammal":3171,"brott":3172,"Ġsocial":3173,"ĠfÃ¶rlorade":3174,"Ġkors":3175,"allen":3176,"Ġmass":3177,"musik":3178,"ĠSund":3179,"useet":3180,"ific":3181,"ĠBygg":3182,"staur":3183,"obb":3184,"anien":3185,"Ġdat":3186,"Ġhust":3187,"eende":3188,"kall":3189,"ĠinrÃ¤ttades":3190,"Ġartik":3191,"Ġgu":3192,"Ġaktiv":3193,"dar":3194,"ugg":3195,"uella":3196,"Ġsold":3197,"Ġsnabbt":3198,"ĠAugust":3199,"ĠMc":3200,"mÃ¤stare":3201,"ĠAf":3202,"ĠLud":3203,"ĠstÃ¤der":3204,"ĠLar":3205,"64":3206,"Ġ1962":3207,"gruppen":3208,"sut":3209,"ani":3210,"ĠJap":3211,"ĠCent":3212,"reterare":3213,"Ġ1974":3214,"frÃ¥n":3215,"jung":3216,"Ã¤nderna":3217,"Ġgjordes":3218,"examen":3219,"formen":3220,"Ġparti":3221,"Kr":3222,"emat":3223,"rip":3224,"Ġeng":3225,"Ġmaterial":3226,"Ġregiss":3227,"74":3228,"omin":3229,"skl":3230,"Ġtiteln":3231,"Ġdriv":3232,"Ġbestod":3233,"Ġfinans":3234,"ismen":3235,"Ġ1991":3236,"Ġ(\"":3237,"ital":3238,"Ġsnart":3239,"ĠSal":3240,"ĠNya":3241,"Ġskilj":3242,"ĠÃ¤ldsta":3243,"chef":3244,"Ġdisk":3245,"ĠNÃ¥g":3246,"ĠÃ¥tta":3247,"Ġtidigt":3248,"ool":3249,"ĠfÃ¶rest":3250,"film":3251,"Ġgemensam":3252,"Ġdok":3253,"ĠGru":3254,"Ġarbeten":3255,"inen":3256,"Ġhistorik":3257,"ĠfÃ¶rk":3258,"program":3259,"Ġboken":3260,"ĠbÃ¤r":3261,"Ġprote":3262,"ĠbenÃ¤m":3263,"ĠLars":3264,"Ġsida":3265,"ĠlÃ¤ngs":3266,"ymp":3267,"Ġliknande":3268,"ĠRobert":3269,"ĠHistorik":3270,"ĠDavid":3271,"xel":3272,"ĠÃ¤l":3273,"egel":3274,"bÃ¶rj":3275,"ĠDag":3276,"ĠfÃ¶retaget":3277,"ĠfÃ¶rsv":3278,"ĠMag":3279,"komst":3280,"ertig":3281,"Ġnummer":3282,"Ġkompl":3283,"ĠsjÃ¤lvstÃ¤nd":3284,"ho":3285,"Ġ.":3286,"Ġteater":3287,"Ġsett":3288,"Ġbo":3289,"ment":3290,"sled":3291,"ĠspÃ¥r":3292,"ĠRad":3293,"sven":3294,"Ġbron":3295,"skott":3296,"Ġmotsvar":3297,"Ġdjup":3298,"ĠWe":3299,"Ġgavs":3300,"uel":3301,"Ã¶rd":3302,"Ġupplag":3303,"Ġstift":3304,"ĠAt":3305,"Ġingick":3306,"riska":3307,"Ġbetrakt":3308,"jan":3309,"ĠSenare":3310,"Ã¶ld":3311,"ifter":3312,"ben":3313,"liv":3314,"ĠKommun":3315,"ite":3316,"Ġalltid":3317,"Ġarran":3318,"ise":3319,"Ġdrog":3320,"fte":3321,"Ġalbumet":3322,"ĠAdolf":3323,"Ġleg":3324,"lÃ¤m":3325,"Ġtopp":3326,"ĠfÃ¥ng":3327,"iske":3328,"ĠUtb":3329,"Ġskedde":3330,"ĠfÃ¥g":3331,"ĠGl":3332,"emente":3333,"Ġ1600":3334,"stads":3335,"ĠMor":3336,"fÃ¶rening":3337,"ĠGeografi":3338,"Ã¶rer":3339,"Ġprovin":3340,"ĠGun":3341,"bas":3342,"onst":3343,"pris":3344,"Ġhuvudsakligen":3345,"ournalist":3346,"sats":3347,"Ġbyggnader":3348,"uro":3349,"fÃ¤lt":3350,"Ġsch":3351,"uck":3352,"Ġsjukdom":3353,"ĠMusik":3354,"ita":3355,"ĠjÃ¤mfÃ¶r":3356,"hr":3357,"olket":3358,"ĠnÃ¥dde":3359,"ford":3360,"Ġbygga":3361,"ĠBel":3362,"Ġ1993":3363,"ĠskÃ¥despelare":3364,"ole":3365,"bru":3366,"cc":3367,"ĠrÃ¤knas":3368,"ĠRich":3369,"Ġtrafik":3370,"Ġrepresent":3371,"Ġmeddel":3372,"klag":3373,"Ã¶ts":3374,"Ġminst":3375,"Ġmera":3376,"Ġtrupp":3377,"ĠAg":3378,"ĠkaraktÃ¤r":3379,"Ġpastor":3380,"gatan":3381,"ĠWest":3382,"dels":3383,"anta":3384,"ĠarmÃ©n":3385,"jÃ¤ll":3386,"Ġperiod":3387,"Ġbrott":3388,"orten":3389,"Ġjud":3390,"ĠBir":3391,"rak":3392,"Ġbro":3393,"Ġrestaur":3394,"Ġlat":3395,"Ã¤rd":3396,"ikter":3397,"Ġjust":3398,"Ġly":3399,"ĠTrots":3400,"Ġmedeltida":3401,"skt":3402,"Ġflott":3403,"Ġdans":3404,"ĠsÃ¥vÃ¤l":3405,"rÃ©":3406,"ĠMÃ¥nga":3407,"ĠLou":3408,"onom":3409,"ĠfÃ¶rÃ¤ld":3410,"Ġbetyder":3411,"ĠarmÃ©":3412,"Ġturn":3413,"66":3414,"Ġtyd":3415,"Ġmy":3416,"ĠbÃ¶cker":3417,"ĠJac":3418,"Ġhed":3419,"âĢĻ":3420,"ĠQu":3421,"ĠVer":3422,"Ġserien":3423,"gjorde":3424,"togs":3425,"Ġcentral":3426,"anen":3427,"ukt":3428,"Ġkur":3429,"ĠMagn":3430,"Ġdrabb":3431,"par":3432,"ĠmotstÃ¥nd":3433,"Ġyta":3434,"Ġspelare":3435,"Ġarter":3436,"ĠmÃ¶jlig":3437,"Ġrym":3438,"ĠfjÃ¤rde":3439,"ate":3440,"Ġfas":3441,"ygd":3442,"orth":3443,"Ġerbj":3444,"Ġvanligen":3445,"Ġtroligen":3446,"stod":3447,"23":3448,"krets":3449,"ĠÐ":3450,"erats":3451,"ĠkrÃ¤v":3452,"Ġop":3453,"ĠgÃ¤ller":3454,"Ġbevar":3455,"iteten":3456,"tsÃ¥":3457,"jÃ¤rt":3458,"Ġuttryck":3459,"78":3460,"vs":3461,"Ġledare":3462,"lÃ¶s":3463,"Ġregel":3464,"Ã¤ttre":3465,"ymnas":3466,"ya":3467,"ini":3468,"cy":3469,"Ġla":3470,"ona":3471,"ĠbesÃ¶k":3472,"klass":3473,"Ġkonkur":3474,"ĠutnÃ¤mndes":3475,"klubb":3476,"innes":3477,"Ġluft":3478,"landet":3479,"ĠMark":3480,"ativ":3481,"ellertid":3482,"bel":3483,"ĠpÃ¥bÃ¶rj":3484,"Ġinflyt":3485,"Ġciv":3486,"ĠhÃ¤rad":3487,"mor":3488,"ly":3489,"Ġfakt":3490,"Ġsprid":3491,"ague":3492,"anten":3493,"Ġhopp":3494,"Ã¤ls":3495,"ĠprÃ¤st":3496,"ĠAlf":3497,"ĠgrÃ¥":3498,"Ġ60":3499,"Ġmm":3500,"oter":3501,"Ġ1967":3502,"ĠFolk":3503,"ĠUr":3504,"Ġetabl":3505,"Ġklar":3506,"Ġ1989":3507,"Ġdanska":3508,"edd":3509,"Ġbodde":3510,"Ġenbart":3511,"Ġbildade":3512,"ĠDal":3513,"Ġvalde":3514,"ĠaffÃ¤r":3515,"que":3516,"ĠanvÃ¤nde":3517,"Ġdikt":3518,"Ġcentrala":3519,"skaper":3520,"qvist":3521,"ĠFÃ¶rsamlingen":3522,"Ġarbetar":3523,"ĠbÃ¤ttre":3524,"Ġstarkt":3525,"Ġmott":3526,"Ġkontrakt":3527,"rym":3528,"emang":3529,"ĠOlof":3530,"ĠAdministrativ":3531,"Ġdeltag":3532,"ael":3533,"ĠfÃ¶ljande":3534,"Ġlades":3535,"ĠGre":3536,"ĠFer":3537,"ĠBor":3538,"Ġursprungliga":3539,"ĠPet":3540,"79":3541,"Ġ1969":3542,"ĠMad":3543,"Ġ1968":3544,"Ġkungen":3545,"ĠDessutom":3546,"24":3547,"ĠEg":3548,"ĠfÃ¶ljd":3549,"188":3550,"Ġinspir":3551,"ĠfrÃ¤msta":3552,"yra":3553,"imm":3554,"napp":3555,"ĠstÃ¤llet":3556,"Ġparlament":3557,"Ġkronor":3558,"Ġvari":3559,"Ġfatt":3560,"Ġundervis":3561,"kv":3562,"ĠThomas":3563,"Ġutbildning":3564,"Ġinstitut":3565,"Ġtel":3566,"ĠKÃ¶penhamn":3567,"but":3568,"ativa":3569,"juk":3570,"Ġrapp":3571,"Ġlant":3572,"bara":3573,"han":3574,"uri":3575,"platsen":3576,"Ġbeteck":3577,"vÃ¥rd":3578,"Ġmynd":3579,"lÃ¤g":3580,"ĠÃ¤gde":3581,"ration":3582,"ekan":3583,"ĠSw":3584,"Ġ1986":3585,"ĠTre":3586,"staden":3587,"Ġ1939":3588,"ĠFram":3589,"ĠfÃ¶ljde":3590,"Ġemot":3591,"fÃ¶rs":3592,"mÃ¤r":3593,"ony":3594,"eringar":3595,"tter":3596,"ĠNorra":3597,"Ġhuset":3598,"ĠNils":3599,"Ġavsnitt":3600,"Ġpartiet":3601,"irekt":3602,"Ġ1944":3603,"skade":3604,"Ġgrundade":3605,"Ġod":3606,"adem":3607,"konst":3608,"ĠframgÃ¥ngs":3609,"ĠalltsÃ¥":3610,"21":3611,"Ġ1972":3612,"Ġhandlar":3613,"ĠHed":3614,"Ġbeseg":3615,"ĠSoci":3616,"ĠmÃ¤ngd":3617,"skÃ¤r":3618,"samma":3619,"Ã¥k":3620,"Ġhandel":3621,"Ġsvar":3622,"45":3623,"Ġsker":3624,"Ġtills":3625,"och":3626,"ĠLiv":3627,"ĠvÃ¥":3628,"ĠTer":3629,"handling":3630,"ension":3631,"bildning":3632,"Ã¤sterskap":3633,"Ġdebuterade":3634,"Ġbiskop":3635,"ĠSpel":3636,"ĠLeague":3637,"isp":3638,"Ġ1975":3639,"Ġcentrum":3640,"ĠMartin":3641,"Ġbidrag":3642,"itets":3643,"Ã¥ten":3644,"Ġkost":3645,"Ġprivat":3646,"Ġprodukt":3647,"Ġvarier":3648,"ĠSpanien":3649,"ĠMel":3650,"ĠWal":3651,"weiz":3652,"onde":3653,"Ġgud":3654,"ĠLu":3655,"Ã¥ldern":3656,"Ġkonser":3657,"Ġmask":3658,"jÃ¤nst":3659,"Ġgra":3660,"itu":3661,"Ġ1918":3662,"Ġinnebar":3663,"ĠJes":3664,"Ġstadens":3665,"ĠKlimat":3666,"ĠJapan":3667,"omrÃ¥den":3668,"kÃ¶pings":3669,"ĠAmer":3670,"Ġuppskatt":3671,"ĠPre":3672,"stÃ¤llning":3673,"Ġlaget":3674,"Ġ1979":3675,"unionen":3676,"ight":3677,"Ġledning":3678,"vÃ¤st":3679,"Ġtak":3680,"ĠbegrÃ¤ns":3681,"ĠHus":3682,"ĠHolm":3683,"Ġegent":3684,"67":3685,"Ġ1941":3686,"Ġener":3687,"Ġ175":3688,"Ġill":3689,"Ġengag":3690,"ferens":3691,"Ġdelvis":3692,"Ġ1982":3693,"ĠAustral":3694,"Ġskapa":3695,"ĠhÃ¶ga":3696,"ĠfÃ¶rstÃ¶r":3697,"Ġflick":3698,"Ã¥ngen":3699,"oth":3700,"Ġdram":3701,"udet":3702,"draget":3703,"Ġhal":3704,"Ġutgav":3705,"Ġdrag":3706,"udd":3707,"rick":3708,"ney":3709,"ira":3710,"ski":3711,"ĠhÃ¶sten":3712,"ĠbelÃ¤g":3713,"amin":3714,"ĠKro":3715,"partiet":3716,"ĠPe":3717,"ĠhÃ¤v":3718,"ĠSankt":3719,"Ġ1985":3720,"ĠdÃ¶m":3721,"Ġtidskri":3722,"35":3723,"Ġ1988":3724,"ĠAtt":3725,"Ġsommaren":3726,"ĠÃ¶st":3727,"ĠÃ¤ktenskap":3728,"ĠlÃ¤":3729,"ĠRes":3730,"Ġdebut":3731,"ĠdÃ¥varande":3732,"Ġ1973":3733,"ĠCount":3734,"Ġhustru":3735,"Ġ1948":3736,"Ġ1987":3737,"ĠWilhelm":3738,"aff":3739,"vÃ¤gen":3740,"ĠMet":3741,"ĠmÃ¶jligt":3742,"Ġsank":3743,"erande":3744,"ĠUtbredning":3745,"Ġlandskap":3746,"Ã¥ld":3747,"ogen":3748,"ĠKina":3749,"eff":3750,"Ġbrukar":3751,"Ġkontakt":3752,"skraft":3753,"ĠSÃ¶dra":3754,"ĠdÃ¤rpÃ¥":3755,"29":3756,"Ġ1976":3757,"ĠfÃ¶rsÃ¶kte":3758,"Ġsyft":3759,"iven":3760,"isst":3761,"ĠSol":3762,"Ġkem":3763,"ros":3764,"gÃ¶t":3765,"hÃ¥lla":3766,"Ġsyster":3767,"ĠÃ¥terupp":3768,"Ġ1947":3769,"Ġinspel":3770,"stÃ¥ende":3771,"UC":3772,"ĠfÃ¶rste":3773,"ĠhÃ¶jd":3774,"Ġregion":3775,"rut":3776,"ternat":3777,"Ġ1964":3778,"ĠGer":3779,"Ġ1984":3780,"Ġplatsen":3781,"tex":3782,"ĠBill":3783,"ĠFal":3784,"atiska":3785,"sted":3786,"lor":3787,"Ġemellertid":3788,"ited":3789,"Ġskillnad":3790,"rÃ¥gan":3791,"ĠPart":3792,"sar":3793,"48":3794,"Ġsamarbete":3795,"ĠSovjet":3796,"urt":3797,"ĠfÃ¤lt":3798,"ĠAndre":3799,"ĠTillsammans":3800,"aktÃ¶r":3801,"28":3802,"pass":3803,"Ġuppf":3804,"dade":3805,"Ġ1946":3806,"ĠPort":3807,"Ġne":3808,"roll":3809,"Ġvitt":3810,"imeter":3811,"Ġskulpt":3812,"ĠNeder":3813,"ringen":3814,"Ġinit":3815,"yta":3816,"Ġ1919":3817,"Ġ1965":3818,"ĠkÃ¤nt":3819,"76":3820,"Ġslog":3821,"aterna":3822,"Ã¤lven":3823,"ĠJames":3824,"ĠVen":3825,"Ġsankmarker":3826,"akter":3827,"Ã¶jtn":3828,"ĠPhil":3829,"ifier":3830,"isten":3831,"ĠbÃ¶r":3832,"andard":3833,"Ġtron":3834,"Ġherr":3835,"71":3836,"Ã©er":3837,"ĠAndersson":3838,"ĠCla":3839,"Ġklock":3840,"Ġtyck":3841,"Ġcy":3842,"iter":3843,"ama":3844,"Ġsist":3845,"alet":3846,"Ã¥ndet":3847,"ĠVil":3848,"ĠOmrÃ¥det":3849,"ĠhÃ¤ck":3850,"ĠgrÃ¤":3851,"Ġ1977":3852,"ĠmÃ¥naden":3853,"Ġto":3854,"ublik":3855,"Ġ1983":3856,"ĠDon":3857,"ĠMont":3858,"ĠSaint":3859,"anna":3860,"Ã¤sen":3861,"let":3862,"Ġavg":3863,"Ġanslut":3864,"Ġantalet":3865,"hund":3866,"innan":3867,"fÃ¶ret":3868,"ĠskÃ¤r":3869,"Ġ1966":3870,"Ġdemokrat":3871,"ĠVas":3872,"oy":3873,"Ġkamp":3874,"Ġmajor":3875,"Ġsammans":3876,"ĠupphÃ¶r":3877,"ĠGra":3878,"ĠBra":3879,"eten":3880,"22":3881,"ĠansÃ¥g":3882,"Ġlokala":3883,"gande":3884,"rÃ¥ket":3885,"ĠStud":3886,"Ġstudent":3887,"Ġident":3888,"Ġskepp":3889,"Ã¶ns":3890,"ial":3891,"lik":3892,"ĠLov":3893,"ĠStad":3894,"Ġvaldes":3895,"Ġ1862":3896,"ĠMari":3897,"makt":3898,"Ġ1963":3899,"Ġfilmer":3900,"Ġju":3901,"holms":3902,"Ġtunn":3903,"ĠberÃ¶m":3904,"Ġekonomiska":3905,"ĠGar":3906,"ĠGro":3907,"ĠBur":3908,"ano":3909,"Ġhertig":3910,"Ġdennes":3911,"Ġjap":3912,"itionen":3913,"ĠutsÃ¥gs":3914,"ĠVin":3915,"Ġ1961":3916,"ĠBÃ¥":3917,"ĠTel":3918,"UCN":3919,"Ġberoende":3920,"Ġganska":3921,"Ġsem":3922,"Ġyngre":3923,"ands":3924,"ĠOtt":3925,"usl":3926,"ĠTim":3927,"Ġbrev":3928,"Ġvita":3929,"Ġgrev":3930,"Ġimp":3931,"ios":3932,"Ġuppgift":3933,"andels":3934,"Ġproduktion":3935,"ĠPri":3936,"ĠIUCN":3937,"ungen":3938,"Ġskrivit":3939,"nast":3940,"Ġsep":3941,"larna":3942,"Ġneder":3943,"âĢĿ.":3944,"ĠblÃ¥":3945,"Ġ1978":3946,"ĠerhÃ¶ll":3947,"Ġgro":3948,"ĠÃĸre":3949,"Ã¶ter":3950,"ĠJean":3951,"ĠInom":3952,"ĠfÃ¶rening":3953,"Ġfabrik":3954,"Ġ1917":3955,"Ġlandets":3956,"ĠfÃ¶rut":3957,"Ġ35":3958,"gt":3959,"Ġamb":3960,"Ġfunktion":3961,"ĠTidigare":3962,"Ġlite":3963,"ĠvÃ¤gen":3964,"ycken":3965,"ĠVan":3966,"Ġversion":3967,"Ġdist":3968,"Ġstuden":3969,"pe":3970,"ĠÃ¶r":3971,"ĠtÃ¤vling":3972,"77":3973,"Ġok":3974,"Ġstrax":3975,"Ġblod":3976,"Ġserie":3977,"Ġforskning":3978,"punkt":3979,"34":3980,"Ġej":3981,"62":3982,"Ã¤pp":3983,"issa":3984,"ĠArt":3985,"ĠMer":3986,"rument":3987,"Ġdr":3988,"roduc":3989,"Ġerk":3990,"Ġguvern":3991,"Ġanl":3992,"Ġsilver":3993,"ĠAxel":3994,"Ġ1942":3995,"Ġicke":3996,"gÃ¤ng":3997,"Ġrelativt":3998,"usen":3999,"Ġrevolut":4000,"Ġ1910":4001,"Ġskola":4002,"uper":4003,"Ġbyn":4004,"Ġrygg":4005,"Ġinb":4006,"ĠÃħren":4007,"gÃ¥ngen":4008,"anda":4009,"ĠersÃ¤tt":4010,"len":4011,"ura":4012,"Ġsub":4013,"Ġ1981":4014,"ĠmÃ¤rks":4015,"ĠJohannes":4016,"Ġjournalist":4017,"Ġ70":4018,"Ġlokal":4019,"ĠNÃ¥gra":4020,"Ġtilldelades":4021,"\")":4022,"ca":4023,"Ã¼r":4024,"Ġdoktor":4025,"Ġvux":4026,"Ġ80":4027,"ĠmÃ¶rk":4028,"Ġog":4029,"Ġflygplan":4030,"Ã¤gare":4031,"Ġkolon":4032,"Ġheter":4033,"Ġ1943":4034,"splan":4035,"ĠGi":4036,"Ã¤songen":4037,"ĠSamma":4038,"Ġ1958":4039,"Ġmuseum":4040,"ĠEftersom":4041,"Ġsamtliga":4042,"ĠutgÃ¶rs":4043,"Ġexempl":4044,"hall":4045,"Ġkommit":4046,"Ġ1956":4047,"ĠRedan":4048,"ĠUts":4049,"ĠKristian":4050,"Ġag":4051,"ĠsÃ¤kerhet":4052,"Ġkandidat":4053,"Ġtidningen":4054,"mannen":4055,"Ġ1938":4056,"Ġtillkom":4057,"ibland":4058,"ĠLill":4059,"Ġmoderna":4060,"Ġbytte":4061,"ĠVi":4062,"ressen":4063,"Ġspelat":4064,"ĠUnited":4065,"namn":4066,"ĠBre":4067,"Ġslaget":4068,"Ġenkel":4069,"Ġ1957":4070,"ĠStaden":4071,"Ġlivet":4072,"Ġvalet":4073,"Ġinvigdes":4074,"ago":4075,"still":4076,"ĠÃ¤mbet":4077,"Ġbegrepp":4078,"ump":4079,"Ġgul":4080,"Ġ1949":4081,"2000":4082,"ĠfÃ¶rutom":4083,"Ġskild":4084,"ĠIdag":4085,"verka":4086,"ĠfÃ¶reg":4087,"ĠanlÃ¤gg":4088,"39":4089,"Ã¤rare":4090,"ĠBol":4091,"sattes":4092,"Ġarbeta":4093,"heim":4094,"Ġ1936":4095,"oft":4096,"orld":4097,"skont":4098,"Ã¶jtnant":4099,"lÃ¶st":4100,"Ġglas":4101,"ĠlÃ¤gg":4102,"Ġhistoriska":4103,"delningen":4104,"ĠhÃ¥lla":4105,"ĠlÃ¥tar":4106,"ĠBu":4107,"ĠfÃ¤st":4108,"senterade":4109,"ĠsÃ¥dan":4110,"ruktur":4111,"ĠÃ¶verg":4112,"ĠMÃ¼":4113,"Ġsymbol":4114,"Ġavsk":4115,"ĠMal":4116,"ĠvÃ¤xt":4117,"ĠHo":4118,"Ġrisk":4119,"ĠMin":4120,"add":4121,"ĠsvÃ¥rt":4122,"dagen":4123,"Ã¶kt":4124,"ĠLÃ¥ng":4125,"strÃ¤ck":4126,"ockey":4127,"ĠstÃ¤llde":4128,"ĠOsc":4129,"ĠundersÃ¶k":4130,"Ã¤nk":4131,"ĠmiljÃ¶":4132,"ĠGeorge":4133,"ĠtÃ¥g":4134,"Ġuppfatt":4135,"ame":4136,"Ġinformation":4137,"44":4138,"Ġleder":4139,"ĠÃĸrebro":4140,"agnar":4141,"Ġmisst":4142,"nor":4143,"ĠfÃ¶rbÃ¤tt":4144,"Ġkombin":4145,"samm":4146,"ĠvÃ¤rldens":4147,"vall":4148,"Ġjakt":4149,"ĠWh":4150,"Ã¤ngden":4151,"acken":4152,"Ġ1959":4153,"ĠansÃ¥gs":4154,"lyck":4155,"38":4156,"orf":4157,"lare":4158,"eslut":4159,"ĠhÃ¶lls":4160,"ĠÃĸsterrike":4161,"ĠBla":4162,"Ġdrev":4163,"Ġpapp":4164,"ĠsjÃ¶n":4165,"ĠEric":4166,"ĠCity":4167,"ĠCounty":4168,"ĠnÃ¶d":4169,"Ġfigur":4170,"Ġ1955":4171,"istisk":4172,"kro":4173,"Ġstab":4174,"lav":4175,"ĠmÃ¥lare":4176,"adern":4177,"Ġ300":4178,"person":4179,"polit":4180,"eph":4181,"90":4182,"Ġ1500":4183,"Ġtest":4184,"Ġplatser":4185,"Ġersattes":4186,"ĠSamtid":4187,"Ġtolk":4188,"lÃ¤nderna":4189,"Ġunga":4190,"Ġexper":4191,"Ġdig":4192,"Ġreform":4193,"bord":4194,"Ġvinter":4195,"teri":4196,"Ġ1937":4197,"55":4198,"Ð°":4199,"ĠkÃ¤rlek":4200,"ssk":4201,"ĠfÃ¶rvalt":4202,"eden":4203,"ĠCharles":4204,"styr":4205,"ĠeftertrÃ¤d":4206,"Ġintresse":4207,"ĠvÃ¥r":4208,"ĠtrÃ¤n":4209,"unds":4210,"Ġbeskrivs":4211,"rens":4212,"delsen":4213,"kra":4214,"Ġljud":4215,"Ġslutligen":4216,"ĠPolen":4217,"ĠTvÃ¥":4218,"Ġmarknad":4219,"Ġbetydande":4220,"Ġstorlek":4221,"ĠMat":4222,"ĠerÃ¶v":4223,"Ġskrevs":4224,"ĠRichard":4225,"hopp":4226,"Ġbit":4227,"rande":4228,"ĠgÃ¤st":4229,"ĠFre":4230,"verksamhet":4231,"mera":4232,"ĠDjur":4233,"Ġtra":4234,"Ã¶nder":4235,"Ġhum":4236,"Ġskriva":4237,"Ġov":4238,"Ġ1953":4239,"Ġ1954":4240,"outh":4241,"Ġdomin":4242,"ĠSock":4243,"Ġses":4244,"ills":4245,"ĠNational":4246,"Ġdefin":4247,"arb":4248,"jul":4249,"ĠVatten":4250,"nÃ¤s":4251,"ĠFlyg":4252,"ĠRec":4253,"ĠvÃ¤rde":4254,"rÃ¤kt":4255,"ĠbefÃ¤l":4256,"Ġnorska":4257,"ĠWien":4258,"Ġresultat":4259,"ĠMichael":4260,"ĠHol":4261,"Ġtidiga":4262,"27":4263,"Ġ1914":4264,"Ġskapade":4265,"ĠAlla":4266,"Ġdokument":4267,"Ġlans":4268,"Ġvanliga":4269,"ĠgrÃ¤ns":4270,"rel":4271,"stein":4272,"Ġ1933":4273,"ikation":4274,"ĠGot":4275,"ĠsÃ¥ldes":4276,"Ã¥ne":4277,"Ġep":4278,"Ġtagit":4279,"ĠMatt":4280,"Ġ1928":4281,"ĠvÃ¥ld":4282,"cer":4283,"ĠBon":4284,"Ġframtid":4285,"Ã¤nts":4286,"okus":4287,"arn":4288,"Ġinval":4289,"isabet":4290,"33":4291,"flytt":4292,"ĠnÃ¤t":4293,"ĠFÃ¶rsta":4294,"laget":4295,"Ġkatol":4296,"fÃ¶rsamling":4297,"Ġgrad":4298,"ĠMagnus":4299,"fÃ¶dd":4300,"spro":4301,"isen":4302,"ĠkÃ¶pte":4303,"ĠlÃ¤ns":4304,"vetenskap":4305,"ĠStatus":4306,"49":4307,"ield":4308,"Ġ1951":4309,"hard":4310,"Ġmarken":4311,"26":4312,"svÃ¤g":4313,"blad":4314,"ĠJul":4315,"igheterna":4316,"orin":4317,"ĠTj":4318,"ĠVÃ¤rm":4319,"Ġinledde":4320,"ĠPat":4321,"ĠÃ¶vergick":4322,"Ġfel":4323,"uf":4324,"Ġverkade":4325,"Ã¶da":4326,"Ġ1912":4327,"arina":4328,"Ġreligi":4329,"fri":4330,"Ġspelet":4331,"Ġanal":4332,"Ġkart":4333,"iforn":4334,"Ġvarmaste":4335,"Ġtack":4336,"Ġbibliotek":4337,"Ġsatt":4338,"ĠfÃ¶rslag":4339,"ĠTekn":4340,"ĠtjÃ¤nstgjorde":4341,"Ġkallaste":4342,"ĠAs":4343,"omer":4344,"hang":4345,"usive":4346,"ĠvÃ¤ld":4347,"ĠMynnar":4348,"vÃ¤xt":4349,"Ġyrk":4350,"Ġ2019":4351,"ebyggelsen":4352,"ĠlÃ¤mna":4353,"adet":4354,"li":4355,"Ġmedeltemperaturen":4356,"ington":4357,"Ġvalkrets":4358,"rona":4359,"ĠSamtidigt":4360,"stud":4361,"ersk":4362,"ĠbelÃ¤gen":4363,"tion":4364,"ez":4365,"Ġ1924":4366,"arens":4367,"ĠallmÃ¤nna":4368,"ĠJu":4369,"ĠvÃ¥ren":4370,"amerika":4371,"ĠAngel":4372,"Ġbad":4373,"ssons":4374,"ĠhÃ¶gt":4375,"sÃ¤tta":4376,"ĠVic":4377,"station":4378,"Ã¥tar":4379,"Ã¥ga":4380,"Ġkoll":4381,"Ġutgiv":4382,"Ġinrikt":4383,"eby":4384,"61":4385,"smedeltemperaturen":4386,"pelare":4387,"orgs":4388,"Ġ1921":4389,"Ã¶stra":4390,"Ġflyttades":4391,"byggnaden":4392,"ĠGrand":4393,"hÃ¤ng":4394,"Ġprocess":4395,"smÃ¥l":4396,"ĠJacob":4397,"Ġomfattade":4398,"Ġensk":4399,"ikten":4400,"ĠÃħrsmedeltemperaturen":4401,"Ġco":4402,"ĠBru":4403,"ĠÃ¶kade":4404,"58":4405,"ĠGo":4406,"ĠChristian":4407,"ĠpopulÃ¤r":4408,"sburg":4409,"stift":4410,"reformen":4411,"Ġintroduc":4412,"Ġgrupper":4413,"ĠStra":4414,"ĠfÃ¶restÃ¤ll":4415,"Ġarranger":4416,"Ġavlade":4417,"Ġ1929":4418,"Ġvice":4419,"urn":4420,"wa":4421,"ugh":4422,"Ġpengar":4423,"Ġtvingades":4424,"vand":4425,"rÃ¤ft":4426,"ĠJak":4427,"Ġhy":4428,"lagt":4429,"ĠErn":4430,"ĠElisabet":4431,"Ġfilosofie":4432,"âĤ":4433,"Ġresa":4434,"ĠFilm":4435,"Ã¶de":4436,"bolag":4437,"Ġviktigaste":4438,"ĠSig":4439,"lay":4440,"mask":4441,"ĠfÃ¶rdel":4442,"ĠstjÃ¤rn":4443,"Ġundant":4444,"Ġinflytande":4445,"ĠUtseende":4446,"talen":4447,"43":4448,"ĠFlera":4449,"frÃ¥g":4450,"sin":4451,"oken":4452,"ĠIsland":4453,"tz":4454,"sbygg":4455,"edermera":4456,"ike":4457,"ĠÃ¤gg":4458,"ĠfÃ¶rhÃ¥llande":4459,"Ġmisslyck":4460,"ko":4461,"Ġkraftigt":4462,"ule":4463,"ĠfÃ¤rdig":4464,"splats":4465,"Ġytt":4466,"Ġide":4467,"Ġkines":4468,"Ġbyggde":4469,"Ġdagens":4470,"ĠBay":4471,"Ġrek":4472,"47":4473,"Ġon":4474,"ĠbÃ¤st":4475,"aller":4476,"Ġutbred":4477,"ĠfÃ¶remÃ¥l":4478,"ĠMil":4479,"agt":4480,"Ġ1934":4481,"Ġdryg":4482,"Ġlevde":4483,"rael":4484,"ĠLev":4485,"Ġtitel":4486,"Ġkal":4487,"Ġvetenskapliga":4488,"Ġengelsk":4489,"Ġ1935":4490,"ilen":4491,"Ġsteg":4492,"etts":4493,"skomm":4494,"ĠtÃ¤t":4495,"fer":4496,"Ġutvecklades":4497,"ledare":4498,"42":4499,"Ġindivider":4500,"cept":4501,"oph":4502,"ĠGran":4503,"ission":4504,"Ġinkluder":4505,"ĠPo":4506,"bor":4507,"Ġordet":4508,"Ġ1932":4509,"Ġ1925":4510,"ĠupprÃ¤tt":4511,"Ð¾":4512,"ĠÃ¶ppen":4513,"rÃ¶st":4514,"aner":4515,"ĠportrÃ¤tt":4516,"eng":4517,"Ġinsats":4518,"Ġantingen":4519,"ĠNu":4520,"Ġgitar":4521,"Ġsenaste":4522,"skon":4523,"banan":4524,"ender":4525,"Ġdenne":4526,"Ġbefolkningen":4527,"Ġeuropeiska":4528,"holmen":4529,"eral":4530,"Ġock":4531,"Ġ90":4532,"fÃ¤rg":4533,"37":4534,"ĠlÃ¤gre":4535,"ords":4536,"Ġorganisation":4537,"Ġkonfl":4538,"ĠlÃ¶s":4539,"ĠTom":4540,"unda":4541,"vens":4542,"Ġomfattning":4543,"ningss":4544,"ĠgÃ¥rden":4545,"kraft":4546,"angel":4547,"Ġsade":4548,"vÃ¤stra":4549,"Ġbank":4550,"stÃ¥r":4551,"Ġindivid":4552,"ĠmÃ¶tt":4553,"Ġ1922":4554,"ace":4555,"Ġutgjorde":4556,"36":4557,"Ġlopp":4558,"ĠifrÃ¥n":4559,"Ġgymnas":4560,"85":4561,"ĠVÃ¤stra":4562,"Ġkategoris":4563,"ritt":4564,"ĠId":4565,"ĠsÃ¤ger":4566,"ĠHuvud":4567,"Ġnio":4568,"ĠHelsingborg":4569,"46":4570,"uell":4571,"mÃ¤kt":4572,"ĠJÃ¤rn":4573,"jÃ¶l":4574,"istr":4575,"insk":4576,"ĠPl":4577,"Ġ1927":4578,"Ġbrittisk":4579,"ĠMarie":4580,"Ġigenom":4581,"ĠAss":4582,"Ã¥ngare":4583,"ĠWorld":4584,"tjÃ¤rnen":4585,"agg":4586,"Ġskrift":4587,"ĠvÃ¤nster":4588,"ĠÃĸver":4589,"ĠAnton":4590,"Ġbyggnaden":4591,"evis":4592,"Ġitalienska":4593,"eger":4594,"Ġsvarta":4595,"ĠÃĸv":4596,"Ġbrand":4597,"sby":4598,"Ġisl":4599,"Ġstraff":4600,"ĠGunnar":4601,"Ġjobb":4602,"Ġverksamheten":4603,"ryss":4604,"ĠgrÃ¤nsen":4605,"Ġdy":4606,"ĠHem":4607,"ĠBorg":4608,"Ġspanska":4609,"Ġrepresenterad":4610,"Ġutrikes":4611,"bolaget":4612,"ĠMy":4613,"dde":4614,"31":4615,"41":4616,"Ð¸":4617,"Ġidrott":4618,"ĠnÃ¤rheten":4619,"Ġ1908":4620,"Ġdit":4621,"ĠSmÃ¥":4622,"Ġkritik":4623,"forsk":4624,"ĠrÃ¥der":4625,"ĠNik":4626,"kontor":4627,"ĠAlexander":4628,"arter":4629,"fÃ¶rfatt":4630,"ĠArm":4631,"stiden":4632,"Ġarbetet":4633,"delser":4634,"32":4635,"ĠÃ¶gon":4636,"ĠÃ¤nda":4637,"ĠÃ¤ndÃ¥":4638,"Ġ1923":4639,"za":4640,"ĠÃĦl":4641,"stedt":4642,"Ã¤staren":4643,"Ġsal":4644,"ĠJohansson":4645,"ĠIr":4646,"ĠLouis":4647,"Ġrid":4648,"jÃ¤rna":4649,"Ġeld":4650,"Ġent":4651,"ĠFÃ¶ret":4652,"Ġvist":4653,"arg":4654,"ĠMargar":4655,"Ġstaten":4656,"Ġprins":4657,"ĠlÃ¤kare":4658,"ĠBakgrund":4659,"ĠfrÃ¥gor":4660,"ĠÃ¶ppna":4661,"Ġ1926":4662,"Ġskatt":4663,"Ġomfattar":4664,"ĠavgÃ¶r":4665,"ĠModer":4666,"anj":4667,"isering":4668,"ĠIndien":4669,"ĠgrÃ¶":4670,"ĠHot":4671,"Ġmatemat":4672,"marna":4673,"iftet":4674,"Ġ1907":4675,"St":4676,"ĠPark":4677,"ĠBengt":4678,"ĠhÃ¶ger":4679,"fÃ¶rbundet":4680,"Ġ1905":4681,"ĠDaniel":4682,"ĠvÃ¤ck":4683,"Ġorig":4684,"unnits":4685,"Ã¤kare":4686,"ĠKarriÃ¤r":4687,"exik":4688,"Ġ1931":4689,"ieb":4690,"ĠdÃ¤ribland":4691,"ĠEU":4692,"aliska":4693,"ĠAlbert":4694,"ligheten":4695,"Ġalternat":4696,"ĠNederlÃ¤nderna":4697,"Ġriket":4698,"jud":4699,"ĠstÃ¤m":4700,"Ġprinci":4701,"ĠsÃ¥dana":4702,"plom":4703,"Ġ1906":4704,"Ġveckor":4705,"ĠFÃ¶rutom":4706,"Ġexemplar":4707,"ĠFort":4708,"ĠtÃ¤vlingen":4709,"wood":4710,"orget":4711,"Ġ1911":4712,"ĠfÃ¶rsamlingen":4713,"ĠJÃ¶n":4714,"vok":4715,"Ġdrottning":4716,"Ġsyfte":4717,"nytt":4718,"ĠMus":4719,"vard":4720,"ze":4721,"ĠfÃ¶ren":4722,"ĠsamhÃ¤llet":4723,"ĠgÃ¥tt":4724,"san":4725,"bÃ¤cken":4726,"ordon":4727,"ĠNilsson":4728,"Ġutform":4729,"amerik":4730,"Ġcivil":4731,"oper":4732,"ĠBrand":4733,"Ġmand":4734,"ĠhÃ¥rd":4735,"ĠslÃ¤ppte":4736,"Ġ1909":4737,"iment":4738,"bud":4739,"num":4740,"Ġuppgifter":4741,"sal":4742,"Ġnatt":4743,"Ġsats":4744,"ĠfÃ¶rsÃ¶ker":4745,"Ġriksdagen":4746,"Ġnog":4747,"ĠtillstÃ¥nd":4748,"ĠDo":4749,"ĠHoll":4750,"Ġdagen":4751,"Ġbygger":4752,"ĠsÃ¤":4753,"Ġ400":4754,"jus":4755,"Ġstann":4756,"Ġena":4757,"Ġtidig":4758,"Ġbilder":4759,"Ġfinalen":4760,"ĠmÃ¤nsk":4761,"iserade":4762,"upen":4763,"edag":4764,"Ġposit":4765,"ĠGÃ¶r":4766,"tÃ¤v":4767,"Ġev":4768,"ĠÃ¥ng":4769,"iger":4770,"inder":4771,"Ġfokus":4772,"ĠNic":4773,"ĠSjÃ¶":4774,"Ġavsl":4775,"Ã¤nkt":4776,"umb":4777,"Ġkrav":4778,"Ġkvinna":4779,"oret":4780,"ĠdirektÃ¶r":4781,"Ġdelstaten":4782,"Ġstrand":4783,"iella":4784,"Ġtank":4785,"Ġgrekiska":4786,"Ġvet":4787,"ĠnivÃ¥":4788,"...":4789,"allt":4790,"Ġanfall":4791,"Ġextra":4792,"Ġmun":4793,"ĠFamilj":4794,"inav":4795,"ĠFÃ¥g":4796,"Ġrysk":4797,"ĠKanada":4798,"do":4799,"Ġallvar":4800,"Ġgodk":4801,"ierade":4802,"Ġgren":4803,"99":4804,"Ġfru":4805,"kap":4806,"atik":4807,"alats":4808,"ĠlÃ¤ngd":4809,"uellt":4810,"ĠFlor":4811,"ĠhÃ¤ng":4812,"ĠuppmÃ¤rksamm":4813,"ĠTex":4814,"Ã§":4815,"Ġpolitik":4816,"ĠSÃ¥":4817,"ĠvarfÃ¶r":4818,"log":4819,"Ġindel":4820,"Ġuniversitetet":4821,"Ġskrifter":4822,"rÃ¤ff":4823,"ĠInter":4824,"ĠLunds":4825,"ĠRoy":4826,"ĠvÃ¤ldigt":4827,"enden":4828,"estivalen":4829,"Ġacc":4830,"ĠÃ¤tt":4831,"Ġmedborg":4832,"ĠsÃ¥lde":4833,"fÃ¤rd":4834,"ĠInternational":4835,"Ġ1890":4836,"apnet":4837,"88":4838,"Ġjurid":4839,"way":4840,"ĠOscar":4841,"Ã«":4842,"ĠRam":4843,"prÃ¥k":4844,"ĠframstÃ¤ll":4845,"ĠAir":4846,"ĠRed":4847,"ĠVerk":4848,"ĠWall":4849,"ink":4850,"Ġpj":4851,"Ġdelas":4852,"ĠSkÃ¥ne":4853,"skaff":4854,"Ã¶arna":4855,"ningens":4856,"Ġmenar":4857,"ĠfÃ¶rlag":4858,"ĠFried":4859,"Ġinget":4860,"ĠstÃ¤ng":4861,"Ġhette":4862,"unga":4863,"rÃ¶relsen":4864,"ĠNorth":4865,"ĠKa":4866,"ĠtillrÃ¤ck":4867,"ĠKyrkan":4868,"Ġ1913":4869,"Ġseri":4870,"rol":4871,"Ġdrygt":4872,"annol":4873,"ĠÃĸstra":4874,"ĠutfÃ¶rde":4875,"Ġviktiga":4876,"own":4877,"Ġadel":4878,"Ġring":4879,"andinav":4880,"jÃ¤rvi":4881,"Ġkamm":4882,"Ġpark":4883,"ĠhÃ¥ller":4884,"ĠMax":4885,"elle":4886,"tekn":4887,"Ġpublicerade":4888,"ĠVissa":4889,"Ġ170":4890,"stone":4891,"Ġdisp":4892,"Ġbal":4893,"alistiska":4894,"Ã¶ner":4895,"ĠfÃ¶ljer":4896,"Ġdubbel":4897,"-,":4898,"ĠvÃ¤rd":4899,"Ġweb":4900,"rasil":4901,"HL":4902,"ĠDi":4903,"Ġhandels":4904,"uch":4905,"Ġsommar":4906,"Ġtem":4907,"Ġfyr":4908,"The":4909,"ustrin":4910,"ĠSn":4911,"ĠNi":4912,"Ġkonstrukt":4913,"ĠâĢ":4914,"Ġansl":4915,"Ġkallat":4916,"sgatan":4917,"Ġkommunal":4918,"stat":4919,"hi":4920,"95":4921,"sket":4922,"arbetare":4923,"pol":4924,"neteck":4925,"ĠLudvig":4926,"kademien":4927,"ubliken":4928,"Ġstation":4929,"Ġverkar":4930,"fabrik":4931,"ĠdÃ¶r":4932,"distrikt":4933,"ĠJer":4934,"Ġfinska":4935,"ĠUme":4936,"Ã¤bb":4937,"Ġvunnit":4938,"Ġ1915":4939,"ĠinnehÃ¥ll":4940,"Ġledande":4941,"ĠmilitÃ¤ra":4942,"ĠFÃ¤r":4943,"brun":4944,"ua":4945,"Ġensam":4946,"ĠKalmar":4947,"Ġinitiat":4948,"ĠLapp":4949,"ake":4950,"Ġklipp":4951,"ĠÃ¤gare":4952,"ĠfinlÃ¤ndsk":4953,"ekreterare":4954,"Ġ1916":4955,"domen":4956,"Ġordin":4957,"ĠSocknen":4958,"stron":4959,"ĠLid":4960,"Ġmots":4961,"ĠÃĸr":4962,"olin":4963,"Ġtri":4964,"kvar":4965,"atta":4966,"ĠfÃ¶rekom":4967,"ĠAustralien":4968,"ĠanvÃ¤nts":4969,"Ġstandard":4970,"smin":4971,"satta":4972,"azz":4973,"ĠKvar":4974,"Ġminuter":4975,"ĠfÃ¶rÃ¤ldrar":4976,"Ġnomin":4977,"Ġsign":4978,"platser":4979,"Ġkvinnliga":4980,"Ġinklusive":4981,"vÃ¤rd":4982,"ĠVir":4983,"ĠAp":4984,"Ġtotal":4985,"Ġ1880":4986,"Äĩ":4987,"Ġfloden":4988,"Ġmodell":4989,"ĠbestÃ¥ende":4990,"smark":4991,"redik":4992,"ĠCan":4993,"ĠSchweiz":4994,"Ġbehov":4995,"rof":4996,"ĠDem":4997,"Ġundantag":4998,"Ġsociala":4999,"ĠupphÃ¶rde":5000,"ademien":5001,"Ġsedermera":5002,"ĠArbet":5003,"rimin":5004,"Ġkanske":5005,"ĠPrin":5006,"Ġdomstol":5007,"ĠAc":5008,"Ġprim":5009,"ĠDock":5010,"vakt":5011,"Ġreste":5012,"Ġpian":5013,"ima":5014,"ĠgÃ¤r":5015,"tera":5016,"Ġforsknings":5017,"ĠTra":5018,"astighet":5019,"ĠAnn":5020,"trÃ¤ff":5021,"Ġskiljer":5022,"kyrka":5023,"ĠArk":5024,"stall":5025,"ĠÃ¥terfin":5026,"medel":5027,"Ġvisa":5028,"Ġmotsvarar":5029,"vatten":5030,"fÃ¥g":5031,"89":5032,"ĠfÃ¶rlÃ¤ng":5033,"Ã¶ster":5034,"ĠgenomfÃ¶rdes":5035,"Ġjorden":5036,"Ġbakgrund":5037,"Ġlivskraft":5038,"59":5039,"atÃ¶r":5040,"uts":5041,"elius":5042,"Ġofficiella":5043,"Ġspets":5044,"ollege":5045,"ektiv":5046,"Ġlandst":5047,"ĠmÃ¶jlighet":5048,"54":5049,"Ġregemente":5050,"sidan":5051,"rafiken":5052,"83":5053,"ĠVis":5054,"ologisk":5055,"skad":5056,"Ġvinna":5057,"ĠOper":5058,"anken":5059,"Ġrollen":5060,"Ġkvarter":5061,"Ġdoms":5062,"ĠdÃ¤remot":5063,"Ġkapten":5064,"ois":5065,"ĠstÃ¤llning":5066,"Ġpresenter":5067,"Ġtom":5068,"Ã¤sterskapet":5069,"Ġbeskrev":5070,"Ġsovjet":5071,"ĠRock":5072,"Ġskapades":5073,"Ġperioden":5074,"86":5075,"Ã¤ttning":5076,"orps":5077,"peri":5078,"ĠSi":5079,"Ġbot":5080,"ĠOtto":5081,"ĠÃ¶versÃ¤tt":5082,"ĠSÃ¤songen":5083,"Ġfotograf":5084,"Ġting":5085,"vor":5086,"ĠfÃ¶rbund":5087,"ĠJoseph":5088,"eds":5089,"urs":5090,"ĠVall":5091,"Ġtu":5092,"ĠSovjetunionen":5093,"Ġoffentliga":5094,"ympiska":5095,"orit":5096,"Ġmeddelade":5097,"ova":5098,"etten":5099,"Ġfir":5100,"ĠfÃ¶rvÃ¤r":5101,"Ġfyll":5102,"Ġtrum":5103,"Ġuttal":5104,"56":5105,"ĠEst":5106,"ĠguvernÃ¶r":5107,"Ġfien":5108,"ĠCal":5109,"ĠTour":5110,"ĠberÃ¤ttar":5111,"ĠFinlands":5112,"Ġseger":5113,"Ġfrukt":5114,"osa":5115,"ĠÃ¶verlev":5116,"handel":5117,"Ġresul":5118,"Ġko":5119,"ĠMac":5120,"Ġanklag":5121,"Ġtekniska":5122,"Ġillust":5123,"gÃ¥":5124,"nden":5125,"Ġort":5126,"ĠstrÃ¶m":5127,"Ġdekor":5128,"Ġinre":5129,"delar":5130,"Ġnationella":5131,"Ġsitu":5132,"lÃ¤ggning":5133,"ĠprÃ¤g":5134,"estival":5135,"ĠVictor":5136,"ĠMu":5137,"ĠAlbum":5138,"Ġkommunreformen":5139,"slo":5140,"Ġradio":5141,"Ġforskare":5142,"52":5143,"edition":5144,"ĠhÃ¤rst":5145,"vika":5146,"ledning":5147,"fart":5148,"ionens":5149,"NA":5150,"Ġutspel":5151,"ĠSV":5152,"ĠRud":5153,"Ġfunnits":5154,"gÃ¶tland":5155,"arv":5156,"Ġresten":5157,"Ġutvecklade":5158,"Ġsaknar":5159,"ussen":5160,"Ġklart":5161,"Ġknapp":5162,"ĠLos":5163,"Ġret":5164,"Ġattack":5165,"stÃ¥ndet":5166,"Ġkyrkor":5167,"ĠsÃ¤ndes":5168,"ĠMÃ¼n":5169,"iru":5170,"unde":5171,"rot":5172,"ollar":5173,"84":5174,"Ġflykt":5175,"ĠutÃ¶k":5176,"ĠÃĸsters":5177,"Ġregistr":5178,"ĠbehÃ¶ver":5179,"ĠJÃ¤mt":5180,"Ġlagen":5181,"skepp":5182,"uru":5183,"ĠJakob":5184,"Ġ1870":5185,"ĠIV":5186,"gress":5187,"Ġupphov":5188,"isterna":5189,"Ġmedeltiden":5190,"Ġkult":5191,"Ġspeciellt":5192,"kla":5193,"Ġsport":5194,"ĠCup":5195,"Ġexamen":5196,"sberg":5197,"Ã¥ring":5198,"ĠBert":5199,"Ġ1904":5200,"Ġtros":5201,"Ġsingel":5202,"sid":5203,"Ġskjut":5204,"ĠHenry":5205,"Ġek":5206,"57":5207,"dal":5208,"Ġsuc":5209,"ĠVÃ¤rld":5210,"ugo":5211,"Ġ1902":5212,"82":5213,"ĠfÃ¶rfattaren":5214,"ĠdÃ¶da":5215,"Ġdiplom":5216,"Ġ1903":5217,"Ã¶tter":5218,"ĠĠĠĠĠĠĠĠ":5219,"Ġ150":5220,"ningom":5221,"ĠMosk":5222,"ĠComp":5223,"Ġkategoriserar":5224,"namnet":5225,"ĠKlubb":5226,"ĠChamp":5227,"ellet":5228,"Ġvare":5229,"Ġtegel":5230,"uvudet":5231,"ĠtrÃ¤dgÃ¥rd":5232,"ĠKaliforn":5233,"53":5234,"ĠSo":5235,"ĠKron":5236,"lo":5237,"valet":5238,"ĠfaststÃ¤ll":5239,"ĠutmÃ¤rk":5240,"gÃ¥r":5241,"Ġelever":5242,"Ġhemma":5243,"gÃ¥ende":5244,"ĠKap":5245,"ensen":5246,"samheten":5247,"Ġdator":5248,"Ġpublicerades":5249,"Ġutrust":5250,"Ġrepublik":5251,"ĠsmÃ¥ningom":5252,"Ġomgiv":5253,"ĠKv":5254,"ĠnÃ¤sta":5255,"51":5256,"ĠExempel":5257,"Ġbetydligt":5258,"ome":5259,"Ġpoj":5260,"Ġkristna":5261,"manland":5262,"ĠBrun":5263,"ĠHÃ¶":5264,"Ġgods":5265,"Ġpers":5266,"ĠanstÃ¤llda":5267,"ĠKalifornien":5268,"ĠingenjÃ¶r":5269,"arskap":5270,"Ġbrun":5271,"Ġfemte":5272,"Ðµ":5273,"rien":5274,"onsin":5275,"Ġcentimeter":5276,"ĠtÃ¤cker":5277,"aster":5278,"Ġslottet":5279,"Ġegentligen":5280,"ĠfÃ¶rsÃ¤lj":5281,"ĠÃ¥terfinns":5282,"ipend":5283,"Ġprovinsen":5284,"Ġlatin":5285,"ĠlÃ¶p":5286,"ĠHag":5287,"Ġsjukhus":5288,"arbete":5289,"ĠBlack":5290,"Ġbildar":5291,"offic":5292,"skrivning":5293,"Ġklimat":5294,"Ġordinarie":5295,"Ġmynnar":5296,"Ġhind":5297,"partementet":5298,"Ġsand":5299,"Ġheller":5300,"alitet":5301,"iller":5302,"98":5303,"Ġkontroll":5304,"Ġsh":5305,"ĠinfÃ¶rdes":5306,"ior":5307,"skiftet":5308,"ico":5309,"ĠRep":5310,"Ġprecis":5311,"Ġriv":5312,"ningsomrÃ¥de":5313,"gÃ¥ngar":5314,"Ġpolitisk":5315,"ĠWar":5316,"irk":5317,"elod":5318,"erier":5319,"ĠNo":5320,"Ġges":5321,"gin":5322,"Ġlade":5323,"ĠsÃ¤l":5324,"Ġmur":5325,"Ġbud":5326,"stÃ¤llningar":5327,"bot":5328,"ĠLik":5329,"lande":5330,"Ġstopp":5331,"Ġback":5332,"ĠSel":5333,"ĠanstÃ¤lld":5334,"Ġlivskraftig":5335,"Ġkast":5336,"skill":5337,"Ġkompon":5338,"ĠvÃ¤gg":5339,"ĠUmeÃ¥":5340,"ĠfÃ¤ngelse":5341,"ĠOS":5342,"ĠZe":5343,"ĠSvart":5344,"gas":5345,"ĠSuper":5346,"Ġsonen":5347,"daf":5348,"ĠmedfÃ¶r":5349,"Ġrevs":5350,"Ġambass":5351,"Ġutnytt":5352,"Ġarab":5353,"ografiska":5354,"ĠfÃ¶rlust":5355,"Ġstudera":5356,"Ġprofession":5357,"Ġkontin":5358,"bryt":5359,"ĠCentral":5360,"klam":5361,"gu":5362,"anger":5363,"ĠÃ¥terigen":5364,"ĠAdam":5365,"Ã¤dd":5366,"ĠfÃ¶rh":5367,"sakademien":5368,"trÃ¤dande":5369,"Ġmandat":5370,"din":5371,"press":5372,"hets":5373,"mon":5374,"ĠDa":5375,"Ġkonserv":5376,"ĠBa":5377,"itat":5378,"Ġmanus":5379,"ĠÃ¤mnen":5380,"Ġtyper":5381,"Ġvarefter":5382,"inst":5383,"ĠfÃ¶rd":5384,"Ġstycken":5385,"Ġposition":5386,"ĠomnÃ¤m":5387,"ĠKall":5388,"ĠRadio":5389,"Ġpil":5390,"ĠFC":5391,"Ġutkom":5392,"Ġvanligtvis":5393,"svÃ¤gen":5394,"ĠMars":5395,"ĠBas":5396,"ĠFriedrich":5397,"ĠSof":5398,"Ġkunskap":5399,"kont":5400,"Ġ1901":5401,"Ã¸r":5402,"botten":5403,"ĠvÃ¥rd":5404,"ektor":5405,"bott":5406,"edda":5407,"vapen":5408,"ĠLi":5409,"ĠStrÃ¶m":5410,"jÃ¤rnan":5411,"Ġfack":5412,"Ġdam":5413,"Ġlog":5414,"ĠBrit":5415,"Ġenergi":5416,"malm":5417,"ssÃ¤tt":5418,"Ġanpass":5419,"Ġspec":5420,"Ġutfl":5421,"ĠÃ¶vrigt":5422,"Ġmig":5423,"ĠvÃ¤nner":5424,"Ġmatchen":5425,"rÃ¤tten":5426,"ligaste":5427,"ĠbehÃ¶v":5428,"Ġkam":5429,"Ġmod":5430,"Ġriktning":5431,"Ġmenade":5432,"Ġkyrkans":5433,"Ġhamnade":5434,"Ġbrons":5435,"Ġlek":5436,"ee":5437,"gÃ¤r":5438,"87":5439,"porter":5440,"ĠmÃ¥nad":5441,"Ã¶rde":5442,"Ġkoncent":5443,"fot":5444,"Ġtorn":5445,"ĠvÃ¤rv":5446,"Ġbostads":5447,"Ġupplev":5448,"ĠtillgÃ¤ng":5449,"Ġspelaren":5450,"ĠJesus":5451,"Ġbetal":5452,"ĠBoh":5453,"ble":5454,"ĠnÃ¤mnas":5455,"Ġstam":5456,"ĠÃ¶ppnade":5457,"aktion":5458,"ĠRosen":5459,"aure":5460,"92":5461,"ingarna":5462,"Ġavl":5463,"ĠkÃ¤nsl":5464,"Ġ=":5465,"bes":5466,"ĠLilla":5467,"asta":5468,"smed":5469,"Ġrest":5470,"Ġork":5471,"dat":5472,"enta":5473,"ĠanvÃ¤ndning":5474,"Ġbeford":5475,"Ġsitter":5476,"ĠOx":5477,"Ġarv":5478,"Ġregl":5479,"Ã¤lla":5480,"81":5481,"itel":5482,"Ġstyrk":5483,"Ġdelarna":5484,"Ġrepresenterade":5485,"rett":5486,"edes":5487,"ĠfÃ¶rrÃ¤n":5488,"Ġkyrkog":5489,"lle":5490,"Ġrenover":5491,"mÃ¤ktige":5492,"hÃ¶gskolan":5493,"gift":5494,"ane":5495,"agande":5496,"Ġsoldater":5497,"Ġskriven":5498,"Ġvarierar":5499,"fartyg":5500,"ĠsprÃ¥ket":5501,"ĠBjÃ¶rn":5502,"Ġvik":5503,"ĠÃ¶sterrik":5504,"Ġradi":5505,"Ġprotest":5506,"ĠÃħbo":5507,"ologin":5508,"ht":5509,"ĠOslo":5510,"Ġkristen":5511,"ĠBet":5512,"ĠCor":5513,"ĠEt":5514,"sklimat":5515,"ĠfÃ¶rbl":5516,"ĠSouth":5517,"ĠavslÃ¶j":5518,"Ġos":5519,"ĠHammar":5520,"ĠLarsson":5521,"ĠErnst":5522,"rÃ¶d":5523,"Ġsatte":5524,"ĠRob":5525,"ĠkÃ¤rn":5526,"kust":5527,"ĠfÃ¶":5528,"Ġheders":5529,"Ã¥riga":5530,"Ġsynner":5531,"liggande":5532,"schef":5533,"sÃ¶k":5534,"cht":5535,"ĠLjung":5536,"ĠPal":5537,"97":5538,"ary":5539,"Ġvind":5540,"Ġarbetat":5541,"ĠInland":5542,"ĠMarc":5543,"Ġforn":5544,"ellen":5545,"uslim":5546,"zo":5547,"amma":5548,"server":5549,"abri":5550,"Ġinleddes":5551,"ĠLo":5552,"ektion":5553,"ps":5554,"Ġpublik":5555,"Ġliber":5556,"ĠKe":5557,"ystemet":5558,"Ġjul":5559,"Ġbeskri":5560,"Ġverket":5561,"Ġkul":5562,"Ġrund":5563,"93":5564,"Ġbolag":5565,"Ġmotiv":5566,"ĠRecords":5567,"ĠvÃ¥g":5568,"ĠBelg":5569,"Ġorten":5570,"Ġkyrkoh":5571,"ĠSve":5572,"Ġdivision":5573,"Ġtrupper":5574,"Ġmekan":5575,"Ġrepresentant":5576,"ĠlÃ¶":5577,"fisk":5578,"Ġstorm":5579,"Ġuppn":5580,"Ġadvok":5581,"Ġ[":5582,"Ġmuseet":5583,"Ġelev":5584,"organisation":5585,"ĠstrÃ¤cker":5586,"obygg":5587,"ĠFÃ¶rsvar":5588,"Ġrock":5589,"Ġarke":5590,"Ġleda":5591,"Ġtolv":5592,"ĠÃ¤gnade":5593,"Ġsannol":5594,"Ġobjekt":5595,"Ġlast":5596,"ĠDeras":5597,"beroende":5598,"Ġprogrammet":5599,"ĠKong":5600,"ĠGÃ¤v":5601,"priset":5602,"ain":5603,"ĠAward":5604,"Ġbut":5605,"Ġmusiker":5606,"asin":5607,"po":5608,"orier":5609,"ĠEle":5610,"ĠinnehÃ¶ll":5611,"ĠSVT":5612,"Ġregionen":5613,"Ġ1200":5614,"strid":5615,"Ġ1897":5616,"ĠEmil":5617,"Ġ1885":5618,"ĠCap":5619,"Ġanord":5620,"ĠCollege":5621,"Ġkroppen":5622,"ĠDu":5623,"ĠnÃ¥":5624,"Ġsocialdemokrat":5625,"ĠVattendraget":5626,"Ġavveck":5627,"pan":5628,"alan":5629,"Ġalk":5630,"Ġdial":5631,"Ã¤nna":5632,"Ġuppror":5633,"dera":5634,"96":5635,"ĠHos":5636,"Ġsty":5637,"ingenjÃ¶r":5638,"spelet":5639,"Ġlic":5640,"ĠfrÃ¥gorna":5641,"familj":5642,"ĠKu":5643,"ares":5644,"ĠHit":5645,"Ġminnes":5646,"ĠGrek":5647,"slin":5648,"dam":5649,"ydde":5650,"Ġinstrument":5651,"Ġtemperatur":5652,"Ġdistriktet":5653,"Ġupplagan":5654,"Ġkloster":5655,"arder":5656,"Ġske":5657,"narna":5658,"ĠnÃ¤rmare":5659,"ĠSomm":5660,"ĠVetenskap":5661,"svall":5662,"ĠJa":5663,"Å¡":5664,"strand":5665,"skydd":5666,"ĠLib":5667,"ĠtillrÃ¤ckligt":5668,"ums":5669,"ĠCarol":5670,"ĠAfrika":5671,"slagen":5672,"Ġenhet":5673,"91":5674,"Ġofficiellt":5675,"rerade":5676,"ĠlÃ¤s":5677,"ĠBart":5678,"ĠslÃ¤ktet":5679,"ĠsÃ¶k":5680,"Ġmotsvarande":5681,"yld":5682,"ĠBern":5683,"Ġ1860":5684,"94":5685,"ĠAlfred":5686,"ĠupplÃ¶st":5687,"ĠSkol":5688,"ĠutÃ¶v":5689,"mak":5690,"Ġbolaget":5691,"Ġborger":5692,"ĠInfÃ¶r":5693,"Ġras":5694,"VM":5695,"ĠGamla":5696,"flott":5697,"Ġsan":5698,"Ġrec":5699,"rer":5700,"ilde":5701,"ĠdÃ¶tt":5702,"ĠHell":5703,"Ġbiograf":5704,"ĠfÃ¶rde":5705,"smÃ¤n":5706,"rare":5707,"Ġpolitiskt":5708,"ĠVarje":5709,"fÃ¶rfattare":5710,"ĠJag":5711,"Ġkontroller":5712,"Ġaut":5713,"ĠfÃ¶reningen":5714,"Ã¶ds":5715,"ekonom":5716,"Ġ1899":5717,"Ġ160":5718,"Ġbon":5719,"ssa":5720,"Ġbostad":5721,"samt":5722,"beck":5723,"Ġnorsk":5724,"ĠSmith":5725,"ĠWash":5726,"Ġvide":5727,"ĠTot":5728,"ĠfÃ¶red":5729,"Ġutvecklingen":5730,"por":5731,"Ġmyt":5732,"yper":5733,"iten":5734,"park":5735,"ĠhÃ¶gst":5736,"ĠInlandsklimat":5737,"Ġ/":5738,"Ġassist":5739,"ids":5740,"ĠdÃ¶mdes":5741,"gent":5742,"ĠÃ¶verv":5743,"acka":5744,"Ġfungerar":5745,"tra":5746,"Ġkrets":5747,"skrona":5748,"ĠÃ¶ppnades":5749,"ĠkrÃ¤":5750,"ĠFN":5751,"ĠMary":5752,"Ġbidrog":5753,"ĠByggnaden":5754,"ĠFrancis":5755,"ĠtillÃ¤mp":5756,"sÃ¤tter":5757,"Ġmakten":5758,"Ġinternationellt":5759,"alism":5760,"ĠSil":5761,"valt":5762,"figur":5763,"Ã¶jd":5764,"stens":5765,"isch":5766,"minstone":5767,"Ġ1895":5768,"Ġvol":5769,"lÃ¶sa":5770,"Ġformer":5771,"arab":5772,"Ġvand":5773,"kast":5774,"Ġtimmar":5775,"Ġbotten":5776,"ican":5777,"ĠPalm":5778,"ront":5779,"ĠSong":5780,"tryck":5781,"iell":5782,"Ġish":5783,"umm":5784,"ĠSvensk":5785,"ical":5786,"ks":5787,"ĠSchool":5788,"eh":5789,"Ġvack":5790,"Ã¶met":5791,"ĠkÃ¶ptes":5792,"Ġbevis":5793,"ces":5794,"ĠEuro":5795,"feld":5796,"unna":5797,"Ġ600":5798,"ĠhÃ¤lften":5799,"ĠCom":5800,"ingsl":5801,"ĠslÃ¥":5802,"ĠAvrinningsomrÃ¥dets":5803,"okal":5804,"ĠDom":5805,"Ġgoda":5806,"ivisionen":5807,"ĠFÃ¶retaget":5808,"vju":5809,"ĠvÃ¤xter":5810,"lÃ¤kt":5811,"Ġtror":5812,"Ġkortare":5813,"ĠIns":5814,"ĠInnan":5815,"nens":5816,"ligheter":5817,"ĠOvan":5818,"Ġolyck":5819,"bana":5820,"Ġwebb":5821,"ati":5822,"Ġavanc":5823,".)":5824,"Ġdon":5825,"Ġutgavs":5826,"ĠAtl":5827,"mÃ¤ss":5828,"Ġ1898":5829,"Ã¤cks":5830,"ĠÃ¶versÃ¤ttning":5831,"Ġminska":5832,"Ġgett":5833,"lunda":5834,"ians":5835,"ĠNap":5836,"stÃ¤llningen":5837,"uer":5838,"ĠSS":5839,"uth":5840,"ele":5841,"Ġjapanska":5842,"ĠhÃ¤mt":5843,"ĠDes":5844,"ĠStan":5845,"ulla":5846,"museum":5847,"ĠÃ¶verst":5848,"Ġbetraktas":5849,"stug":5850,"stil":5851,"Ġfly":5852,"naderna":5853,"ĠredaktÃ¶r":5854,"otyp":5855,"Ġintill":5856,"Ġkomposit":5857,"sstyr":5858,"ĠTo":5859,"Ã¶vd":5860,"sons":5861,"iana":5862,"Ã¥ret":5863,"Ġslogs":5864,"nde":5865,"Ġbevarade":5866,"Ġprov":5867,"ower":5868,"ĠJÃ¤r":5869,"Ġsnar":5870,"ĠdÃ¶p":5871,"ĠVill":5872,"rateg":5873,"Ġ1889":5874,"faren":5875,"ĠProdu":5876,"Ġaccep":5877,"Ġ1896":5878,"Ġlitet":5879,"olag":5880,"ĠTurk":5881,"Ġsyns":5882,"Ð½":5883,"Ġplatt":5884,"Ġsvenskt":5885,"pa":5886,"quist":5887,"Ġutseende":5888,"sfisk":5889,"Ġstav":5890,"Ã¤nsl":5891,"urer":5892,"ĠJord":5893,"ĠfÃ¶rel":5894,"ĠmÃ¥ng":5895,"Ġuppstod":5896,"Ġsekreterare":5897,"fÃ¶rord":5898,"TV":5899,"Ġsattes":5900,"eda":5901,"rÃ¥l":5902,"Ã¤tte":5903,"Ġbeskriver":5904,"Ġmetall":5905,"aktig":5906,"Ã¤sterskapen":5907,"ĠPetter":5908,"skrift":5909,"Ġkorta":5910,"ĠTri":5911,"ury":5912,"ĠGal":5913,"Ġteknik":5914,"kat":5915,"Ġslav":5916,"ĠSon":5917,"Ġgott":5918,"skottet":5919,"Ġhitta":5920,"ĠfÃ¶rf":5921,"Ġmar":5922,"Ġopera":5923,"ĠÃ¶vre":5924,"ĠframÃ¥t":5925,"ba":5926,"Ġanser":5927,"Ġfader":5928,"mun":5929,"ĠSun":5930,"ĠFar":5931,"ĠbrÃ¶d":5932,"ĠKo":5933,"ĠLy":5934,"ĠIm":5935,"edagog":5936,"ĠHj":5937,"skrifter":5938,"ĠFo":5939,"ĠsÃ¤llan":5940,"Ġbehandling":5941,"ĠbekrÃ¤ft":5942,"ĠberÃ¤k":5943,"Ġfur":5944,"ĠMiss":5945,"Ã¤p":5946,"Ġkra":5947,"ĠDahl":5948,"ĠBure":5949,"ĠÃħret":5950,"Ġ1863":5951,"Ġsidor":5952,"iÄĩ":5953,"karriÃ¤r":5954,"skrig":5955,"ĠMoskva":5956,"ĠAI":5957,"Ġbeslutade":5958,"agare":5959,"Ġbedrev":5960,"ĠSing":5961,"Ã¤ven":5962,"Ġtillbring":5963,"systemet":5964,"Ġgas":5965,"Ġmetod":5966,"ningst":5967,"ĠDivision":5968,"Ġskriver":5969,"ĠtillfÃ¤llen":5970,"ÑĢ":5971,"Ġfolket":5972,"iellt":5973,"ota":5974,"ĠrÃ¶da":5975,"Ã©r":5976,"ĠhÃ¤m":5977,"ĠnÃ¶dvÃ¤nd":5978,"ĠlÃ¥n":5979,"industri":5980,"shÃ¶vd":5981,"hamns":5982,"\").":5983,"skning":5984,"Ġcount":5985,"orts":5986,"SS":5987,"derna":5988,"havare":5989,"lov":5990,"Ġ1888":5991,"Ġdollar":5992,"Ġpension":5993,"Ġelektron":5994,"Ġyrkes":5995,"ĠLenn":5996,"ĠfortsÃ¤tta":5997,"ĠRy":5998,"Ġunderl":5999,"ĠbesÃ¶kte":6000,"Ã³n":6001,"Ġtraditionella":6002,"ĠKnut":6003,"ĠHor":6004,"ĠNorden":6005,"ges":6006,"ient":6007,"Ġritningar":6008,"ĠutflÃ¶de":6009,"iets":6010,"Ġtakt":6011,"tysk":6012,"Åį":6013,"Ġuppe":6014,"ĠallmÃ¤nt":6015,"ĠpÃ¥trÃ¤ff":6016,"Ġ1000":6017,"ĠuppmÃ¤rksamhet":6018,"Ġ32":6019,"Ġ1892":6020,"ĠmÃ¶rd":6021,"studier":6022,"ĠbrÃ¶st":6023,"Ġsyss":6024,"Ġhonan":6025,"Ġ,":6026,".,":6027,"yllen":6028,"ĠFÃ¶rst":6029,"ĠWashington":6030,"amÃ¥l":6031,"ison":6032,"Ġspecial":6033,"Ã¶nd":6034,"Ġnormalt":6035,"oda":6036,"ĠEuropeiska":6037,"hÃ¤st":6038,"ĠsÃ¤nd":6039,"ĠHein":6040,"eland":6041,"ĠunderhÃ¥ll":6042,"ĠBebyggelsen":6043,"Ġbaserad":6044,"ĠStatens":6045,"ĠkvÃ¤ll":6046,"Ġrun":6047,"ĠAngeles":6048,"agor":6049,"Ġspelas":6050,"ĠTekniska":6051,"illeri":6052,"Ġbrist":6053,"ĠbrÃ¶t":6054,"atis":6055,"any":6056,"Ġhyll":6057,"ĠKultur":6058,"ĠJÃ¤rnvÃ¤g":6059,"ĠsÃ¥nger":6060,"Ġtorp":6061,"aket":6062,"test":6063,"ĠAk":6064,"ĠCa":6065,"bladet":6066,"ĠYtter":6067,"Ġgraf":6068,"utsch":6069,"Ġgat":6070,"ĠfÃ¶ll":6071,"givare":6072,"Ġlilla":6073,"Ġuppkall":6074,"ĠHÃ¥":6075,"eks":6076,"synt":6077,"Ġneg":6078,"Ġ1893":6079,"grupper":6080,"ĠMaj":6081,"osfÃ¤r":6082,"ĠkrÃ¶":6083,"ĠbÃ¶rja":6084,"industrin":6085,"Ġbebygg":6086,"ĠhÃ¤star":6087,"kommande":6088,"ĠPen":6089,"ĠKor":6090,"vision":6091,"Ġcell":6092,"Ġyttre":6093,"Ġ1891":6094,"ĠBrasil":6095,"ĠhÃ¤ls":6096,"etiska":6097,"Ġsamlade":6098,"Ġlyckas":6099,"ĠframfÃ¶rallt":6100,"Ġgreve":6101,"ypt":6102,"ĠFÃ¶reningen":6103,"ĠMass":6104,"Ġarea":6105,"Ġtas":6106,"adens":6107,"dens":6108,"ĠvÃ¤nt":6109,"fta":6110,"Ġsammanhang":6111,"ĠIsrael":6112,"Ġofficer":6113,"ĠstÃ¥nd":6114,"atalj":6115,"Ġpress":6116,"Ġstarka":6117,"institut":6118,"ĠRh":6119,"ydda":6120,"ĠnÃ¤rmast":6121,"Ġreligion":6122,"ĠGa":6123,"ĠOff":6124,"ĠlÃ¤mp":6125,"ĠJosef":6126,"ĠrÃ¤ttigheter":6127,"Ġinternationell":6128,"ĠMÃ¼nchen":6129,"elserna":6130,"uten":6131,"Ġ45":6132,"ĠVÃ¤sterÃ¥s":6133,"Ġlinje":6134,"Ã°":6135,"ĠHal":6136,"ĠtÃ¤nkt":6137,"ĠÃĦlv":6138,"Ġstall":6139,"skolor":6140,"ĠfÃ¶rmod":6141,"sverk":6142,"ppar":6143,"ĠverkstÃ¤ll":6144,"ĠVilhelm":6145,"Ġabs":6146,"vÃ¤rlden":6147,"ĠVad":6148,"ĠlÃ¤ra":6149,"Ġvisat":6150,"Ġ1400":6151,"ĠstÃ¥":6152,"ics":6153,"ĠfÃ¶lja":6154,"Ã¶tet":6155,"mode":6156,"ĠPlan":6157,"Ġsyftar":6158,"ĠpopulÃ¤ra":6159,"Ġinslag":6160,"ĠKol":6161,"ĠlÃ¥ta":6162,"ypten":6163,"ĠINSEE":6164,"ĠCat":6165,"orpor":6166,"Ġstyrelse":6167,"arkitekt":6168,"Ġkonstru":6169,"ĠEM":6170,"Ar":6171,"ville":6172,"ĠRid":6173,"ĠÃ¶ka":6174,"Ġsim":6175,"ĠFa":6176,"Ġstadsdelen":6177,"ĠKen":6178,"ĠEv":6179,"ĠRun":6180,"tiden":6181,"ĠYou":6182,"ĠÃ¥tminstone":6183,"ĠupplÃ¶stes":6184,"ĠRen":6185,"Ġkontor":6186,"ĠAlbumet":6187,"ĠRoyal":6188,"fÃ¶reningen":6189,"Ġkyrkoher":6190,"Ġgram":6191,"ĠnÃ¥gonsin":6192,"ĠÃ¶vertog":6193,"iti":6194,"ĠstÃ¤nd":6195,"Ġpastoratet":6196,"rollen":6197,"ĠframgÃ¥ngar":6198,"inas":6199,"dotter":6200,"Ġintervju":6201,"ĠJohns":6202,"Ġgrunden":6203,"viken":6204,"otta":6205,"igenom":6206,"ĠhÃ¥rt":6207,"prin":6208,"âĢĿ,":6209,"Ġprincip":6210,"ĠfrÃ¥gan":6211,"ĠEgypten":6212,"ÅĤ":6213,"reserv":6214,"Ġmedverkat":6215,"ĠtrÃ¤dde":6216,"Ġoriginal":6217,"ĠfÃ¶nster":6218,"igan":6219,"rygg":6220,"ĠVÃ¤x":6221,"ĠlÃ¤gger":6222,"ĠBell":6223,"Ġdocent":6224,"Ġinflu":6225,"fen":6226,"emin":6227,"ittÃ©n":6228,"ĠTrans":6229,"Ġaktiva":6230,"Ġockup":6231,"tyr":6232,"zer":6233,"stre":6234,"Ġens":6235,"ĠlÃ¤gen":6236,"alleri":6237,"Ã¶nst":6238,"medalj":6239,"Ġkommers":6240,"handlingar":6241,"ĠStates":6242,"irektÃ¶r":6243,"ĠPan":6244,"efon":6245,"Ġliknar":6246,"salm":6247,"ĠÃ¤ndrades":6248,"ĠhÃ¶rde":6249,"ĠLappland":6250,"Ġsc":6251,"Ġtrett":6252,"Ġbosatt":6253,"vit":6254,"ĠEdward":6255,"Ġbib":6256,"sjuk":6257,"bandet":6258,"ĠrÃ¤dd":6259,"Ġevent":6260,"ĠÃ¶verfÃ¶rdes":6261,"ĠPrix":6262,"ĠBal":6263,"ĠÃ¶verl":6264,"vÃ¥ra":6265,"ĠbedÃ¶m":6266,"spart":6267,"Ġ800":6268,"ĠsÃ¶ner":6269,"Ġblomm":6270,"nÃ¤mnda":6271,"Ġvisades":6272,"Ġ1887":6273,"ĠlÃ¤gga":6274,"ĠForm":6275,"ostret":6276,"atisk":6277,"ssam":6278,"Ġmuse":6279,"Ġmedvet":6280,"ĠinbÃ¶rde":6281,"ĠreligiÃ¶sa":6282,"ĠÃ¶vert":6283,"Ġopp":6284,"regemente":6285,"Ġslags":6286,"Ġrymd":6287,"elin":6288,"vide":6289,"gran":6290,"Ġutred":6291,"usin":6292,"Ġtecken":6293,"Ġnaz":6294,"Ġfann":6295,"sÃ¤ttningar":6296,"Ġ1850":6297,"ĠfÃ¶rbin":6298,"rats":6299,"ĠCas":6300,"Ã¤tta":6301,"sav":6302,"ĠeftertrÃ¤ddes":6303,"ĠavstÃ¥nd":6304,"Ġau":6305,"ĠLor":6306,"Ġtidskriften":6307,"ĠstÃ¥l":6308,"ĠJonas":6309,"ĠSkott":6310,"elsens":6311,"ĠfÃ¶rber":6312,"ĠMur":6313,"Ġsent":6314,"Ġitaliensk":6315,"Ġanslutning":6316,"tering":6317,"irig":6318,"rÃ¶j":6319,"Ġ1894":6320,"ĠtvÃ¤r":6321,"Ã¤ker":6322,"ĠLÃ¥ten":6323,"Ġspekt":6324,"Ġberor":6325,"ĠsÃ¤songer":6326,"ĠsÃ¶kte":6327,"ikern":6328,"Ġkommuner":6329,"Ġmedicin":6330,"Ġ1884":6331,"Ġtunnel":6332,"Ġklassiska":6333,"iera":6334,"Ġute":6335,"Ġanlades":6336,"ĠLes":6337,"Ġkinesiska":6338,"Ġastron":6339,"Ġekonomi":6340,"hjÃ¤l":6341,"eman":6342,"ĠStar":6343,"svenskan":6344,"Ð²":6345,"Ġkalk":6346,"ĠLag":6347,"Ġutbildade":6348,"keb":6349,"Ġtenn":6350,"Ġ1886":6351,"mÃ¤nnen":6352,"zon":6353,"ĠEnd":6354,"ĠKing":6355,"ush":6356,"Ġplaner":6357,"ĠintrÃ¤ff":6358,"ĠsÃ¤gs":6359,"Ġkg":6360,"ĠCast":6361,"Ġutveckla":6362,"ĠLuc":6363,"ĠhjÃ¤lpa":6364,"ifik":6365,"ĠDie":6366,"Ġsemif":6367,"Ġavsked":6368,"ĠRon":6369,"estalt":6370,"bygd":6371,"ĠutmÃ¤r":6372,"ĠrÃ¤":6373,"arten":6374,"Ġadvokat":6375,"Ġgenombrott":6376,"otek":6377,"Ġreserv":6378,"inger":6379,"shÃ¶g":6380,"raden":6381,"issionen":6382,"mÃ¤l":6383,"Ġmelod":6384,"Ã¤ngder":6385,"Ġgjord":6386,"Ġhuvudstad":6387,"iro":6388,"ĠMÃ¥l":6389,"ĠCamp":6390,"Ġdelta":6391,"ansl":6392,"Ġlov":6393,"Ġavskaff":6394,"ĠRev":6395,"Ġetn":6396,"ĠsÃ¥ledes":6397,"berget":6398,"osten":6399,"Ġrapporter":6400,"ĠBost":6401,"itta":6402,"Ġhab":6403,"ĠsÃ¤lj":6404,"ĠAkt":6405,"ĠNatur":6406,"ĠStef":6407,"Ġbefolkning":6408,"ues":6409,"ĠGod":6410,"ĠframstÃ¥ende":6411,"Ã¥nska":6412,"fÃ¶retag":6413,"bon":6414,"ĠbÃ¥t":6415,"ĠUngern":6416,"ĠChic":6417,"kÃ¥r":6418,"Ġlock":6419,"Ġviktigt":6420,"omi":6421,"ĠNamn":6422,"ĠkÃ¤llor":6423,"ĠfÃ¶rvÃ¤rv":6424,"Ġ1300":6425,"Ġfadern":6426,"skÃ¥d":6427,"ohol":6428,"Ġtillverkades":6429,"kademi":6430,"ĠtrÃ¤nare":6431,"Ġorden":6432,"ĠBeg":6433,"odor":6434,"elj":6435,"Ġpolska":6436,"ĠnÃ¤mligen":6437,"ĠFors":6438,"ĠsÃ¤llskap":6439,"ĠgenomfÃ¶rde":6440,"Ġuniversitets":6441,"Ġkapell":6442,"anan":6443,"ĠInstitut":6444,"unkter":6445,"Ġdebatt":6446,"skat":6447,"historia":6448,"bottens":6449,"Ġas":6450,"ria":6451,"Ġegenskaper":6452,"mo":6453,"Ã¤rer":6454,"ĠHill":6455,"Ġfen":6456,"ĠhjÃ¤rt":6457,"skontrakt":6458,"yk":6459,"eget":6460,"no":6461,"Ġmil":6462,"Ġorganisationen":6463,"mÃ¶":6464,"Ġtydligt":6465,"Ġakadem":6466,"ĠtillgÃ¥ng":6467,"ĠvÃ¤rlds":6468,"ĠPortug":6469,"Ġprivata":6470,"Ġambassad":6471,"ones":6472,"ĠBeskrivning":6473,"sÃ¥ng":6474,"ĠDer":6475,"ĠHÃ¤ls":6476,"Ġbilda":6477,"Ġislam":6478,"ĠnÃ¤rvarande":6479,"Ġartiklar":6480,"ĠfÃ¶rhind":6481,"Ġbildas":6482,"herre":6483,"ĠsÃ¥ngare":6484,"Ġsepar":6485,"ittÃ©":6486,"ĠfÃ¶rsvars":6487,"Ġmol":6488,"ĠbÃ¶rjat":6489,"ĠallmÃ¤nhet":6490,"arer":6491,"Ġetapp":6492,"ĠflÃ¤ck":6493,"anerna":6494,"ĠMak":6495,"ĠsÃ¤rskild":6496,"mÃ¤staren":6497,"Ġnordiska":6498,"reger":6499,"ĠÅ":6500,"ĠhÃ¥l":6501,"Ġavtal":6502,"Ġstannade":6503,"wig":6504,"edon":6505,"utbildning":6506,"uff":6507,"Ġbomb":6508,"Ġsjung":6509,"ĠÃħng":6510,"Ġskid":6511,"Ġobserv":6512,"ows":6513,"Ġ1883":6514,"Ġkop":6515,"Ġhistorien":6516,"Ġlevande":6517,"idens":6518,"Ġlokaler":6519,"sport":6520,"Ġsa":6521,"Ã¤tet":6522,"ĠRog":6523,"ĠDÃ¤rfÃ¶r":6524,"edom":6525,"ĠskÃ¤l":6526,"Â°":6527,"ollen":6528,"Ġregn":6529,"Ã¤ndska":6530,"ĠGabri":6531,"lÃ¤ggningen":6532,"ĠtÃ¤vlade":6533,"ĠPier":6534,"ĠfÃ¶rmÃ¥ga":6535,"Ġreklam":6536,"rivill":6537,"Ġpastorat":6538,"ĠBos":6539,"Ġturk":6540,"ĠMargareta":6541,"bom":6542,"rÃ¶v":6543,"Ġmuslim":6544,"Ġtransport":6545,"mande":6546,"ĠEriksson":6547,"ĠVik":6548,"ief":6549,"Ã¶ta":6550,"Ġmarin":6551,"Ġ1882":6552,"Äį":6553,"olt":6554,"ĠDis":6555,"Ġhuvudet":6556,"rest":6557,"ĠbestÃ¤mde":6558,"ela":6559,"nars":6560,"ĠanstÃ¤lldes":6561,"orr":6562,"ĠRas":6563,"ĠJack":6564,"Ã¤llskapet":6565,"Ġbegreppet":6566,"Ġsnarare":6567,"Ġvarvid":6568,"makten":6569,"rast":6570,"ĠThor":6571,"ĠMusic":6572,"Ġterrit":6573,"Ġpolisen":6574,"iljÃ¶":6575,"dalen":6576,"Ġprop":6577,"Ġexist":6578,"svetenskap":6579,"bruket":6580,"kes":6581,"Ġomedel":6582,"ĠSmÃ¥land":6583,"Ġkr":6584,"Ġparall":6585,"ĠVit":6586,"Ġinitiativ":6587,"Ġfinal":6588,"Ġvanligaste":6589,"huvud":6590,"aljer":6591,"cel":6592,"ĠJust":6593,"ĠPi":6594,"departementet":6595,"Ġinsekter":6596,"ĠSach":6597,"hal":6598,"rac":6599,"ationerna":6600,"ĠmÃ¤stare":6601,"agan":6602,"leden":6603,"ĠHum":6604,"ĠFrÃ¶":6605,"Ġbedriv":6606,"Ġstatus":6607,"ĠKatarina":6608,"ĠkÃ¤nneteck":6609,"Ġgar":6610,"Ġfastighet":6611,"Ġfria":6612,"ancer":6613,"ĠÃĸvrig":6614,"ĠmÃ¶tte":6615,"Ġmik":6616,"Ġstruktur":6617,"Ġegendom":6618,"ĠSocial":6619,"Ã¥rig":6620,"ĠOrgan":6621,"ĠGrekland":6622,"ĠkÃ¶pa":6623,"Ġmynt":6624,"olen":6625,"ĠHarry":6626,"Ġnoter":6627,"ĠCro":6628,"Ã¤tten":6629,"Ġoberoende":6630,"ĠMexik":6631,"Ġavslutade":6632,"ĠPolit":6633,"ĠInternationella":6634,"ĠÃī":6635,"sfull":6636,"ĠfÃ¥gel":6637,"Ġenkelt":6638,"Ġinvaldes":6639,"ĠVidare":6640,"Ġfrihet":6641,"ĠanslÃ¶t":6642,"fÃ¶ren":6643,"Ġjurist":6644,"Ġautom":6645,"ĠfrÃ¥ga":6646,"Ġenskilda":6647,"skop":6648,"ĠTeater":6649,"Ġhundra":6650,"Ġbyggd":6651,"Ġest":6652,"ĠkÃ¶n":6653,"Ġtexten":6654,"Ġlantbruk":6655,"Ġstartades":6656,"Ġtecknare":6657,"Ã¤ver":6658,"ĠutlÃ¤ndska":6659,"ietn":6660,"Ġvuxna":6661,"wer":6662,"lings":6663,"otte":6664,"ĠRiks":6665,"ques":6666,"ĠSant":6667,"ĠinrÃ¤tt":6668,"ĠkÃ¤nde":6669,"skjut":6670,"ĠKj":6671,"Ġnatten":6672,"Ġkyrkliga":6673,"ĠOlsson":6674,"ektar":6675,"ĠÃ¥s":6676,"auri":6677,"Ġ1878":6678,"ĠVikt":6679,"board":6680,"Ġbarnen":6681,"smat":6682,"get":6683,"ĠMid":6684,"emedel":6685,"ĠVD":6686,"ife":6687,"Ġak":6688,"skij":6689,"ĠbeslÃ¶":6690,"rogrammet":6691,"bror":6692,"Ġresor":6693,"ĠfÃ¶rdes":6694,"krig":6695,"Ġfant":6696,"Ġir":6697,"Ġlist":6698,"ĠGrund":6699,"Ġsocknen":6700,"ĠpÃ¥m":6701,"Ġbesegrade":6702,"ĠBoken":6703,"abor":6704,"llop":6705,"ĠKer":6706,"Ġantag":6707,"ivare":6708,"ĠÃ¶g":6709,"ĠÃ¶verste":6710,"Ġbotan":6711,"ĠfÃ¶rsÃ¶ka":6712,"oven":6713,"Ġx":6714,"Ġle":6715,"Ġfungerade":6716,"ĠAnvÃ¤nd":6717,"Ã¤rkt":6718,"ĠfÃ¶rvar":6719,"Ġnam":6720,"Ġsmal":6721,"Ġerfaren":6722,"Ġutnyttj":6723,"iteter":6724,"ute":6725,"Ġnr":6726,"ĠEva":6727,"ĠSydaf":6728,"fÃ¶ljande":6729,"Ġdyg":6730,"ĠWind":6731,"Ã¤ren":6732,"ĠMÃ¶r":6733,"Ã¤ger":6734,"ĠmÃ¤t":6735,"Ġkvart":6736,"ĠvÃ¤rldsm":6737,"ĠsvÃ¥ra":6738,"Ġmord":6739,"ĠUkra":6740,"byggd":6741,"ball":6742,"ene":6743,"ĠIK":6744,"Ġromanen":6745,"stÃ¤m":6746,"Ġbran":6747,"ĠStre":6748,"Ġpredik":6749,"aker":6750,"varo":6751,"Ġtjock":6752,"centrum":6753,"ilton":6754,"skript":6755,"ĠLinkÃ¶ping":6756,"Ġmassa":6757,"sÃ¤ttningen":6758,"Ġ1879":6759,"ĠSamuel":6760,"Ġelement":6761,"ĠInt":6762,"fa":6763,"ĠUtÃ¶ver":6764,"Ġsynnerhet":6765,"ĠNum":6766,"ĠTy":6767,"Ġerbjud":6768,"Ġ1876":6769,"ĠrÃ¤ck":6770,"ĠLÃ¶":6771,"dÃ¶d":6772,"Ġoffentlig":6773,"ivan":6774,"Ġdelades":6775,"Ġlagstift":6776,"ĠfortsÃ¤tter":6777,"sfÃ¶rening":6778,"ĠLove":6779,"Ġving":6780,"Ġfordon":6781,"Ġromerska":6782,"ebo":6783,"ĠmÃ¥lningar":6784,"ĠOb":6785,"ĠfÃ¶da":6786,"programmet":6787,"ĠElisabeth":6788,"ĠComm":6789,"Ġ1877":6790,"ĠNorrkÃ¶ping":6791,"verkan":6792,"Ġlevnad":6793,"ĠMos":6794,"kyrk":6795,"Ġminne":6796,"ĠpÃ¥bÃ¶rjades":6797,"ava":6798,"Ġ1866":6799,"09":6800,"jÃ¤m":6801,"deb":6802,"Ġvintern":6803,"ĠframgÃ¥ngsrika":6804,"field":6805,"Ġot":6806,"Ġavgick":6807,"ĠutstrÃ¤ck":6808,"ĠframtrÃ¤dande":6809,"oslav":6810,"fÃ¶rbund":6811,"Ġombild":6812,"sida":6813,"ĠmÃ¥tt":6814,"Ġsamtida":6815,"ĠSin":6816,"projekt":6817,"Ġgemensamma":6818,"ĠAmerican":6819,"ĠutbredningsomrÃ¥de":6820,"ĠnÃ¤mns":6821,"irur":6822,"Ġmusiken":6823,"ĠTa":6824,"sbygd":6825,"olution":6826,"ĠtillhÃ¶righet":6827,"Ġrevolutionen":6828,"ĠAsien":6829,"ear":6830,"Ġblad":6831,"ĠFot":6832,"fulla":6833,"ĠGÃ¶ran":6834,"ĠSar":6835,"Ġskivan":6836,"ĠInloppet":6837,"Ġprojektet":6838,"ĠNapole":6839,"ĠVasa":6840,"ĠSystem":6841,"ĠGrÃ¶n":6842,"omma":6843,"flygplan":6844,"sfiskals":6845,"Ã¤ter":6846,"Ġtexter":6847,"Ġmake":6848,"hy":6849,"Ġintell":6850,"Ġteolog":6851,"Ġhit":6852,"Ġflytta":6853,"Ġsammanlagt":6854,"ĠSofia":6855,"Ġfrig":6856,"Ã¥rs":6857,"Ġutspelar":6858,"ĠallmÃ¤nheten":6859,"Ġseparat":6860,"ĠPersson":6861,"fess":6862,"serie":6863,"Ġskal":6864,"Ġtapp":6865,"fton":6866,"ĠbegÃ¤r":6867,"to":6868,"Ãħ":6869,"ĠÃ¥tt":6870,"ĠHalm":6871,"rang":6872,"Ġgenomsnitt":6873,"Ġhotad":6874,"ĠfjÃ¤ll":6875,"rian":6876,"ensus":6877,"ĠtillhÃ¶rt":6878,"klubben":6879,"Ġbanan":6880,"win":6881,"ĠEsk":6882,"ĠmÃ¤nniskan":6883,"ĠberÃ¶mda":6884,"kort":6885,"ĠmÃ¥lade":6886,"zz":6887,"Ġsynt":6888,"Ġstudio":6889,"sfiskalsdistrikt":6890,"berga":6891,"ĠmjÃ¶l":6892,"ĠupptrÃ¤dde":6893,"ĠkrÃ¤vde":6894,"fekt":6895,"ĠVÃ¤n":6896,"ĠÃ¥terf":6897,"cha":6898,"ĠtvÃ¥a":6899,"smÃ¤ss":6900,"Ġantik":6901,"wn":6902,"Ġborde":6903,"ĠBelgien":6904,"dy":6905,"Ġkammar":6906,"ĠBjÃ¶rk":6907,"ĠgÃ¶m":6908,"Ãº":6909,"ĠfÃ¶rsvann":6910,"ĠLilj":6911,"onym":6912,"Ġstatliga":6913,"ĠutifrÃ¥n":6914,"Ġbrygg":6915,"Ġgifta":6916,"Ġflottan":6917,"ĠupptÃ¤cktes":6918,"Ġdikter":6919,"ĠLeon":6920,"Ġekonomisk":6921,"ĠsÃ¤llsynt":6922,"Ġ1881":6923,"ando":6924,"ĠEkologi":6925,"motor":6926,"bef":6927,"Ġfrit":6928,"Ġnedan":6929,"ĠChicago":6930,"gifter":6931,"Ġinnehade":6932,"Ġstabil":6933,"Ġth":6934,"ĠsÃ¥r":6935,"Ġutvid":6936,"ĠeftertrÃ¤dde":6937,"Ġspl":6938,"Ġprodukter":6939,"Ã¶ckerna":6940,"Ġinbland":6941,"Ġfynd":6942,"Ġfallet":6943,"ĠfullstÃ¤nd":6944,"ĠÎ":6945,"fram":6946,"nex":6947,"ĠBÃ¥da":6948,"Ġkommande":6949,"Ġleva":6950,"Ġsolen":6951,"Ġinfanter":6952,"stav":6953,"ottern":6954,"ĠWik":6955,"Ġadministrativ":6956,"Ġhom":6957,"ledningen":6958,"ĠFranz":6959,"alatset":6960,"ĠnÃ¤rmaste":6961,"sw":6962,"ĠbestÃ¤ll":6963,"Ġarkitekten":6964,"texamen":6965,"zig":6966,"ĠÃ¤ng":6967,"ĠutstÃ¤llningar":6968,"Ġmorg":6969,"ĠRu":6970,"ĠÃ¥rligen":6971,"process":6972,"Ġbosatte":6973,"Ġlett":6974,"ĠkrÃ¤ver":6975,"ĠAlm":6976,"ĠgrÃ¶n":6977,"esi":6978,"Ã¤kring":6979,"ĠÃ¤gs":6980,"Ġarkitektur":6981,"ĠSÃ¶dert":6982,"ect":6983,"ĠvÃ¤lja":6984,"ĠhÃ¤rstammar":6985,"ĠsÃ¶derut":6986,"ĠAndreas":6987,"ĠkÃ¶ns":6988,"ĠBrasilien":6989,"yer":6990,"ĠnÃ¤bb":6991,"Ġavsnittet":6992,"ĠfÃ¶retrÃ¤d":6993,"ĠNordamerika":6994,"Ġpsalm":6995,"asjÃ¶n":6996,"ils":6997,"Ġ33":6998,"Ġpriset":6999,"Ġresulterade":7000,"Ġartister":7001,"ĠutstÃ¤llning":7002,"Ġsovjetiska":7003,"gr":7004,"inalen":7005,"ĠmÃ¶nster":7006,"Ġskolor":7007,"amrat":7008,"Ġexpedition":7009,"ĠskÃ¶n":7010,"Ã¡n":7011,"istik":7012,"Ġpot":7013,"Ġperman":7014,"bÃ¤r":7015,"olaget":7016,"obel":7017,"ĠSimon":7018,"Ã¥gen":7019,"ĠMas":7020,"ston":7021,"BC":7022,"Ã¤lje":7023,"Ã¶rt":7024,"ips":7025,"ĠRing":7026,"stÃ¤lld":7027,"cÃ©":7028,"Ġ1100":7029,"Ġsystemet":7030,"inerna":7031,"Ġkungliga":7032,"ĠRac":7033,"Ġdiam":7034,"igg":7035,"ĠÃ¥ker":7036,"Ġ1875":7037,"regementet":7038,"Ġink":7039,"ĠĠĠ":7040,"Ġomvand":7041,"Ġjazz":7042,"ĠIrland":7043,"Ġbefordrades":7044,"RA":7045,"Ġregler":7046,"yds":7047,"Ġ1871":7048,"ĠkonstnÃ¤ren":7049,"Ġavb":7050,"ische":7051,"Ġupprep":7052,"Ġ1848":7053,"ĠrÃ¶relse":7054,"Ġborgerliga":7055,"Ġklara":7056,"VD":7057,"vara":7058,"Ġstyrelsen":7059,"ĠbelÃ¤get":7060,"endet":7061,"medlem":7062,"ĠDram":7063,"ĠÃ¤ger":7064,"adel":7065,"obyggnaden":7066,"ĠmÃ¥n":7067,"Ġexpl":7068,"ĠÃ¶ppet":7069,"ĠLad":7070,"Ġhelst":7071,"mord":7072,"Ġflod":7073,"Ġkulture":7074,"Ġfj":7075,"stÃ¶d":7076,"Ġproducent":7077,"Ãĸ":7078,"skal":7079,"Ġblom":7080,"ĠsÃ¤nde":7081,"ĠÃ¤ter":7082,"reppet":7083,"ĠHamburg":7084,"Ġ1867":7085,"ĠKun":7086,"Ġfilosofi":7087,"Ġplacerade":7088,"Ġinsatser":7089,"almuseum":7090,"kul":7091,"ental":7092,"elset":7093,"Ġ1873":7094,"oli":7095,"Ġtillverkade":7096,"Ġdokt":7097,"Ġkoppar":7098,"ĠNov":7099,"Ġdrabbades":7100,"Ġmob":7101,"Ġ1874":7102,"Ġtalar":7103,"Ġsingeln":7104,"ĠSkog":7105,"filmer":7106,"punkten":7107,"stam":7108,"Ġ700":7109,"Ġregi":7110,"tyska":7111,"ĠNed":7112,"gg":7113,"oki":7114,"05":7115,"Ġminskade":7116,"ĠDagens":7117,"ĠavrÃ¤tt":7118,"LC":7119,"ĠmarknadsfÃ¶r":7120,"Ġstre":7121,"Ġalkohol":7122,"ĠstrÃ¤ng":7123,"ĠXI":7124,"Ġparlamentet":7125,"arbetet":7126,"ĠBab":7127,"ktyg":7128,"neringen":7129,"Ġflygplats":7130,"ĠGott":7131,"rÃ¤dande":7132,"ĠRum":7133,"ĠÃ¶arna":7134,"ivande":7135,"Ġinsta":7136,"ygden":7137,"Ġkanal":7138,"rycket":7139,"Ġdrift":7140,"vÃ¤n":7141,"ikop":7142,"plant":7143,"isera":7144,"ĠCenter":7145,"ĠhÃ¤ckar":7146,"ein":7147,"tit":7148,"ĠsÃ¥dant":7149,"ĠfÃ¥glar":7150,"Ġdetalj":7151,"Ġantogs":7152,"ĠNHL":7153,"vice":7154,"ĠAlb":7155,"Ġkungens":7156,"itut":7157,"Ġkrimin":7158,"Ġorganisationer":7159,"Ġmax":7160,"Ġanledning":7161,"ĠIll":7162,"ĠGÃ¤vle":7163,"ĠÃ¥terkom":7164,"Ġteatern":7165,"ĠMuseum":7166,"ĠFerdin":7167,"ĠGri":7168,"inne":7169,"ĠlÃ¤mnat":7170,"ĠRÃ¶da":7171,"Ġtids":7172,"ĠSundsvall":7173,"ĠRi":7174,"anne":7175,"ĠJÃ¤mtland":7176,"skor":7177,"istiskt":7178,"ĠgÃ¤llande":7179,"Ġolympiska":7180,"itteratur":7181,"Ġfysik":7182,"anst":7183,"ĠSav":7184,"Ġkongress":7185,"ĠtrÃ¶":7186,"Ġfinnas":7187,"Ã¤nnande":7188,"ĠUrsprung":7189,"tain":7190,"ssystem":7191,"Ġallra":7192,"ĠgÃ¤llde":7193,"Ġkrigs":7194,"filmen":7195,"rÃ¥ng":7196,"ĠIl":7197,"ĠGuld":7198,"Ġteori":7199,"Ġhemm":7200,"ĠofÃ¶r":7201,"istriktet":7202,"ous":7203,"ĠfÃ¶g":7204,"reds":7205,"ĠfÃ¤rger":7206,"hm":7207,"hÃ¤ngare":7208,"Ġkunnat":7209,"Ġ1865":7210,"Ġ1872":7211,"Ġfortsatt":7212,"Ġkatal":7213,"ĠsjÃ¤lvstÃ¤ndighet":7214,"ĠColl":7215,"ĠRod":7216,"speri":7217,"Ġextrem":7218,"ĠMika":7219,"ĠfÃ¶rÃ¤ndringar":7220,"ĠHav":7221,"Ġ250":7222,"Ġmetoder":7223,"bev":7224,"ĠPers":7225,"Ġsuper":7226,"Ġarg":7227,"ĠVirgin":7228,"ssp":7229,"ĠFreder":7230,"kebiskop":7231,"ĠBod":7232,"ĠOp":7233,"Ġtung":7234,"ĠKir":7235,"Ġkusten":7236,"gÃ¤rder":7237,"ĠBand":7238,"Ġvariant":7239,"ĠgÃ¤rna":7240,"ĠÃ¶verfÃ¶r":7241,"Ġfartyget":7242,"ĠfÃ¶rklarade":7243,"Ġbuss":7244,"ĠHu":7245,"Ġomtal":7246,"seud":7247,"Ġkoloni":7248,"fÃ¤ll":7249,"Ġann":7250,"ĠfÃ¶rblev":7251,"shistor":7252,"hu":7253,"ĠDrottning":7254,"Ġvinn":7255,"ĠkÃ¶tt":7256,"ĠEdvard":7257,"ensioner":7258,"ĠMcC":7259,"Ġkonsert":7260,"Ġadministrat":7261,"redaktÃ¶r":7262,"smannen":7263,"ĠNat":7264,"ĠÃĦng":7265,"ĠavgÃ¶rande":7266,"ĠApp":7267,"byggda":7268,"ĠnordvÃ¤st":7269,"ĠkrÃ¤vs":7270,"ĠgrundlÃ¤gg":7271,"ĠTit":7272,"Ġmarknaden":7273,"kommer":7274,"spolit":7275,"Ġstudentexamen":7276,"Ġfrist":7277,"Ġopt":7278,"ĠpÃ¥minner":7279,"Ġroller":7280,"omet":7281,"organisationen":7282,"Ġsat":7283,"Ġstudenter":7284,"emi":7285,"ĠÃ¥kte":7286,"Ġorder":7287,"ĠlÃ¤rde":7288,"fÃ¶rl":7289,"rab":7290,"ĠdÃ¶ds":7291,"Ġbilar":7292,"ĠrÃ¤dda":7293,"svalet":7294,"Ġligan":7295,"jÃ¶rn":7296,"Ġmedicine":7297,"ordfÃ¶rande":7298,"illes":7299,"Ġkapit":7300,"AS":7301,"ĠDr":7302,"Ġfattig":7303,"Ġmusk":7304,"Ġstyrka":7305,"manlands":7306,"ianter":7307,"Ġkammaren":7308,"Ġ36":7309,"Ġfest":7310,"Ã¤ttningen":7311,"Ġprom":7312,"Ġpr":7313,"ĠBeck":7314,"Ġcountyt":7315,"Ð»":7316,"Ġ1840":7317,"ĠMi":7318,"ĠfÃ¶rhÃ¥llanden":7319,"ridge":7320,"Ġsannolikt":7321,"Ġvardag":7322,"ĠEgen":7323,"rikanska":7324,"ologen":7325,"ĠOrdet":7326,"Ġareal":7327,"Ġsiff":7328,"ĠKi":7329,"ĠtillhÃ¶rande":7330,"Ġdecenn":7331,"ĠkÃ¤mp":7332,"ĠStefan":7333,"ĠPetersburg":7334,"jon":7335,"Ġhonor":7336,"Ġbegravd":7337,"Ġpans":7338,"ĠTam":7339,"Ġrektor":7340,"Ġ1864":7341,"atiskt":7342,"essan":7343,"Ġlokalt":7344,"ĠbÃ¶nder":7345,"ĠHaw":7346,"hÃ¤llet":7347,"Ġkull":7348,"Ġoss":7349,"heterna":7350,"08":7351,"Ġpersonal":7352,"ĠlÃ¤mnar":7353,"Ġersatte":7354,"Ġinner":7355,"asse":7356,"ĠsÃ¤lja":7357,"sliga":7358,"fru":7359,"ĠÃ¶verens":7360,"stor":7361,"ĠFF":7362,"Ġgemensamt":7363,"kas":7364,"ĠTotalt":7365,"ĠSkottland":7366,"illverk":7367,"ĠhushÃ¥ll":7368,"IS":7369,"uther":7370,"ĠBlom":7371,"visning":7372,"fon":7373,"Ñģ":7374,"ĠIFK":7375,"enburg":7376,"ĠkÃ¤nner":7377,"ĠutgÃ¥":7378,"ĠNationalmuseum":7379,"bildade":7380,"Ġundan":7381,"mid":7382,"ĠSeri":7383,"Ġutman":7384,"Ã¤te":7385,"ĠVol":7386,"ĠMann":7387,"Ġundvika":7388,"sprÃ¥kiga":7389,"Ġmill":7390,"amÃ¶ter":7391,"ĠÃ¤ventyr":7392,"Ġovans":7393,"ĠBureau":7394,"rod":7395,"Ġblock":7396,"Ġ75":7397,"Ġ37":7398,"Ġ1868":7399,"Ġstrateg":7400,"ĠWin":7401,"ĠkÃ¶rde":7402,"Ġintroducerades":7403,"ĠJuli":7404,"ĠtrÃ¤ffade":7405,"ĠmÃ¤nskliga":7406,"Ġuteslut":7407,"boken":7408,"Ġolja":7409,"vention":7410,"Ġkalla":7411,"Ġgitarr":7412,"lagen":7413,"ĠbeslÃ¶t":7414,"Ġovanligt":7415,"Ġtransporter":7416,"ĠfÃ¶resprÃ¥k":7417,"rup":7418,"Ġuppm":7419,"ĠAla":7420,"raham":7421,"Ġanim":7422,"ĠBank":7423,"ĠvÃ¤xer":7424,"Ġhovet":7425,"Ġisol":7426,"urser":7427,"ĠskÃ¥despelaren":7428,"ĠDalarna":7429,"Ġinnefatt":7430,"my":7431,"Ġbearbet":7432,"ĠLule":7433,"Ġarabiska":7434,"ĠTurkiet":7435,"Ġtillbringade":7436,"vapnet":7437,"ĠjÃ¤mfÃ¶rt":7438,"rÃ¤der":7439,"Ġkonstitut":7440,"ĠGotland":7441,"Ġtyng":7442,"ĠBil":7443,"ĠOst":7444,"Ġdop":7445,"ĠLÃ¤ng":7446,"bÃ¶cker":7447,"stjÃ¤nst":7448,"Ġdal":7449,"ragen":7450,"skarriÃ¤r":7451,"ĠDam":7452,"Ġproduktionen":7453,"bÃ¥t":7454,"ktionen":7455,"ĠTexas":7456,"itch":7457,"estad":7458,"estÃ¤ll":7459,"Ġmiljon":7460,"komma":7461,"Ġbetala":7462,"fÃ¶rsvar":7463,"Ch":7464,"Ã±":7465,"ĠArn":7466,"Ġromaner":7467,"anser":7468,"ki":7469,"Ġspansk":7470,"ynam":7471,"ĠBÃ¥de":7472,"storp":7473,"ĠKrig":7474,"Ġformen":7475,"ĠIngen":7476,"Ġmission":7477,"ĠGruppen":7478,"Ġfris":7479,"ĠhÃ¶gskola":7480,"idrott":7481,"ĠslÃ¤kten":7482,"Ġtingslag":7483,"Ġtrapp":7484,"Ġkav":7485,"vÃ¥rds":7486,"well":7487,"Ġparet":7488,"eborg":7489,"ail":7490,"Ġsagt":7491,"Ġtrodde":7492,"svenska":7493,"Ġskydda":7494,"Ġutbildnings":7495,"ĠÃ¶vertyg":7496,"ĠRoss":7497,"Ġhotell":7498,"Ġlandsting":7499,"Ã¤llskap":7500,"ĠfÃ¶rstÃ¥":7501,"thur":7502,"Ã¶ket":7503,"ĠdrÃ¶m":7504,"ĠÃ¶kar":7505,"ĠGreen":7506,"Ġflydde":7507,"ĠpÃ¥bÃ¶rjade":7508,"Ġalternativ":7509,"ĠSjÃ¤lv":7510,"Ġvillkor":7511,"ĠFerdinand":7512,"nipp":7513,"Ġ1869":7514,"ĠnordÃ¶stra":7515,"ĠFrit":7516,"ĠÃ¶verlÃ¤m":7517,"Ġmedlemmarna":7518,"ĠPerson":7519,"ĠEll":7520,"Ġnorrut":7521,"Ġfril":7522,"terar":7523,"ĠÃħke":7524,"Ðº":7525,"ĠLang":7526,"ĠIstÃ¤llet":7527,"ĠhÃ¶gskolan":7528,"kommit":7529,"wall":7530,"Ġsur":7531,"Ġuppen":7532,"ĠVÃ¤rmland":7533,"terades":7534,"steg":7535,"Ġexakt":7536,"Ġetablerade":7537,"07":7538,"ĠvÃ¤v":7539,"olis":7540,"Ġutvecklas":7541,"ĠTu":7542,"iral":7543,"ĠTysklands":7544,"krit":7545,"ssen":7546,"ĠEngel":7547,"Ġtotala":7548,"Ġkok":7549,"blom":7550,"ĠlÃ¤nderna":7551,"ĠsjÃ¶ng":7552,"atorer":7553,"iza":7554,"ĠSydafrika":7555,"06":7556,"europ":7557,"Ġpopulation":7558,"ĠBritt":7559,"atoriet":7560,"Ġjudar":7561,"ĠGÃ¶ta":7562,"ĠfÃ¶reslog":7563,"Ġgivit":7564,"ĠsÃ¤rskilda":7565,"ĠfÃ¶rvÃ¤nt":7566,"Ġkatolska":7567,"cin":7568,"ĠLÃ¤n":7569,"umenter":7570,"ĠframgÃ¥ngsrik":7571,"lÃ¥":7572,"ance":7573,"handlingen":7574,"Ġtextil":7575,"ĠJohnson":7576,"ĠidÃ©er":7577,"ĠKyrkobyggnaden":7578,"slÃ¤ngd":7579,"Ġkonstmuseum":7580,"Ġvak":7581,"Ġbyt":7582,"Ġtillverkning":7583,"ĠdÃ¶":7584,"Ġsmak":7585,"Ġkritis":7586,"Ġnamng":7587,"ĠsÃ¤tta":7588,"ĠsydÃ¶stra":7589,"kyrkan":7590,"ĠherrgÃ¥rd":7591,"Ġfrivill":7592,"Ġminister":7593,"ĠMÃ¤l":7594,"Ġtider":7595,"Ġannex":7596,"rÃ¤nder":7597,"Ġmiljarder":7598,"Ġprovins":7599,"ĠfÃ¶reb":7600,"Ã¶rn":7601,"Ġ34":7602,"ĠgÃ¶rs":7603,"ĠSlott":7604,"syn":7605,"anz":7606,"Ġlandslag":7607,"Ġvisas":7608,"skriften":7609,"ience":7610,"fÃ¶ljare":7611,"Ġbyggas":7612,"ĠsydvÃ¤st":7613,"ii":7614,"ĠGeneral":7615,"ĠlÃ¤ttare":7616,"ĠtillfÃ¤lle":7617,"ĠmÃ¤ngder":7618,"iket":7619,"ĠvÃ¥ningar":7620,"rera":7621,"ĠDNA":7622,"roller":7623,"ĠAnne":7624,"byte":7625,"ĠMexiko":7626,"ulf":7627,"ĠkonstnÃ¤rer":7628,"itetet":7629,"Ġpunkt":7630,"ĠvÃ¤der":7631,"ĠfÃ¶rkort":7632,"ĠutfÃ¶rdes":7633,"ĠOla":7634,"ĠÃ¤rkebiskop":7635,"Ġ1861":7636,"ĠGabriel":7637,"Ġpor":7638,"ĠIbland":7639,"Ġelva":7640,"ĠMadrid":7641,"rock":7642,"Ġminist":7643,"Ġintens":7644,"Ã¢":7645,"Ġradik":7646,"ĠUlf":7647,"Ġdriver":7648,"rÃ¤nsen":7649,"hn":7650,"ĠSkandinav":7651,"ocken":7652,"sfÃ¶rbundet":7653,"ĠdÃ¶den":7654,"ĠkÃ¤nna":7655,"ĠClub":7656,"ĠsÃ¶ka":7657,"ĠifrÃ¥g":7658,"Ġbem":7659,"Ġadminist":7660,"2006":7661,"lt":7662,"ĠanhÃ¤ngare":7663,"ĠOd":7664,"ĠhÃ¤vdade":7665,"ĠinbÃ¶rdeskriget":7666,"ĠHandel":7667,"Ġlanserades":7668,"Ã¤ts":7669,"Ã¥rskontrakt":7670,"Ġdrivs":7671,"lÃ¤n":7672,"ionde":7673,"Ġplanerade":7674,"ĠnordvÃ¤stra":7675,"bal":7676,"mund":7677,"Ġannars":7678,"ĠGol":7679,"ulgar":7680,"Ġori":7681,"Ġvem":7682,"Ġflit":7683,"ĠvÃ¤rvades":7684,"\"),":7685,"Ġsum":7686,"ftet":7687,"Ġarbets":7688,"viks":7689,"Ġslutar":7690,"MS":7691,"Ġlib":7692,"abel":7693,"ĠCensus":7694,"ĠbehÃ¶ll":7695,"Ġsplitt":7696,"eus":7697,"tan":7698,"ĠSanta":7699,"ĠÃ¥skÃ¥d":7700,"Ġbeh":7701,"ningsvis":7702,"guld":7703,"pre":7704,"ĠOn":7705,"ningsomrÃ¥det":7706,"ĠstÃ¤derna":7707,"byn":7708,"ribut":7709,"ĠmÃ¥lar":7710,"CA":7711,"ĠArgent":7712,"ymer":7713,"ĠBy":7714,"ĠSK":7715,"Ġpraktiken":7716,"officer":7717,"ĠfÃ¶rband":7718,"ĠfÃ¶rfattade":7719,"Ġkonsek":7720,"ĠEskil":7721,"Ġpop":7722,"oga":7723,"Ġserier":7724,"wen":7725,"ornas":7726,"ĠmÃ¶jligen":7727,"Ġsaknas":7728,"ĠbrÃ¶llop":7729,"ĠsamhÃ¤lle":7730,"ĠSerien":7731,"ĠHuset":7732,"ĠbehÃ¶vde":7733,"ĠPortugal":7734,"ĠtillÃ¥t":7735,"urch":7736,"stolen":7737,"ĠTjeck":7738,"fjÃ¤ll":7739,"borgs":7740,"ĠhÃ¤nder":7741,"Ã¤vling":7742,"ĠÃ¤ndamÃ¥l":7743,"itj":7744,"aux":7745,"Ġdesign":7746,"alismen":7747,"ĠHarald":7748,"ĠpremiÃ¤rminister":7749,"Ġhektar":7750,"Ġstudie":7751,"Ġegenskap":7752,"ikerna":7753,"kol":7754,"Ġno":7755,"ĠÃ¥rets":7756,"Ġ1830":7757,"ĠverkstÃ¤llande":7758,"anal":7759,"Ã¥ndare":7760,"historiska":7761,"ĠEin":7762,"ienter":7763,"Ġsenat":7764,"Ġberget":7765,"Ġombildades":7766,"ĠbrÃ¤nsl":7767,"Ġrevolution":7768,"Ġbeb":7769,"oul":7770,"esen":7771,"ĠLager":7772,"Ã¥lder":7773,"sstyrelsen":7774,"Ġvic":7775,"Ġinvand":7776,"Ġglob":7777,"Ġeffektiv":7778,"Ġprot":7779,"ĠFel":7780,"ĠSvensson":7781,"Ġgjorts":7782,"ĠForn":7783,"vida":7784,"ĠEver":7785,"ĠKont":7786,"Ġflag":7787,"umen":7788,"igtvis":7789,"Ġhabitat":7790,"ĠÃĸn":7791,"ĠKlubben":7792,"iskan":7793,"efte":7794,"Ġrank":7795,"iop":7796,"lÃ¤rare":7797,"lok":7798,"Äģ":7799,"ĠKommunen":7800,"imen":7801,"komp":7802,"ĠfÃ¤l":7803,"ĠUS":7804,"lÃ¤gs":7805,"ĠKomm":7806,"ĠutstrÃ¤ckning":7807,"Ġmedarbetare":7808,"oler":7809,"rift":7810,"visa":7811,"ĠjÃ¤rnvÃ¤gen":7812,"Ġbom":7813,"chester":7814,"ĠMats":7815,"edig":7816,"enny":7817,"Ġversionen":7818,"lys":7819,"Ġapp":7820,"ĠIt":7821,"atorium":7822,"Ġobserver":7823,"Ġrekord":7824,"Ã¤ste":7825,"ĠScott":7826,"rister":7827,"Ġtvungen":7828,"ĠdÃ¥ligt":7829,"Ġvecka":7830,"ĠAIK":7831,"Ã¤ta":7832,"sse":7833,"Ġsakrist":7834,"visor":7835,"Ġlandsfiskalsdistrikt":7836,"Ġsaker":7837,"ĠfÃ¶rmodligen":7838,"ĠvÃ¤lk":7839,"Ġdirig":7840,"enser":7841,"halt":7842,"ĠColumb":7843,"dare":7844,"stÃ¤der":7845,"OS":7846,"mur":7847,"rov":7848,"ĠPlay":7849,"alisering":7850,"ĠsÃ¤m":7851,"ĠvÃ¤grade":7852,"Ø§":7853,"Ġvarv":7854,"Ġallierade":7855,"ei":7856,"Ġdelade":7857,"antiska":7858,"ĠidÃ©":7859,"ĠOrganis":7860,"ĠHy":7861,"reta":7862,"Ġtitt":7863,"Ġplaceras":7864,"ĠregissÃ¶r":7865,"ĠfÃ¶rord":7866,"Ġansvarig":7867,"back":7868,"seg":7869,"ĠRel":7870,"ĠtonsÃ¤tt":7871,"ĠmÃ¥let":7872,"ction":7873,"ĠAbraham":7874,"ĠsistnÃ¤mnda":7875,"sledamot":7876,"apel":7877,"ipendium":7878,"ĠWalter":7879,"ĠLiksom":7880,"iler":7881,"ĠrÃ¥det":7882,"Ġordning":7883,"rÃ¼":7884,"ĠpÃ¥stÃ¥":7885,"ianska":7886,"iklar":7887,"skare":7888,"ĠÃ¶kat":7889,"Ġklockan":7890,"ds":7891,"ĠStig":7892,"Ġpersonen":7893,"ĠhÃ¥lls":7894,"ĠInte":7895,"pektiv":7896,"Ġexister":7897,"ĠAns":7898,"fÃ¤ltet":7899,"Ġorkester":7900,"ĠNapoleon":7901,"ĠHeinrich":7902,"ĠCompany":7903,"ĠsvÃ¤r":7904,"Ġkvarteret":7905,"fur":7906,"ĠArvid":7907,"ĠfÃ¶rstÃ¶rdes":7908,"Ġskador":7909,"Ġtorg":7910,"iviteter":7911,"material":7912,"Ġandel":7913,"ubile":7914,"liknande":7915,"Ġinkluderar":7916,"risen":7917,"sfÃ¶rbund":7918,"unden":7919,"III":7920,"Ġfeder":7921,"Ġrent":7922,"Ġterm":7923,"ĠTru":7924,"ycke":7925,"Ġmening":7926,"ĠHart":7927,"Ġlivsmedel":7928,"ĠTok":7929,"Ġplacerades":7930,"ĠAssoci":7931,"shÃ¶vding":7932,"nit":7933,"Ġregerings":7934,"ĠmÃ¶te":7935,"2005":7936,"Ġartilleri":7937,"ĠrÃ¶relsen":7938,"Ġskada":7939,"ĠSlut":7940,"ekyl":7941,"Ġkommunikation":7942,"jÃ¤nsten":7943,"Ġneut":7944,"'.":7945,"04":7946,"ador":7947,"Ġupplaga":7948,"Ġutrym":7949,"betet":7950,"tÃ¥g":7951,"ety":7952,"ĠBob":7953,"ĠKort":7954,"Ġdemonst":7955,"Ġmedborgare":7956,"ĠDar":7957,"Ġskaff":7958,"ĠKarin":7959,"Ġ1859":7960,"Ġkomposition":7961,"rester":7962,"ĠlÃ¤kemedel":7963,"Ġmedia":7964,"ĠstjÃ¤rna":7965,"Ġmyndigheter":7966,"ĠArthur":7967,"folk":7968,"Ġmodeller":7969,"ĠMitt":7970,"Ġbarnd":7971,"backen":7972,"ugoslav":7973,"ĠGÃ¶sta":7974,"ĠBandet":7975,"isc":7976,"eth":7977,"ĠSeg":7978,"Ġuppman":7979,"ĠbelÃ¶n":7980,"gav":7981,"vad":7982,"ĠÃ¥tervÃ¤nda":7983,"ĠFrans":7984,"landa":7985,"ĠÃ¶versatt":7986,"Ġkonflikt":7987,"cell":7988,"ĠBot":7989,"ĠsydvÃ¤stra":7990,"ĠlÃ¥nghus":7991,"Ġreda":7992,"ylt":7993,"ĠVÃ¤xjÃ¶":7994,"ssekreterare":7995,"Ġolj":7996,"Ġtax":7997,"ĠKrit":7998,"slÃ¶s":7999,"ĠHugo":8000,"kÃ¤r":8001,"ahn":8002,"Ġutbrott":8003,"ĠbostÃ¤der":8004,"Ġantog":8005,"Ġpersonliga":8006,"ĠlitterÃ¤ra":8007,"ĠLennart":8008,"Ġstill":8009,"bÃ¶rd":8010,"otiska":8011,"ĠstÃ¤lldes":8012,"Ġnormal":8013,"Ġvardera":8014,"iform":8015,"Ġbaserat":8016,"ĠHov":8017,"ĠfÃ¶rbi":8018,"bibliotek":8019,"enhet":8020,"ĠPriv":8021,"hÃ¶jd":8022,"ĠBlek":8023,"orea":8024,"skÃ¶ld":8025,"2007":8026,"dahl":8027,"bildningen":8028,"linjen":8029,"Ġfullt":8030,"ĠFÃ¥geln":8031,"Ġkonferens":8032,"Ġlands":8033,"Ġkraftig":8034,"bach":8035,"Ġbana":8036,"ĠDistriktet":8037,"ĠCam":8038,"Ġkyrkoherde":8039,"ĠvarpÃ¥":8040,"Ġutomlands":8041,"ĠMelod":8042,"Ġgestalt":8043,"gÃ¶ra":8044,"ĠHigh":8045,"Ġfinansier":8046,"orges":8047,"ĠutfÃ¶ra":8048,"ĠlÃ¶n":8049,"Ġgyn":8050,"rÃ¶t":8051,"Ġrekomm":8052,"ĠmotstÃ¥ndare":8053,"evision":8054,"ĠEurovision":8055,"Ġutvidg":8056,"vd":8057,"Ġdiskuter":8058,"Ġmaskin":8059,"Ġsubst":8060,"ĠPris":8061,"Ġombord":8062,"ĠBat":8063,"ado":8064,"ults":8065,"Ġsoldaterna":8066,"Ġ+":8067,"ĠPost":8068,"ĠsjÃ¤tte":8069,"ellersta":8070,"ĠlÃ¥ga":8071,"Ġmjuk":8072,"Ġsolens":8073,"ĠhÃ¤ndelser":8074,"Ġkejsaren":8075,"Ġkombination":8076,"ĠBalt":8077,"inten":8078,"ĠKors":8079,"ĠFilip":8080,"ĠlÃ¤ge":8081,"Ġinvest":8082,"ero":8083,"ness":8084,"shire":8085,"ĠfÃ¶rflytt":8086,"ĠSport":8087,"ĠÃ¶kad":8088,"amerikanska":8089,"akes":8090,"Ġ38":8091,"ĠfolkrÃ¤k":8092,"kriget":8093,"ĠklÃ¤d":8094,"ologiskt":8095,"ĠrÃ¶ster":8096,"Ġfamiljer":8097,"ĠBirg":8098,"rÃ¤sket":8099,"landslag":8100,"akten":8101,"stin":8102,"ĠHerman":8103,"Ġbefinner":8104,"vil":8105,"Ġinvas":8106,"nastin":8107,"odox":8108,"ĠBad":8109,"ĠStÃ¶r":8110,"ĠSvea":8111,"Ġnaturen":8112,"ĠHomer":8113,"Ġartist":8114,"Ġnyck":8115,"Ġkompani":8116,"sklubb":8117,"ĠKonstant":8118,"Ġartikeln":8119,"ĠÃ¶vertogs":8120,"Ġproducerade":8121,"ĠHÃ¤lsing":8122,"chi":8123,"ĠHur":8124,"Ġsed":8125,"erner":8126,"Ġgenomgick":8127,"ĠKarol":8128,"yo":8129,"Ġhuvudstaden":8130,"Ã¤rke":8131,"ytan":8132,"ĠfÃ¶rbj":8133,"ĠturnÃ©":8134,"aritet":8135,"Ġritade":8136,"Ġhyp":8137,"spÃ¥r":8138,"ĠfÃ¶rsÃ¶rj":8139,"ĠlÃ¶sa":8140,"ĠuppstÃ¥r":8141,"ĠfÃ¶rekommande":8142,"ĠLaur":8143,"barn":8144,"cker":8145,"ryska":8146,"alistisk":8147,"Ġskot":8148,"ĠtrÃ¤ng":8149,"ĠundersÃ¶kningar":8150,"skyrkan":8151,"ĠIran":8152,"ĠLevnad":8153,"ĠtilltrÃ¤dde":8154,"nummer":8155,"osk":8156,"Ġvarum":8157,"beth":8158,"onn":8159,"Ġinriktning":8160,"Ġgent":8161,"Ġkvalific":8162,"IF":8163,"ĠÃ¥tskill":8164,"oten":8165,"Ġstyrkor":8166,"Ã¤nning":8167,"engel":8168,"sbo":8169,"di":8170,"tel":8171,"ĠMay":8172,"ĠCorn":8173,"Ġarbetare":8174,"tverk":8175,"ĠFe":8176,"ĠKÃ¤r":8177,"ĠKarlsson":8178,"vux":8179,"floden":8180,"ĠfÃ¶rÃ¤l":8181,"atter":8182,"ĠtillÃ¥":8183,"Ġstudieres":8184,"ji":8185,"Ġ1857":8186,"egÃ¥ng":8187,"ĠEp":8188,"ĠVilla":8189,"ĠklÃ¤der":8190,"ĠbekÃ¤mp":8191,"ĠKjell":8192,"hjul":8193,"Ġ39":8194,"ĠomnÃ¤mns":8195,"ietnam":8196,"Ġartikel":8197,"com":8198,"ĠsprÃ¤ng":8199,"Ġ1856":8200,"vÃ¤xter":8201,"ĠAri":8202,"ĠGh":8203,"ĠfÃ¶rvand":8204,"ileg":8205,"Ã©ns":8206,"steater":8207,"Ġbilen":8208,"Ġtornet":8209,"ĠannexfÃ¶rsamling":8210,"02":8211,"Ġteat":8212,"ĠlÃ¤sa":8213,"rader":8214,"Ġpassager":8215,"ĠJones":8216,"tyskland":8217,"stierna":8218,"Ġkonserter":8219,"Ġkil":8220,"ĠAsp":8221,"ĠBarn":8222,"Ġhastighet":8223,"ĠLeg":8224,"2010":8225,"lÃ¤mningar":8226,"bod":8227,"ĠfÃ¶rbundet":8228,"shÃ¶gskolan":8229,"Ġsvarade":8230,"Ġenerg":8231,"Ġomedelbart":8232,"Ġbyggt":8233,"Ġkritiker":8234,"Ġstrider":8235,"Ġdefinier":8236,"ywood":8237,"03":8238,"Ġkolleg":8239,"uft":8240,"Ġpek":8241,"olo":8242,"Ġskyld":8243,"ĠJud":8244,"ĠvÃ¤ckte":8245,"ĠWars":8246,"rÃ¤dde":8247,"befolk":8248,"emon":8249,"Ġdoktors":8250,"eled":8251,"ĠMedan":8252,"ruktion":8253,"tu":8254,"ĠanvÃ¤nt":8255,"erg":8256,"Ġvall":8257,"Ġsalt":8258,"Ġriktigt":8259,"ĠTroll":8260,"ĠLinn":8261,"oplats":8262,"ĠHab":8263,"ĠWood":8264,"2008":8265,"overk":8266,"ĠCD":8267,"ongol":8268,"ĠupptÃ¤ckte":8269,"sutstÃ¤llningar":8270,"ĠRein":8271,"Ġlinjen":8272,"Ġlug":8273,"Ġrelation":8274,"ĠKim":8275,"ĠLaw":8276,"ĠVÃ¥r":8277,"Ġ900":8278,"Ġhandling":8279,"ĠEu":8280,"odet":8281,"ĠLeip":8282,"Ġhittades":8283,"ÑĤ":8284,"Ġmesta":8285,"ĠsjÃ¤l":8286,"ĠÃħker":8287,"ronten":8288,"ĠanlÃ¤nde":8289,"ĠKur":8290,"Ġromersk":8291,"Ġsaknade":8292,"ĠMotor":8293,"ĠpÃ¤ls":8294,"editionen":8295,"ĠLed":8296,"uta":8297,"ĠfÃ¶rknipp":8298,"apt":8299,"ĠsÃ¶nder":8300,"ĠDVD":8301,"ĠBK":8302,"iktet":8303,"Ġmult":8304,"aks":8305,"hÃ¤lle":8306,"ound":8307,"esten":8308,"Ġsammanslag":8309,"ĠfÃ¤rdigstÃ¤ll":8310,"ĠkyrkogÃ¥rd":8311,"ĠgrundlÃ¤ggande":8312,"tÃ¤ck":8313,"ĠOh":8314,"Ã©s":8315,"usch":8316,"Ġholl":8317,"Ġproducerades":8318,"Ġvilja":8319,"range":8320,"Ġutvecklats":8321,"ĠLiding":8322,"Ġenkla":8323,"Ġskott":8324,"ĠÃ¥rhund":8325,"ĠBeat":8326,"Ġgifter":8327,"Ġtelefon":8328,"sÃ¥":8329,"ĠVÃ¤stergÃ¶tland":8330,"ĠTran":8331,"ĠFÃ¶rsvars":8332,"ĠKra":8333,"Ġ65":8334,"reservat":8335,"ĠNa":8336,"ĠDÃ¤remot":8337,"ĠrÃ¶rande":8338,"Ġspeciella":8339,"ĠovanfÃ¶r":8340,"Ġbrig":8341,"elns":8342,"ĠDev":8343,"rind":8344,"Ġvisst":8345,"Ġenkl":8346,"ĠBud":8347,"Ġtidningar":8348,"Ġlager":8349,"Ġrestaurang":8350,"ĠutgÃ¥ng":8351,"Ġklassisk":8352,"Ġâ":8353,"ĠFolket":8354,"ĠbrÃ¶derna":8355,"Den":8356,"olyck":8357,"Ġrester":8358,"vattnet":8359,"ĠtÃ¤vlingar":8360,"ĠKarlskrona":8361,"ikationer":8362,"ĠLee":8363,"ingsliv":8364,"oo":8365,"ĠrÃ¶tter":8366,"ĠfÃ¤ngsl":8367,"lander":8368,"2009":8369,"Ġparken":8370,"ĠOch":8371,"ĠUkraina":8372,"ĠberÃ¤ttelser":8373,"Ġspecif":8374,"ea":8375,"laren":8376,"Ġrot":8377,"ĠLiber":8378,"ĠWolf":8379,"ĠGil":8380,"Ġinvald":8381,"ĠlÃ¶v":8382,"Ġplanet":8383,"ĠKent":8384,"Ġ55":8385,"ymnast":8386,"Ġfal":8387,"Ġsyst":8388,"aterade":8389,"ĠDor":8390,"jorden":8391,"Ġskapar":8392,"hen":8393,"atien":8394,"Ġledningen":8395,"ĠSpelet":8396,"vikt":8397,"ongen":8398,"given":8399,"ĠnÃ¶j":8400,"roende":8401,"aser":8402,"ĠParet":8403,"Ġstarta":8404,"Ġspan":8405,"Ġantas":8406,"Ġrepresenterar":8407,"Al":8408,"bu":8409,"bank":8410,"Ġpseud":8411,"ĠSachsen":8412,"ĠDre":8413,"ĠBarcel":8414,"Ġjudiska":8415,"kvarter":8416,"domar":8417,"ĠKristina":8418,"icks":8419,"ĠIvan":8420,"awa":8421,"sminister":8422,"Ġbryt":8423,"lagda":8424,"ales":8425,"Ã¤ngen":8426,"amat":8427,"Ġmotsats":8428,"ĠLuleÃ¥":8429,"fÃ¶rare":8430,"ĠPas":8431,"alin":8432,"ĠGyllen":8433,"ĠCarolina":8434,"Ġishockey":8435,"bron":8436,"Ġprogramledare":8437,"ĠChristina":8438,"Ġjuridik":8439,"ĠklÃ¤tt":8440,"Ġhistorisk":8441,"ĠJulius":8442,"ĠdÃ¤rifrÃ¥n":8443,"ĠDeutsch":8444,"Ġmonark":8445,"Ġschweiz":8446,"ĠHockey":8447,"Ġvarianter":8448,"ĠPierre":8449,"aris":8450,"Ġdata":8451,"lever":8452,"ĠAmerika":8453,"ulkan":8454,"Ġsekunder":8455,"Ã¤ser":8456,"Ġhanen":8457,"tom":8458,"alia":8459,"Ġbefann":8460,"ĠvÃ¤t":8461,"ĠeftertrÃ¤dare":8462,"ĠgrÃ¶na":8463,"Ġkomplex":8464,"bost":8465,"produktion":8466,"Ġprofessionell":8467,"Ġkusin":8468,"resp":8469,"ema":8470,"ĠCir":8471,"Ġkejsar":8472,"Ġbredd":8473,"ĠPu":8474,"byggnader":8475,"ĠsuccÃ©":8476,"Ġkonstruktion":8477,"ĠÃ¶ar":8478,"ĠHow":8479,"Ġborta":8480,"Ġtorr":8481,"ĠfÃ¥tal":8482,"Ġresultatet":8483,"ĠNordiska":8484,"ĠBorÃ¥s":8485,"ĠinfÃ¶rliv":8486,"Ġdiskuss":8487,"Ġrull":8488,"bilar":8489,"Ġdesig":8490,"ĠskÃ¶ts":8491,"Ġstyrels":8492,"Ã´":8493,"ĠlÃ¤ngst":8494,"Ġnaturliga":8495,"Ġdottern":8496,"ĠavrinningsomrÃ¥de":8497,"ods":8498,"Ġ1849":8499,"ruppen":8500,"ĠMol":8501,"ĠstÃ¤lla":8502,"Ġfasta":8503,"osen":8504,"erings":8505,"ĠutfÃ¶rda":8506,"Ġanges":8507,"ĠstjÃ¤rnor":8508,"best":8509,"ĠRÃ¥":8510,"ĠutstÃ¤llningen":8511,"prÃ¤":8512,"ĠfÃ¶ra":8513,"ĠNav":8514,"Ġram":8515,"lagd":8516,"ĠHouse":8517,"Ġhamnar":8518,"Ġbin":8519,"ĠSym":8520,"exp":8521,"spelare":8522,"Ġarkiv":8523,"ĠfÃ¶relÃ¤s":8524,"Ġformellt":8525,"ĠvÃ¤gar":8526,"almar":8527,"icip":8528,"Ġsynd":8529,"ĠMikael":8530,"iled":8531,"Ġreakt":8532,"Ġcer":8533,"visar":8534,"Ġbeteende":8535,"univers":8536,"Ġlikhet":8537,"tre":8538,"iterna":8539,"uddh":8540,"cernen":8541,"Ġbu":8542,"Ġuppdel":8543,"ĠSur":8544,"ĠVenedig":8545,"Ġmajoritet":8546,"flottilj":8547,"Ġgal":8548,"Ġanst":8549,"ĠfÃ¶ljdes":8550,"ĠivÃ¤g":8551,"Ġgrader":8552,"ĠBan":8553,"Ġinstaller":8554,"frid":8555,"Ġekonomiskt":8556,"ĠEgenskaper":8557,"drÃ¤kt":8558,"Ġ1858":8559,"Ġfaderns":8560,"cia":8561,"mÃ¤t":8562,"osex":8563,"Ġhistoriker":8564,"Ġloppet":8565,"Ġfukt":8566,"Ġskiva":8567,"Ġutarbet":8568,"ĠSlÃ¤kt":8569,"hugg":8570,"ministern":8571,"ĠFast":8572,"Ġskogs":8573,"amo":8574,"Ġalltmer":8575,"Ġ1855":8576,"ĠPrag":8577,"bien":8578,"ĠigÃ¥ng":8579,"Ġhittills":8580,"Ġveta":8581,"ĠkÃ¶ra":8582,"Ġgrekisk":8583,"Ġdigit":8584,"nov":8585,"ĠSib":8586,"ĠSvan":8587,"ockar":8588,"Ġtycks":8589,"Ġanalys":8590,"ĠLevnadssÃ¤tt":8591,"ĠAbb":8592,"ischer":8593,"Ã¤vlingen":8594,"ĠÃĸstergÃ¶tland":8595,"ĠÃ¥terkommande":8596,"Ġhandlingar":8597,"Ġturist":8598,"ots":8599,"ĠRoll":8600,"kamm":8601,"umin":8602,"Ġ42":8603,"ĠutÃ¶kades":8604,"inget":8605,"iser":8606,"verse":8607,"Ġungar":8608,"ĠOmkring":8609,"Ġtillverkas":8610,"sund":8611,"ĠkompositÃ¶r":8612,"ĠHorn":8613,"ĠHenri":8614,"Ġavdelning":8615,"kropp":8616,"ĠlÃ¥ter":8617,"ĠGuds":8618,"ms":8619,"orum":8620,"ĠLit":8621,"Ġtredj":8622,"Ã¤rka":8623,"ĠLim":8624,"ĠIrak":8625,"Ġstadsb":8626,"ĠanstÃ¤llning":8627,"ĠFrancisco":8628,"sspelare":8629,"ĠmÃ¶rka":8630,"xid":8631,"ĠmÃ¶ter":8632,"Ã¶gen":8633,"Ġmonument":8634,"ĠGall":8635,"rÃ¤de":8636,"Ġtand":8637,"Ġsocknens":8638,"har":8639,"Ġvir":8640,"oppar":8641,"ĠSkolan":8642,"ĠCre":8643,"ĠSchw":8644,"cu":8645,"ĠfrÃ¤":8646,"ĠbegrÃ¤nsad":8647,"bÃ¥g":8648,"tur":8649,"Ġgula":8650,"Ġscenen":8651,"Ġknappt":8652,"Ġtidens":8653,"ĠfÃ¶rny":8654,"ĠgÃ¥rdar":8655,"meter":8656,"ĠGir":8657,"Ġminskar":8658,"fjÃ¤r":8659,"chn":8660,"ĠrÃ¤tten":8661,"mass":8662,"ĠOpen":8663,"Ġalt":8664,"Ġkrafter":8665,"ĠfÃ¶rhindra":8666,"fundet":8667,"ĠMilit":8668,"nets":8669,"emo":8670,"ĠLisa":8671,"Ġkant":8672,"Ġunge":8673,"Ġbehandlas":8674,"fÃ¶ring":8675,"ĠFrance":8676,"efteÃ¥":8677,"ĠVI":8678,"Ġkonf":8679,"Ġkanadens":8680,"sborg":8681,"ĠHamilton":8682,"ĠkÃ¶ping":8683,"Ġpoet":8684,"ĠHerr":8685,"fars":8686,"ĠOfta":8687,"Ġprest":8688,"Ġstadsplan":8689,"rottningen":8690,"ĠQue":8691,"Ġkompletter":8692,"rationer":8693,"Ã¶relsen":8694,"Ġfav":8695,"Ġmyn":8696,"ĠmÃ¤ss":8697,"Ġtull":8698,"Ġhud":8699,"Ġunderteck":8700,"inerande":8701,"driv":8702,"mont":8703,"ato":8704,"block":8705,"ĠTw":8706,"ĠgrÃ¤s":8707,"arta":8708,"Ġteoret":8709,"ĠAllmÃ¤n":8710,"Ġoperan":8711,"Ġbusk":8712,"ĠbestÃ¤mmer":8713,"ĠAsk":8714,"angen":8715,"oderna":8716,"Ġkungar":8717,"Ġpasserar":8718,"Ġinstitutet":8719,"Ġplast":8720,"Ġmisslyckades":8721,"bad":8722,"ĠEast":8723,"Ġrobot":8724,"ĠrÃ¶":8725,"Ġryss":8726,"visades":8727,"ĠGreg":8728,"Ġfungera":8729,"Ġsjukdomar":8730,"Ġerbjuder":8731,"ĠViktor":8732,"jÃ¤nster":8733,"teknik":8734,"listan":8735,"styrelsen":8736,"ĠGull":8737,"Ġcivila":8738,"ĠWales":8739,"Ġmatematik":8740,"ĠRobin":8741,"ĠrÃ¶tt":8742,"ĠJung":8743,"ĠInternet":8744,"mod":8745,"iderna":8746,"ĠfÃ¶ds":8747,"Ã©e":8748,"kod":8749,"ĠSec":8750,"staka":8751,"Ġbryta":8752,"Ġmeters":8753,"Ġaktivt":8754,"ĠÃ¶sterut":8755,"ĠFamiljen":8756,"skytt":8757,"Ġskogar":8758,"2001":8759,"ĠsÃ¤te":8760,"Ġskulptur":8761,"Ġaustral":8762,"ĠIsl":8763,"Ġsamla":8764,"Ġoffer":8765,"Ġ1854":8766,"ĠmÃ¤nniska":8767,"ĠVÃ¤rmlands":8768,"ĠWhite":8769,"Ġfruk":8770,"Ġpedagog":8771,"ĠSir":8772,"ĠHass":8773,"ĠKy":8774,"albumet":8775,"Ġframtida":8776,"ĠBig":8777,"ĠHitler":8778,"sur":8779,"Ġklin":8780,"ĠhÃ¤lsa":8781,"ĠuppfÃ¶ra":8782,"Ġengagerad":8783,"rÃ¥ken":8784,"ĠÃ¤tten":8785,"ĠmedfÃ¶rde":8786,"ĠfristÃ¥ende":8787,"ĠLeipzig":8788,"star":8789,"2011":8790,"Ġutgiven":8791,"2004":8792,"delsef":8793,"ĠfÃ¶regÃ¥ngare":8794,"ĠBritish":8795,"ĠAssociation":8796,"ĠMah":8797,"ionsh":8798,"Ġtroll":8799,"Ġpri":8800,"bler":8801,"ĠbÃ¤ra":8802,"ĠfÃ¶rr":8803,"ĠKom":8804,"Ġritades":8805,"ĠContest":8806,"orterade":8807,"Ġlad":8808,"ĠÃ¥rsskiftet":8809,"Ġgruppens":8810,"ĠJacks":8811,"mus":8812,"Ġsekt":8813,"uga":8814,"zy":8815,"ĠhÃ¤vdar":8816,"Ġsupp":8817,"sked":8818,"ĠLat":8819,"platt":8820,"ĠSteph":8821,"Ġfritt":8822,"Ġbandets":8823,"Ġpermanent":8824,"parken":8825,"Ġutex":8826,"venemang":8827,"Ġpartier":8828,"ĠstrÃ¤ckan":8829,"arier":8830,"Ġbehandlar":8831,"kamp":8832,"ray":8833,"ĠTall":8834,"Ġserver":8835,"ĠVirginia":8836,"version":8837,"iotal":8838,"aminerades":8839,"arbeten":8840,"Ġrytt":8841,"Ġkirur":8842,"ĠBack":8843,"Ġsekund":8844,"bell":8845,"ĠLong":8846,"Ġ120":8847,"Ġgrann":8848,"pelen":8849,"aktiga":8850,"Ġanlit":8851,"ĠStreet":8852,"Ġetc":8853,"Ġ1853":8854,"ĠGroup":8855,"Ġdiameter":8856,"Ġhjul":8857,"ĠSA":8858,"ase":8859,"ĠRudolf":8860,"aktigt":8861,"ĠAlban":8862,"Ġregement":8863,"arinna":8864,"ovis":8865,"smyck":8866,"Ġupph":8867,"havet":8868,"ĠMun":8869,"ĠFu":8870,"Ġgrundare":8871,"Ġakv":8872,"hÃ¶gskola":8873,"oma":8874,"Ġkomed":8875,"Ġ1847":8876,"Ã¤sendet":8877,"tÃ¤vlingen":8878,"Ġbegravnings":8879,"Ġcykel":8880,"rÃ¤tts":8881,"Ġdim":8882,"ĠdÃ¤rigenom":8883,"ĠkarriÃ¤ren":8884,"ĠAlexand":8885,"ĠbitrÃ¤dande":8886,"Ġpresenterades":8887,"Ġlicent":8888,"ĠBj":8889,"emb":8890,"Ġorgel":8891,"Ġtyckte":8892,"wald":8893,"ĠTi":8894,"Ġanger":8895,"Ġlandskapet":8896,"Ġfenomen":8897,"TA":8898,"Ġterror":8899,"Ġpartiets":8900,"ĠOrten":8901,"ĠfÃ¶rmÃ¥n":8902,"ĠÃ¤ktenskapet":8903,"nivÃ¥":8904,"Ġhistoriskt":8905,"Ã¨re":8906,"skommunen":8907,"klassen":8908,"Ġbill":8909,"Ġauktor":8910,"dell":8911,"stuna":8912,"eler":8913,"Ġungdomar":8914,"ĠinkÃ¶p":8915,"iks":8916,"ĠFord":8917,"ssjÃ¶n":8918,"ĠKr":8919,"Ġlagar":8920,"Ġavancerade":8921,"ĠIS":8922,"ĠBergen":8923,"ulturen":8924,"ĠlÃ¶jtnant":8925,"ania":8926,"ĠmÃ¤sterskap":8927,"Ġhuvudrollen":8928,"usion":8929,"ose":8930,"ĠBib":8931,"inspel":8932,"derier":8933,"ĠgenomfÃ¶ra":8934,"cken":8935,"Ġlyss":8936,"ĠKas":8937,"Ġlandslaget":8938,"uba":8939,"dan":8940,"ega":8941,"Ġdep":8942,"ĠNumera":8943,"olas":8944,"ĠMic":8945,"Ġutk":8946,"ugis":8947,"ĠRacing":8948,"Ġmagister":8949,"niska":8950,"eben":8951,"Ġsekel":8952,"bur":8953,"ĠstjÃ¤rt":8954,"Ġrepubliken":8955,"Ġdeltagit":8956,"Ġfrans":8957,"Ġstick":8958,"ĠHollywood":8959,"pet":8960,"Ġker":8961,"ĠDÃ¤rmed":8962,"ĠÃ¥tal":8963,"ĠHelsingborgs":8964,"ĠBok":8965,"ĠStrand":8966,"ĠhjÃ¤lpte":8967,"ĠfÃ¶rÃ¤ndring":8968,"Ã¤ttningar":8969,"Ġgitarrist":8970,"ĠOxford":8971,"Ġlista":8972,"Ġinhem":8973,"ĠledamÃ¶ter":8974,"Ġsvans":8975,"Ġbefatt":8976,"ocke":8977,"ĠFÃ¶rfatt":8978,"Ġsocker":8979,"vÃ¤rld":8980,"Ġarkit":8981,"ĠjÃ¤rnÃ¥ldern":8982,"ournal":8983,"Ġbruket":8984,"Ġtings":8985,"olver":8986,"ĠExp":8987,"usten":8988,"Ġskapat":8989,"Ġhuvudsakliga":8990,"natur":8991,"ĠKarlstad":8992,"mÃ¤rke":8993,"ĠpÃ¥verkar":8994,"Ġlicentiat":8995,"ĠnaturvÃ¥rds":8996,"Ġinternet":8997,"satser":8998,"skonst":8999,"ĠEP":9000,"Ġtraditionellt":9001,"rustning":9002,"ĠBall":9003,"Ġskivbolaget":9004,"fred":9005,"ĠansprÃ¥k":9006,"ĠÃ¥tgÃ¤rder":9007,"Ġavslutades":9008,"ĠnÃ¤tverk":9009,"ĠutmÃ¤rkt":9010,"ĠLidingÃ¶":9011,"ides":9012,"jerna":9013,"Ġpan":9014,"Ġfinna":9015,"ytande":9016,"ĠbehÃ¥lla":9017,"lÃ¤ggningar":9018,"Ġrykt":9019,"ylvan":9020,"Ġintresserad":9021,"ĠtrÃ¤ffar":9022,"ĠAhl":9023,"Ġmottog":9024,"ĠLant":9025,"Ã¤mnen":9026,"ĠFÃ¶re":9027,"ĠBirger":9028,"ĠokÃ¤nd":9029,"ĠifrÃ¥gas":9030,"ĠfÃ¶rkl":9031,"ĠMott":9032,"ĠMath":9033,"ĠTar":9034,"ĠPap":9035,"Ġfaller":9036,"ĠArkitekt":9037,"akult":9038,"ĠfÃ¶rlorat":9039,"ĠstÃ¤ndigt":9040,"Ġstadsdel":9041,"ĠÃħnger":9042,"row":9043,"ilja":9044,"Ġskickade":9045,"ĠgrÃ¤v":9046,"Ã¤lsen":9047,"Ġhuvudkontor":9048,"ĠvÃ¤lj":9049,"Ġnaturligt":9050,"ving":9051,"ĠVietnam":9052,"Ġplacering":9053,"skrigets":9054,"ory":9055,"ĠIvar":9056,"major":9057,"stÃ¶r":9058,"Ġblandning":9059,"kommun":9060,"ĠFinn":9061,"ĠundersÃ¶kning":9062,"Ġenheter":9063,"Ġbetong":9064,"Ġregementet":9065,"Ġnedre":9066,"mas":9067,"Ġmus":9068,"ĠKre":9069,"Ġsjunde":9070,"Ġhandboll":9071,"Ġundervisning":9072,"debut":9073,"Ġ44":9074,"ĠHjalmar":9075,"kopp":9076,"fal":9077,"Ġsorter":9078,"Ġklostret":9079,"sbyggnad":9080,"Ã¶den":9081,"evÃ¤r":9082,"ĠsjÃ¤lvmord":9083,"Ġbetydelsen":9084,"Ġskickades":9085,"ĠÃ¶verstel":9086,"ĠomÃ¶j":9087,"ĠVolv":9088,"Ġdrevs":9089,"pi":9090,"ĠFisk":9091,"ĠÃ¤gdes":9092,"ĠpopulÃ¤rt":9093,"Ġdriva":9094,"Ġbefri":9095,"Ġ1852":9096,"pool":9097,"Ġda":9098,"ordin":9099,"sky":9100,"Ġgatan":9101,"Ġtillverka":9102,"Ġpubliken":9103,"anni":9104,"ĠTheodor":9105,"Ġfantas":9106,"Ġbur":9107,"Ġarterna":9108,"eknik":9109,"furt":9110,"stan":9111,"ĠpÃ¥gick":9112,"ĠBag":9113,"vill":9114,"ekterna":9115,"Ã¤rket":9116,"ĠstrÃ¥l":9117,"ĠElit":9118,"Ġbarnet":9119,"ĠborgmÃ¤stare":9120,"jk":9121,"wan":9122,"Ġkoret":9123,"Ġregelbundet":9124,"garna":9125,"ĠhjÃ¤r":9126,"Ġnut":9127,"ĠHud":9128,"ĠFranska":9129,"Ġluften":9130,"ĠâĢľ":9131,"ĠKh":9132,"entals":9133,"ĠWilliams":9134,"Ġhantverk":9135,"ĠChurch":9136,"ih":9137,"plikt":9138,"Ġtypen":9139,"Ġkonkurs":9140,"ĠÃ¥tskilliga":9141,"Ġbyggts":9142,"ĠLudwig":9143,"fran":9144,"ĠtjÃ¤nster":9145,"Ġ1851":9146,"ĠprÃ¤ster":9147,"vagn":9148,"Ġfrakt":9149,"ĠJers":9150,"ĠplÃ¶ts":9151,"ctic":9152,"ripande":9153,"steatern":9154,"Ġtunga":9155,"ello":9156,"Ġ48":9157,"ubbl":9158,"ĠRyd":9159,"ĠbefÃ¤st":9160,"Ġfunktioner":9161,"elen":9162,"ĠArgentina":9163,"Ġhann":9164,"Ġminor":9165,"Ġidentifier":9166,"Ġopposition":9167,"bÃ¥":9168,"ikan":9169,"utz":9170,"demokraterna":9171,"Ġkre":9172,"rey":9173,"ĠjÃ¤rnvÃ¤gsst":9174,"ĠmÃ¶jligheten":9175,"ĠskÃ¤rgÃ¥rd":9176,"ĠBonn":9177,"biska":9178,"ude":9179,"sborgs":9180,"Ġindiska":9181,"Ġodling":9182,"Ġkard":9183,"Ġbebyggelse":9184,"ĠRÃ¶d":9185,"ĠHela":9186,"Ġmyst":9187,"BA":9188,"ĠDra":9189,"Ġvinst":9190,"ĠkÃ¤lla":9191,"Ġleddes":9192,"acitet":9193,"Ġmusikal":9194,"lÃ¤r":9195,"shus":9196,"ĠStift":9197,"atens":9198,"Ġbask":9199,"Ġnot":9200,"ĠNaz":9201,"ĠFilipp":9202,"ĠutgrÃ¤v":9203,"Ġsamlingar":9204,"offer":9205,"stick":9206,"ĠSlaget":9207,"ĠdÃ¶ttrar":9208,"hs":9209,"Ġlikt":9210,"fÃ¶rvalt":9211,"Ġkvalitet":9212,"vÃ¤gg":9213,"ĠÃ¤rv":9214,"sbeslut":9215,"Ġskilda":9216,"ĠCath":9217,"ivÃ¥n":9218,"Ġmotiver":9219,"ĠOrd":9220,"ĠframfÃ¶rde":9221,"dÃ¤r":9222,"Ġfart":9223,"Ġtidning":9224,"Ġandre":9225,"radition":9226,"Ġjapansk":9227,"ĠÃ¤mne":9228,"ĠÃ¤mnet":9229,"ali":9230,"ĠYo":9231,"ĠIg":9232,"Ġbilden":9233,"2012":9234,"sterdam":9235,"intress":9236,"ĠGold":9237,"Ġhelg":9238,"alem":9239,"Ġkanalen":9240,"ĠbelÃ¶nades":9241,"usta":9242,"ĠLam":9243,"yter":9244,"ĠMr":9245,"lige":9246,"Det":9247,"ĠfÃ¤ll":9248,"Ġinred":9249,"ĠRÃ¤tt":9250,"format":9251,"Ġrepar":9252,"mÃ¤ssigt":9253,"icipal":9254,"konstnÃ¤r":9255,"Ġager":9256,"vald":9257,"Ġinspiration":9258,"Ġutrustning":9259,"jaure":9260,"ĠKonsta":9261,"andena":9262,"ĠlÃ¥tarna":9263,"oman":9264,"Ġregioner":9265,"ĠVetenskapsakademien":9266,"engelska":9267,"ĠGes":9268,"ĠÃ¤ndrade":9269,"Ġreduc":9270,"enz":9271,"Ã¤song":9272,"ĠfÃ¥ngar":9273,"Ġkanon":9274,"afÃ©":9275,"Ġkemi":9276,"ĠHÃ¥kan":9277,"ĠmÃ¤kt":9278,"Ġkvinnan":9279,"line":9280,"Ġlyckats":9281,"Ġunionen":9282,"ĠSeries":9283,"ĠjÃ¤tt":9284,"Ġsil":9285,"Ġfrik":9286,"ordet":9287,"ĠNorges":9288,"snÃ¤m":9289,"ismens":9290,"ĠKungs":9291,"dent":9292,"ĠSus":9293,"fald":9294,"ĠPont":9295,"Ġspar":9296,"Ġsenaten":9297,"ĠfÃ¶regÃ¥ende":9298,"Ġgentemot":9299,"mes":9300,"pek":9301,"ime":9302,"Ġalls":9303,"Ġmanliga":9304,"ĠSkepp":9305,"Ġspelen":9306,"ĠPrem":9307,"Ġreferens":9308,"ĠArne":9309,"Ġbeteckningen":9310,"Ġtydlig":9311,"Ġfiender":9312,"ĠBlekinge":9313,"ĠBild":9314,"ĠFestival":9315,"mars":9316,"Ġavbild":9317,"ĠokÃ¤nt":9318,"IA":9319,"ĠdÃ¶dades":9320,"ĠfÃ¶rmÃ¶gen":9321,"givning":9322,"ĠSociety":9323,"In":9324,"Ġuppdraget":9325,"ĠfÃ¶rra":9326,"ĠUtan":9327,"Ġveckan":9328,"berÃ¤tt":9329,"Ġstarten":9330,"ĠgrÃ¤nser":9331,"lich":9332,"ĠFeder":9333,"ukas":9334,"Ġ41":9335,"ĠHalmstad":9336,"ĠHammarby":9337,"ĠfolkrÃ¤kningen":9338,"ĠFem":9339,"Ã¤gge":9340,"ual":9341,"ĠrÃ¥k":9342,"Ġfikt":9343,"agar":9344,"bergen":9345,"Ġdrogs":9346,"Ġflest":9347,"ĠSpar":9348,"ĠEuropas":9349,"Ġ1809":9350,"Ġcykl":9351,"Ġhast":9352,"Ġraka":9353,"Ġbetydelsef":9354,"felt":9355,"ĠUp":9356,"Ġposten":9357,"ardo":9358,"center":9359,"Ġmillimeter":9360,"Ġorganiserade":9361,"ĠYtterligare":9362,"Ġgruv":9363,"Ġdiverse":9364,"Ġpreuss":9365,"ĠsÃ¶ker":9366,"Ġgolf":9367,"ĠCra":9368,"Ġbeton":9369,"ĠGotlands":9370,"ĠSÃ¶r":9371,"ĠBah":9372,"serier":9373,"ĠstÃ¶dde":9374,"Ġrakt":9375,"rÃ¶na":9376,"ĠGlas":9377,"ario":9378,"former":9379,"Ġutexaminerades":9380,"partement":9381,"ĠTeam":9382,"2002":9383,"ĠLew":9384,"rekord":9385,"mÃ¥ga":9386,"sens":9387,"Ġpres":9388,"ĠStrax":9389,"ĠsÃ¤r":9390,"kons":9391,"2003":9392,"plex":9393,"ĠfÃ¶rn":9394,"ĠLouise":9395,"Ġmyndighet":9396,"ĠstÃ¤llen":9397,"ĠAmsterdam":9398,"Ġdomsagor":9399,"ĠResult":9400,"ique":9401,"ĠhÃ¤x":9402,"Ġformel":9403,"fas":9404,"Ġskogen":9405,"ĠmÃ¤sterskapet":9406,"alla":9407,"aktiv":9408,"Ġexport":9409,"ĠWindows":9410,"ĠAnvÃ¤ndning":9411,"ĠdrÃ¤kt":9412,"ĠNorm":9413,"Ġtyder":9414,"Ġhamnen":9415,"ĠEskilstuna":9416,"ross":9417,"iste":9418,"ĠhÃ¤ndelse":9419,"ĠHess":9420,"ters":9421,"gÃ¶ring":9422,"Ġdeltagare":9423,"ĠnaturvÃ¥rdsunionen":9424,"ĠBred":9425,"venser":9426,"Ġ1820":9427,"Ġtronen":9428,"edia":9429,"uslÃ¤n":9430,"hamm":9431,"Ġaktiviteter":9432,"Ġuppfost":9433,"ĠSÃ¶dertÃ¤lje":9434,"ĠBarcelona":9435,"ĠTyska":9436,"ĠOne":9437,"asa":9438,"asar":9439,"ĠframtrÃ¤dde":9440,"versionen":9441,"ĠCarlsson":9442,"politik":9443,"ĠChampionsh":9444,"ĠfÃ¶rsÃ¤ljning":9445,"skamp":9446,"ĠLok":9447,"ĠersÃ¤tta":9448,"Ġutsatt":9449,"ĠPreussen":9450,"uster":9451,"stenar":9452,"ĠtjÃ¤nstem":9453,"ĠReal":9454,"Ġhelikop":9455,"ĠBÃ¶":9456,"Ġbakter":9457,"ĠmotorvÃ¤g":9458,"Ġmateri":9459,"Ġhittar":9460,"sdotter":9461,"ĠsÃ¥gs":9462,"ĠRolf":9463,"Ġ1810":9464,"ĠÃ¥stad":9465,"ĠUppland":9466,"ĠfÃ¶restÃ¥ndare":9467,"Ġhim":9468,"Ġbist":9469,"ĠGlob":9470,"ĠfÃ¶gderier":9471,"Ġankn":9472,"Ġsenast":9473,"Ġlive":9474,"mÃ¥lningar":9475,"ĠFlorida":9476,"ĠfÃ¶rfÃ¶lj":9477,"Ġmannen":9478,"usentals":9479,"pital":9480,"Ġenstaka":9481,"Ġkommunala":9482,"ĠinfÃ¶rde":9483,"ĠIb":9484,"ĠingÃ¥":9485,"Ġdiagn":9486,"Ġkronan":9487,"Ġversioner":9488,"Ġkretsar":9489,"Ġ43":9490,"Ġabsolut":9491,"ĠCont":9492,"Ġ64":9493,"ĠfÃ¤ltt":9494,"ĠidÃ©n":9495,"Ġintressen":9496,"rummet":9497,"Ġindelta":9498,"Ġapotek":9499,"Ġjuris":9500,"Ġsignal":9501,"Ġrinner":9502,"blick":9503,"ĠSpring":9504,"ĠRumÃ¤n":9505,"edal":9506,"Ã¤garen":9507,"manuel":9508,"Ġ1846":9509,"Ġmordet":9510,"Ġmid":9511,"Ġkass":9512,"ĠpÃ¥ven":9513,"ogg":9514,"nÃ¤t":9515,"Ġarrester":9516,"ĠfÃ¶retog":9517,"ingham":9518,"ĠTors":9519,"rÃ¤da":9520,"ĠLinkÃ¶pings":9521,"ĠModern":9522,"Ġvarken":9523,"Ġblivande":9524,"rÃ¶ts":9525,"Ġ1844":9526,"Ġhyd":9527,"Ġkommend":9528,"Ġnerv":9529,"Ġdisputerade":9530,"ason":9531,"ĠTony":9532,"ĠberÃ¶r":9533,"ĠAllt":9534,"ĠsÃ¥ngen":9535,"ĠrenÃ¤ss":9536,"stÃ¤llda":9537,"ĠHonan":9538,"die":9539,"enskomm":9540,"oro":9541,"rie":9542,"dÃ¶met":9543,"Ġtala":9544,"elli":9545,"Ġfrek":9546,"aku":9547,"Ġstatens":9548,"trÃ¤sket":9549,"ĠSÃ¤":9550,"ĠskulptÃ¶r":9551,"ĠEss":9552,"ells":9553,"klart":9554,"ĠBrown":9555,"befÃ¤l":9556,"ito":9557,"Ġdominerande":9558,"Ġavsikt":9559,"bÃ¥tar":9560,"ĠAsh":9561,"Ġskul":9562,"ĠFranÃ§":9563,"Ġstanna":9564,"Ġhalvan":9565,"Ġhumor":9566,"Ġskytt":9567,"ĠVolk":9568,"Ġheliga":9569,"fÃ¶rt":9570,"ĠEstland":9571,"Ġbergs":9572,"ĠPrivat":9573,"ĠSkÃ¤r":9574,"ĠbefÃ¤lhavare":9575,"eo":9576,"ĠWester":9577,"Ġaltar":9578,"venska":9579,"iction":9580,"innet":9581,"ĠrÃ¶relser":9582,"Ġsyssels":9583,"Ġ1845":9584,"Ġhundrat":9585,"ĠintrÃ¤ffade":9586,"mosfÃ¤r":9587,"ili":9588,"ĠBond":9589,"Ġtrea":9590,"Ġpresidenten":9591,"bit":9592,"Ġutsmyck":9593,"skrivare":9594,"lÃ¶sning":9595,"Ġflickor":9596,"Ġkeram":9597,"estern":9598,"ĠalltfÃ¶r":9599,"match":9600,"festivalen":9601,"ĠTun":9602,"ĠPic":9603,"ĠJugoslav":9604,"Ġpresenterade":9605,"ĠvÃ¤ljer":9606,"Ġmyndigheterna":9607,"lÃ¥t":9608,"Ġdin":9609,"ĠFrid":9610,"husen":9611,"'t":9612,"nis":9613,"Ġ47":9614,"Ġkraftiga":9615,"Ġevangel":9616,"ĠBegreppet":9617,"rell":9618,"Ġpartiled":9619,"Ġmottag":9620,"Ġbarndom":9621,"ĠfÃ¶rhand":9622,"ĠMala":9623,"itation":9624,"ĠIndustri":9625,"Ġverktyg":9626,"ew":9627,"Ġstationen":9628,"Ġlivstid":9629,"Ġtrupperna":9630,"usalem":9631,"ĠEliza":9632,"ĠAndrÃ©":9633,"ĠGram":9634,"ĠmÃ¤nniskans":9635,"Ġintryck":9636,"Ġtrop":9637,"Ġpapper":9638,"Ġrekt":9639,"Ġljusare":9640,"ĠStanley":9641,"Ġhyr":9642,"Ġinrikes":9643,"ĠLjus":9644,"komsten":9645,"Ġproducera":9646,"ĠPla":9647,"Ġspecialis":9648,"ĠAh":9649,"ĠKroatien":9650,"artade":9651,"formation":9652,"Ġmagnet":9653,"ĠJÃ¶nkÃ¶ping":9654,"nats":9655,"Ġtemper":9656,"Ġsjunger":9657,"gjord":9658,"Ġtaget":9659,"Ġbyta":9660,"Ġkonver":9661,"Ġexperiment":9662,"Ġditt":9663,"ĠDrag":9664,"ĠRiver":9665,"operat":9666,"ĠÃħrets":9667,"ĠrÃ¶sterna":9668,"ĠPhilip":9669,"vag":9670,"Ġsluta":9671,"Ġmagn":9672,"igaste":9673,"smanska":9674,"ĠbesÃ¶kare":9675,"ĠomrÃ¥dena":9676,"Ġbreda":9677,"ĠbrÃ¶der":9678,"ĠFrankrikes":9679,"ĠJÃ¶nkÃ¶pings":9680,"Ã¤kerhet":9681,"ĠNick":9682,"Ġportugis":9683,"aus":9684,"Ã¥get":9685,"Ġintegr":9686,"ĠBertil":9687,"ĠHÃ¶sten":9688,"vinsen":9689,"ĠSilver":9690,"ĠSoph":9691,"Ġlung":9692,"ĠHÃ¤st":9693,"unktion":9694,"Ġtidskrift":9695,"ĠAmerik":9696,"ĠPek":9697,"ĠInstit":9698,"ĠtillfÃ¥ng":9699,"ĠdÃ¥lig":9700,"lara":9701,"logs":9702,"rund":9703,"ĠFÃ¶lj":9704,"ranschen":9705,"ĠkÃ¶k":9706,"ĠÃ¶verstelÃ¶jtnant":9707,"aki":9708,"Ġtecknade":9709,"feldt":9710,"âģ":9711,"Ġbelg":9712,"ĠVictoria":9713,"ĠLandskommunen":9714,"ĠmjÃ¶lk":9715,"ops":9716,"ĠrÃ¥dgivare":9717,"stationen":9718,"Ġ1842":9719,"FC":9720,"ĠMÃ¶":9721,"ĠKÃ¤ll":9722,"Ġbildandet":9723,"anske":9724,"Ġkonsul":9725,"gl":9726,"ĠEndast":9727,"onny":9728,"ĠGam":9729,"ĠDick":9730,"Ã¦r":9731,"agu":9732,"ĠGard":9733,"Ġbeord":9734,"ĠDun":9735,"aurus":9736,"sfullmÃ¤ktige":9737,"Ġadministrativa":9738,"arell":9739,"Ġpel":9740,"ĠCy":9741,"ĠuppfÃ¶rd":9742,"dÃ¶":9743,"pat":9744,"ĠMoh":9745,"Ġsvag":9746,"Ġtoppen":9747,"Ġtempel":9748,"ĠUtveck":9749,"ĠhÃ¥rda":9750,"Ġnominerades":9751,"ÃĦ":9752,"strÃ¥":9753,"vinna":9754,"Ġarrang":9755,"mog":9756,"ĠBang":9757,"Ġ%),":9758,"Ġklubbens":9759,"Ġuppkallad":9760,"Ġvulkan":9761,"Ġsegrar":9762,"ĠJersey":9763,"Ġnaturreservat":9764,"ĠuppstÃ¥":9765,"Ġkarakter":9766,"hÃ¤r":9767,"ree":9768,"Ġmedalj":9769,"Ġperioder":9770,"ĠOperan":9771,"ubileum":9772,"Ġcit":9773,"verksamheten":9774,"ards":9775,"Ġkontra":9776,"Ġligga":9777,"ĠsÃ¶nd":9778,"Ġnordost":9779,"svensk":9780,"ĠHedvig":9781,"Ġmikro":9782,"Ġ1815":9783,"hÃ¥llare":9784,"Ġskrivna":9785,"Ġmaxim":9786,"ked":9787,"skam":9788,"ĠamatÃ¶r":9789,"ĠberÃ¤ttade":9790,"effekt":9791,"Ġford":9792,"Ġcon":9793,"Ġfigurer":9794,"tj":9795,"Ġsegel":9796,"Ġscener":9797,"Ġbott":9798,"ĠBest":9799,"ĠvÃ¤ger":9800,"lÃ¶p":9801,"Ġfakult":9802,"atts":9803,"ĠJane":9804,"ĠHarris":9805,"Ġkronprin":9806,"ĠTelevision":9807,"kors":9808,"osh":9809,"Ġungdoms":9810,"Ġum":9811,"ĠHelena":9812,"ĠMill":9813,"ĠkroppslÃ¤ngd":9814,"ĠJesu":9815,"ĠGiov":9816,"ĠKÃ¶l":9817,"akien":9818,"Ġindian":9819,"ĠKristus":9820,"baserade":9821,"Ġavlid":9822,"Ġstig":9823,"ĠBun":9824,"eval":9825,"Ġkry":9826,"hol":9827,"ĠMess":9828,"maskin":9829,"akespe":9830,"aria":9831,"Ġgrat":9832,"teras":9833,"ĠNyheter":9834,"ĠfÃ¶rbÃ¤ttra":9835,"speriod":9836,"aret":9837,"ĠBron":9838,"ĠPala":9839,"utskottet":9840,"ĠXII":9841,"ĠgrÃ¤nsar":9842,"ĠJerusalem":9843,"oz":9844,"ĠOber":9845,"kong":9846,"Ġregionala":9847,"ĠAkademien":9848,"Ġverka":9849,"Ġavser":9850,"terat":9851,"ĠMik":9852,"hÃ¥l":9853,"blÃ¥":9854,"ublic":9855,"cout":9856,"Ġkontrovers":9857,"Ġbyttes":9858,"Ġdjupt":9859,"hot":9860,"ĠutÃ¶ver":9861,"Ġdeleg":9862,"rantz":9863,"Ġegentliga":9864,"mag":9865,"ĠTomm":9866,"ĠÃ¶vervÃ¤g":9867,"snamn":9868,"ĠSommaren":9869,"Ġtyg":9870,"Ã¤rta":9871,"ĠdvÃ¤r":9872,"ĠKvinn":9873,"idningen":9874,"ĠLitt":9875,"ĠLab":9876,"tals":9877,"lÃ¶m":9878,"ĠmÃ¶jligheter":9879,"ĠhÃ¤":9880,"Ġveget":9881,"ĠSab":9882,"elson":9883,"Ġtalade":9884,"ĠZeeland":9885,"Ġdygn":9886,"Ġutvecklat":9887,"Ġegypt":9888,"Ġregeringens":9889,"ĠJoe":9890,"tÃ¤vling":9891,"Ġskarp":9892,"ĠambassadÃ¶r":9893,"ilien":9894,"terad":9895,"ave":9896,"ĠSkell":9897,"ĠSkÃ¥nska":9898,"ĠangÃ¥ende":9899,"fÃ¶rhÃ¥ll":9900,"ĠChile":9901,"Ġklassific":9902,"ofta":9903,"Ġmandatperi":9904,"Ġsens":9905,"mÃ¤ngden":9906,"ionjÃ¤r":9907,"Ġ46":9908,"Ġsystematik":9909,"ĠBayern":9910,"ĠJackson":9911,"Ġgarn":9912,"ĠMinnes":9913,"Ġfemin":9914,"rill":9915,"onien":9916,"Ġfasad":9917,"ye":9918,"Ġskil":9919,"hÃ¶righet":9920,"ĠfÃ¶rstÃ¤rk":9921,"ners":9922,"ĠSture":9923,"ourt":9924,"arden":9925,"Ã¥ns":9926,"Ġkonservativa":9927,"Ġball":9928,"sken":9929,"ĠAug":9930,"Ġbetyg":9931,"Ġdro":9932,"ĠGrupp":9933,"Ġvackra":9934,"Ġvakt":9935,"Ġavhandling":9936,"ĠskÃ¶ld":9937,"erierna":9938,"ĠShakespe":9939,"frÃ¥gan":9940,"vagnar":9941,"Ġkonkurrens":9942,"Ġengagemang":9943,"ĠNikol":9944,"skole":9945,"ĠRoad":9946,"udi":9947,"ĠvÃ¤nskap":9948,"ĠomgÃ¥ngen":9949,"akade":9950,"opulationen":9951,"Ġhomosex":9952,"Ġbonde":9953,"ĠrÃ¶n":9954,"ĠÃ¶vertal":9955,"Ġnyhet":9956,"Ġmusikvide":9957,"ĠFinska":9958,"ĠBrook":9959,"Ġfattiga":9960,"fÃ¥gel":9961,"eljÃ©":9962,"junkt":9963,"Ã¶pp":9964,"ĠfinlÃ¤ndska":9965,"col":9966,"ĠpÃ¥verka":9967,"ĠvÃ¤rme":9968,"ĠÃ¤nka":9969,"Ġnationell":9970,"Ġflertalet":9971,"Ġtusen":9972,"ĠvÃ¤s":9973,"ĠHÃ¤ll":9974,"hult":9975,"Ãł":9976,"chs":9977,"ĠPed":9978,"ĠrÃ¶k":9979,"sprogram":9980,"ĠTay":9981,"Ġfriherre":9982,"Ġtorra":9983,"sledare":9984,"ĠBohuslÃ¤n":9985,"DA":9986,"ĠStaff":9987,"bÃ¤ck":9988,"resa":9989,"Ġperspektiv":9990,"Ġinrym":9991,"ĠupphÃ¶j":9992,"eborgs":9993,"Ġstadsm":9994,"ĠDanmarks":9995,"Ġbackhopp":9996,"yser":9997,"ĠSeb":9998,"Ġskett":9999,"Ġverkliga":10000,"ĠtillÃ¤gg":10001,"ĠmÃ¶jliga":10002,"hallen":10003,"Ġstater":10004,"Ġannor":10005,"varig":10006,"ĠrÃ¤tta":10007,"manna":10008,"Ġpal":10009,"udan":10010,"zen":10011,"Ġintern":10012,"odd":10013,"Ġrekry":10014,"ekonomi":10015,"river":10016,"Ġtidnings":10017,"Ġcom":10018,"sele":10019,"Ġsenator":10020,"Ġ52":10021,"ĠpÃ¥verkan":10022,"fyll":10023,"ĠKÃ¶n":10024,"Ġlinjer":10025,"Ġarbetsg":10026,"ĠEleon":10027,"ĠInstitute":10028,"trafik":10029,"ĠtillfÃ¶rord":10030,"repren":10031,"Ġuppfattning":10032,"ariska":10033,"avel":10034,"inte":10035,"Ġrikets":10036,"ĠmÃ¶ta":10037,"Ġexpans":10038,"Ġkallats":10039,"ĠJuan":10040,"Ġdvs":10041,"ĠFac":10042,"1998":10043,"ĠtillfÃ¥ngat":10044,"typ":10045,"ĠSep":10046,"staben":10047,"stÃ¤lla":10048,"Ġhandlade":10049,"ĠAllsvenskan":10050,"Ġtjeck":10051,"okoll":10052,"Ġhuvudperson":10053,"alog":10054,"Ġvaror":10055,"Ġsmitt":10056,"Ġtidskrifter":10057,"Ġryggen":10058,"ĠMargaret":10059,"iebolag":10060,"ĠKle":10061,"astrof":10062,"Ġsuccess":10063,"Ã¶det":10064,"ĠerÃ¶vrade":10065,"Ġsituationen":10066,"ĠPot":10067,"Ġreser":10068,"gjort":10069,"Ġvagn":10070,"ĠfÃ¶retagets":10071,"ĠDavis":10072,"Ġsituation":10073,"Ġavst":10074,"ĠBull":10075,"ĠByggnad":10076,"kÃ¤nna":10077,"rÃ¤nd":10078,"oker":10079,"ĠMajor":10080,"Ġskivor":10081,"ĠÃ¶de":10082,"Ġ1839":10083,"ĠBillboard":10084,"ese":10085,"immer":10086,"ĠnÃ¤mnda":10087,"fÃ¥glar":10088,"lÃ¤kare":10089,"ĠGrav":10090,"Ġkorrekt":10091,"ĠEmma":10092,"ĠsjÃ¤lvstÃ¤ndig":10093,"tio":10094,"ĠtÃ¤m":10095,"ĠFir":10096,"Ġexperim":10097,"ĠVisby":10098,"moder":10099,"ĠÃħter":10100,"Ġsommars":10101,"kunn":10102,"ralen":10103,"onger":10104,"skÃ¥despel":10105,"1970":10106,"ĠsjÃ¤lvstÃ¤ndigt":10107,"Ġkunder":10108,"ĠFro":10109,"Ġpopularitet":10110,"ĠÃ¤mbetsman":10111,"rÃ¶stning":10112,"ĠVolvo":10113,"ĠVers":10114,"arts":10115,"Ġfinner":10116,"Ġsegern":10117,"En":10118,"hiel":10119,"ingst":10120,"iserad":10121,"Ġverkligen":10122,"ĠDoug":10123,"sko":10124,"reb":10125,"ĠsjÃ¤lvbi":10126,"ĠFoot":10127,"ĠYoung":10128,"ĠLen":10129,"Ġstridsv":10130,"mÃ¤st":10131,"Ġkommunerna":10132,"Ġhelhet":10133,"vas":10134,"ligan":10135,"Ġrak":10136,"ĠSÃ¶dermalm":10137,"eledamot":10138,"ĠGill":10139,"Ġnyligen":10140,"Ġbildat":10141,"Ġdiplomat":10142,"aver":10143,"ĠÃĦr":10144,"ĠPettersson":10145,"nord":10146,"ĠVlad":10147,"Ġpappers":10148,"Ġblommor":10149,"fÃ¶ll":10150,"rapp":10151,"ĠStort":10152,"ĠLeop":10153,"Ġmodellen":10154,"kin":10155,"slÃ¤pp":10156,"ĠvÃ¤rldsc":10157,"ĠhjÃ¤lper":10158,"ĠWilson":10159,"Ġinkorpor":10160,"Ġuteslutande":10161,"ĠVÃ¤g":10162,"ĠvÃ¤rldskrigets":10163,"Ġvistades":10164,"Ġviking":10165,"ĠTob":10166,"Ġspring":10167,"Ġinstift":10168,"ĠUrsprungligen":10169,"Ġkab":10170,"ionerna":10171,"Ġemig":10172,"Ġframtiden":10173,"ĠFadern":10174,"ĠTal":10175,"Ġ1812":10176,"rond":10177,"Ġfriidrott":10178,"avsett":10179,"Ġreformer":10180,"ĠFall":10181,"opol":10182,"odell":10183,"Ġsnabbare":10184,"athan":10185,"akon":10186,"fir":10187,"ĠgÃ¤ng":10188,"Ġstenar":10189,"Ġbruna":10190,"ĠChampionship":10191,"ĠSid":10192,"ĠRunt":10193,"Ġminskat":10194,"ĠBoston":10195,"fund":10196,"ĠRoger":10197,"Ġinkomst":10198,"ĠBoll":10199,"osse":10200,"Ġbeskrevs":10201,"rys":10202,"rÃ¥gor":10203,"forskare":10204,"ĠPrins":10205,"lÃ¤ng":10206,"Ġmellersta":10207,"ĠLiver":10208,"sbolaget":10209,"skolans":10210,"ĠmisstÃ¤nkt":10211,"Ġfinsk":10212,"shem":10213,"ĠEuropap":10214,"ĠupptÃ¤cker":10215,"Ġvistas":10216,"enan":10217,"Ġfi":10218,"ĠAth":10219,"redit":10220,"ĠKalle":10221,"ĠÃ¶sterrikiska":10222,"Ġstyre":10223,"ĠnÃ¤rliggande":10224,"ĠfÃ¶rsamlingar":10225,"ĠflÃ¤ckar":10226,"ĠEbb":10227,"fÃ¶rband":10228,"imir":10229,"ĠhÃ¤rrÃ¶r":10230,"ĠManchester":10231,"fallet":10232,"Ġklubbar":10233,"rala":10234,"ĠCec":10235,"Ġsydost":10236,"Ġviolin":10237,"ĠhÃ¶st":10238,"sbron":10239,"Ġregent":10240,"ĠWallen":10241,"Ġgrundat":10242,"Ġavsedd":10243,"Ġprat":10244,"ĠItal":10245,"ekom":10246,"ĠTidningen":10247,"kroppen":10248,"ĠbronsÃ¥ldern":10249,"ves":10250,"ami":10251,"angul":10252,"ĠhÃ¶ra":10253,"2013":10254,"ĠBrandenburg":10255,"Ġdrar":10256,"ĠProjekt":10257,"Ġmyr":10258,"ĠanmÃ¤l":10259,"ĠNar":10260,"oppet":10261,"ĠAlice":10262,"Ġteckningar":10263,"Ġstarkare":10264,"vo":10265,"agas":10266,"ĠMans":10267,"ĠLÃ¼":10268,"ĠOskar":10269,"ĠWahl":10270,"handlare":10271,"ĠÃĦn":10272,"fÃ¶rbin":10273,"uke":10274,"Ġ1843":10275,"1999":10276,"Ġme":10277,"ĠLaget":10278,"ledamot":10279,"ĠClark":10280,"Ġkans":10281,"Ġhembygd":10282,"Ġelektrisk":10283,"instrument":10284,"hjÃ¤lp":10285,"ĠFornlÃ¤mningar":10286,"ĠsÃ¤mre":10287,"hagen":10288,"klock":10289,"stenen":10290,"Ġspeciell":10291,"ĠpjÃ¤s":10292,"Jag":10293,"hop":10294,"ĠRub":10295,"ĠÃ¥ka":10296,"ĠÃ¥terin":10297,"Ġlabor":10298,"ĠRagnar":10299,"ĠBergman":10300,"Ġtraditionell":10301,"ĠCharlotte":10302,"Ġmedicinska":10303,"Ġuppenbar":10304,"cupen":10305,"fÃ¥ng":10306,"atus":10307,"ĠkrÃ¶n":10308,"ĠAten":10309,"Ġteknisk":10310,"Ġbox":10311,"Ġnovell":10312,"Ġstuderat":10313,"Ġbegravdes":10314,"ĠSex":10315,"Ġsyskon":10316,"ĠNobel":10317,"ilia":10318,"âĤĤ":10319,"Ġmans":10320,"onte":10321,"ĠfÃ¶rmed":10322,"ĠbenÃ¤mningen":10323,"text":10324,"Ġdivisionen":10325,"ĠAx":10326,"ĠTrÃ¤":10327,"ĠIB":10328,"Ġresp":10329,"ĠutgÃ¶ra":10330,"ĠhalvÃ¶n":10331,"ĠBernhard":10332,"Ġtorget":10333,"flykt":10334,"ologer":10335,"Ã¤rskilt":10336,"roduktion":10337,"ĠPartiet":10338,"ĠSkandinavien":10339,"gÃ¥tt":10340,"ĠvÃ¤nde":10341,"ĠKos":10342,"1945":10343,"Ġgrov":10344,"alle":10345,"Ġoav":10346,"ĠavlÃ¤gs":10347,"Ġturnerade":10348,"ĠavgrÃ¤ns":10349,"ĠTyp":10350,"slÃ¶sa":10351,"Ġovansidan":10352,"rÃ¤dgÃ¥rd":10353,"Ġinspelningen":10354,"ĠfÃ¶delse":10355,"Ġearl":10356,"Ġvild":10357,"ĠtonsÃ¤ttare":10358,"fast":10359,"ĠBryss":10360,"ĠutlÃ¤ndsk":10361,"ordningen":10362,"grÃ¥":10363,"Ġskade":10364,"Ġmamma":10365,"ymologi":10366,"ĠSpeci":10367,"Ġteorier":10368,"nag":10369,"Ġ51":10370,"Ġminim":10371,"ĠvÃ¤sterut":10372,"Ġkammare":10373,"Ġtomt":10374,"Ġvilar":10375,"Ġplanen":10376,"ĠMedic":10377,"producent":10378,"Ġzo":10379,"brand":10380,"ĠFrances":10381,"Ġskogsb":10382,"1994":10383,"fullmÃ¤ktige":10384,"stjÃ¤rnen":10385,"Ġindelning":10386,"ĠfÃ¶rmÃ¥g":10387,"ĠanlÃ¤ggningen":10388,"ence":10389,"Ġansvaret":10390,"Ġskadade":10391,"Ġmunicipal":10392,"ĠdÃ¶ptes":10393,"Ġry":10394,"ĠslÃ¤ktingar":10395,"bek":10396,"Ġtraditionen":10397,"jel":10398,"Ġombyggnad":10399,"ummer":10400,"Ġkonung":10401,"satsen":10402,"ymnastik":10403,"Ġost":10404,"ĠbÃ¥l":10405,"entligt":10406,"Ġbeskriva":10407,"ĠerbjÃ¶d":10408,"Ġstudieresor":10409,"Ġannorlunda":10410,"Ġemellan":10411,"ĠNight":10412,"ĠatmosfÃ¤r":10413,"Ġnoggran":10414,"Ġac":10415,"ĠBM":10416,"ĠÃ¶verra":10417,"icus":10418,"Ġsvenske":10419,"ĠNorrbottens":10420,"ĠSydamerika":10421,"An":10422,"Ġorter":10423,"ĠÃ¤go":10424,"ĠmilitÃ¤rt":10425,"ĠSolna":10426,"kvist":10427,"uz":10428,"ĠlÃ¤roverk":10429,"Ġgeneration":10430,"ĠmÃ¶ttes":10431,"rationen":10432,"arth":10433,"Ġeurope":10434,"lers":10435,"dagar":10436,"Ġrike":10437,"ĠTeatern":10438,"delserna":10439,"Ġvuxen":10440,"Ġhuman":10441,"Sk":10442,"itiska":10443,"Ġstol":10444,"ĠMell":10445,"aken":10446,"odoxa":10447,"alo":10448,"Ġtidpunkt":10449,"Ġnybygg":10450,"Ġhittas":10451,"Ġkos":10452,"trÃ¤danden":10453,"Ġturneringen":10454,"ĠUnion":10455,"ĠVinter":10456,"ĠdokumentÃ¤r":10457,"Ġuppmunt":10458,"Ġgill":10459,"ilder":10460,"ĠFas":10461,"Ġflyttar":10462,"AR":10463,"jev":10464,"kÃ¥ren":10465,"tagande":10466,"rÃ¤ngen":10467,"antik":10468,"ĠmÃ¥leri":10469,"Ġkub":10470,"Ġengagerade":10471,"ĠEuropaparlament":10472,"ĠavrÃ¤ttades":10473,"ristall":10474,"ĠAli":10475,"ĠConne":10476,"ily":10477,"klin":10478,"Ġsolo":10479,"bul":10480,"Ã¤ten":10481,"Ġminsta":10482,"emplet":10483,"karl":10484,"tidigare":10485,"Ġdubbelt":10486,"pir":10487,"sklass":10488,"Ġlektor":10489,"ĠAct":10490,"ĠFern":10491,"ĠEkonom":10492,"ĠEnter":10493,"Ġlitteraturen":10494,"ĠAcadem":10495,"ĠAdel":10496,"Ġkommunistiska":10497,"Ġsjukhuset":10498,"bruna":10499,"ĠdÃ¥tid":10500,"Ġbyggandet":10501,"eyer":10502,"Ġtaket":10503,"Ġassistent":10504,"Ġfoss":10505,"Ã¤nneteck":10506,"utan":10507,"ĠJim":10508,"Ġkommunist":10509,"Ġpolsk":10510,"sfÃ¶reningen":10511,"Ġpriser":10512,"SM":10513,"halv":10514,"Ġrika":10515,"Ġ49":10516,"Ġbyar":10517,"ĠCamb":10518,"ischen":10519,"uti":10520,"ladd":10521,"ositionen":10522,"Ġenklare":10523,"beg":10524,"hof":10525,"ĠKaz":10526,"Ġteologi":10527,"ertigen":10528,"ĠOlympiska":10529,"ĠsnÃ¶":10530,"fi":10531,"Ġfon":10532,"ĠStu":10533,"ĠShow":10534,"ĠKonstnÃ¤r":10535,"bag":10536,"Ġanat":10537,"rÃ¤tter":10538,"kademin":10539,"Ġriksdagsledamot":10540,"Ġorsakade":10541,"ĠnederlÃ¤ndska":10542,"go":10543,"post":10544,"Ġkapital":10545,"Ġakter":10546,"Ġstore":10547,"ĠberÃ¤ttelse":10548,"ĠSor":10549,"ĠJohanna":10550,"Ġ1841":10551,"Ġintresserade":10552,"Ġinflytelser":10553,"ĠtillkÃ¤nna":10554,"Ã©l":10555,"ĠinnehÃ¥lla":10556,"Ġflitigt":10557,"ĠBow":10558,"maskiner":10559,"Ã¤nkte":10560,"Ġinteri":10561,"Ġlapp":10562,"recht":10563,"ĠDres":10564,"ĠBBC":10565,"Ġdomare":10566,"hammar":10567,"kant":10568,"oms":10569,"ĠBlÃ¥":10570,"Ġfreden":10571,"ĠvÃ¤rden":10572,"ĠXV":10573,"Ġutbryt":10574,"ĠtÃ¤ckt":10575,"Ġ1814":10576,"Ġdela":10577,"Ġkvarvarande":10578,"ĠfÃ¥ngenskap":10579,"Ġpiano":10580,"Ġslutt":10581,"ĠHÃ¶r":10582,"Ġfabriken":10583,"ĠSoll":10584,"ĠEsp":10585,"Ġkomment":10586,"Ġfiske":10587,"zonen":10588,"ĠhÃ¤ll":10589,"Ġfaktum":10590,"frÃ¥gor":10591,"uruvida":10592,"Ġrekommender":10593,"olska":10594,"Ġstund":10595,"ĠkalfjÃ¤ll":10596,"ãĥ":10597,"Ġdyr":10598,"Ġgrep":10599,"agna":10600,"ĠunderrÃ¤tt":10601,"lement":10602,"ĠMem":10603,"Ġtolkning":10604,"stadt":10605,"Ġansik":10606,"Ġgjorda":10607,"Ġax":10608,"ĠSÃ¤v":10609,"Ġpolitiken":10610,"mÃ¥":10611,"Ġsorts":10612,"Ġtriv":10613,"ĠbÃ¶ckerna":10614,"Ġkod":10615,"Ã¥ngaren":10616,"ĠStads":10617,"ĠEdu":10618,"ĠNorrland":10619,"ĠfÃ¶ljt":10620,"ĠKlock":10621,"Ġinnehav":10622,"ĠfÃ¶rvÃ¤x":10623,"ĠCru":10624,"ĠUll":10625,"yren":10626,"ĠMichel":10627,"ĠIdrott":10628,"ĠRuss":10629,"ĠstÃ¶dja":10630,"ukten":10631,"doktor":10632,"Ġastronom":10633,"Ġterritor":10634,"ĠAz":10635,"ĠLord":10636,"ĠCop":10637,"Ġkvarn":10638,"ĠInga":10639,"Ġstudioalbum":10640,"ĠfÃ¶rg":10641,"Ġspelarna":10642,"inus":10643,"Ġfars":10644,"Ġladd":10645,"ĠFÃ¶d":10646,"ĠskÃ¶tt":10647,"arium":10648,"central":10649,"ĠsvÃ¤rd":10650,"bilder":10651,"ĠUngdom":10652,"ĠpjÃ¤sen":10653,"ĠElizabeth":10654,"ĠBryssel":10655,"Ġboende":10656,"slÃ¶v":10657,"blod":10658,"ĠvÃ¤rn":10659,"svÃ¤r":10660,"ĠtÃ¤nk":10661,"Ġdyker":10662,"cil":10663,"Ġvarade":10664,"stapel":10665,"avdelning":10666,"sfall":10667,"Ġkulturella":10668,"Ġmalm":10669,"ĠÃ¤lv":10670,"Ġlar":10671,"rix":10672,"ĠJens":10673,"oslov":10674,"ĠChris":10675,"problem":10676,"Ġbaserade":10677,"ĠState":10678,"Ġprivileg":10679,"Ġbj":10680,"Ġbebyggelsen":10681,"ĠnÃ¥tt":10682,"valla":10683,"ĠpÃ¥trÃ¤ffats":10684,"Ġkonstitution":10685,"cl":10686,"Ġbeslutet":10687,"acker":10688,"ĠÃĸvre":10689,"Ġrefl":10690,"Ġpotent":10691,"ĠPremier":10692,"Ġoro":10693,"akning":10694,"opher":10695,"Ġhuvudroll":10696,"Ġpansar":10697,"sikt":10698,"ĠmÃ¶t":10699,"ĠFalk":10700,"ĠgÃ¶ras":10701,"nuvarande":10702,"immel":10703,"ĠHÃ¤lsingland":10704,"sÃ¤nd":10705,"ĠBut":10706,"ĠslÃ¥r":10707,"Ġskilja":10708,"Ġsemifinal":10709,"kins":10710,"ĠVÃ¤gen":10711,"Ġtjugo":10712,"Ġkejsare":10713,"Ġmodifier":10714,"ĠBour":10715,"rÃ¤nare":10716,"Ġkoncentration":10717,"Ġsamlades":10718,"ego":10719,"ĠfÃ¶rfattarskap":10720,"Ġpositiv":10721,"ĠfaststÃ¤lldes":10722,"rah":10723,"ĠOlle":10724,"Ġkontakter":10725,"Ġtermen":10726,"Ġgeneralmajor":10727,"Ġkategorin":10728,"fÃ¶retaget":10729,"ĠWarsz":10730,"ĠCeder":10731,"parten":10732,"ĠjÃ¤mte":10733,"Ġ:":10734,"Ġnej":10735,"ettan":10736,"ĠKam":10737,"ĠAndrew":10738,"ĠfÃ¶rsvara":10739,"ĠuppmÃ¤rksammade":10740,"Å«":10741,"ĠÃ¥rliga":10742,"ytning":10743,"Ġbrett":10744,"ange":10745,"spelen":10746,"Ġriktiga":10747,"Ġhittats":10748,"ĠbehÃ¶vs":10749,"ĠmÃ¥larskola":10750,"Ġnybildade":10751,"shamn":10752,"ĠModerna":10753,"Ġavvecklades":10754,"ĠtillfÃ¶rordnad":10755,"Ġbord":10756,"Ġcancer":10757,"ĠKarolinska":10758,"Ã£":10759,"ĠAfton":10760,"Ġgrott":10761,"Ġundersidan":10762,"organisationer":10763,"ĠAntonio":10764,"Ġtankar":10765,"ekul":10766,"ĠTher":10767,"ĠtÃ¤mligen":10768,"ĠNot":10769,"uppdrag":10770,"Ġkas":10771,"Ġavdel":10772,"teater":10773,"ĠfÃ¶reningar":10774,"ĠLiverpool":10775,"ĠtvÃ¥ng":10776,"Ġ1834":10777,"ĠhÃ¤nsyn":10778,"Ġtum":10779,"alerna":10780,"Ġstup":10781,"ĠStilla":10782,"ĠlÃ¤rjung":10783,"ĠVÃ¤sterbotten":10784,"Ġforna":10785,"Ġvig":10786,"Ġbergen":10787,"ĠfÃ¶dels":10788,"skalk":10789,"teatern":10790,"deles":10791,"Ġleds":10792,"Ġvarierande":10793,"Ġavskaffades":10794,"Ġmolekyl":10795,"Ġlistan":10796,"sbygden":10797,"Ġjunior":10798,"ĠDjurgÃ¥rd":10799,"ĠtillgÃ¤ngliga":10800,"ĠPenns":10801,"Ġbegav":10802,"Ġlegat":10803,"ĠClaes":10804,"dd":10805,"ÃŁ":10806,"Ġskildrar":10807,"Ġomkom":10808,"Ġ72":10809,"ĠfÃ¶rtroende":10810,"ĠSwed":10811,"ĠÃ¶sterrikisk":10812,"streck":10813,"Ġbrotts":10814,"visade":10815,"ejser":10816,"ĠKurt":10817,"Ġlatinska":10818,"ĠÃĸvriga":10819,"Ġinhemska":10820,"ĠIT":10821,"Ġflagg":10822,"Ġmineral":10823,"2014":10824,"ĠMottagande":10825,"ĠBes":10826,"Ġhuvudort":10827,"Ġstyrelseledamot":10828,"ĠMonte":10829,"ĠfjÃ¤der":10830,"sskolan":10831,"Ġlys":10832,"raph":10833,"Ġutbyte":10834,"ĠomstÃ¤nd":10835,"ĠSteve":10836,"Ġbyggnaderna":10837,"Ġtav":10838,"ĠLau":10839,"ĠSamt":10840,"Ġprofessionella":10841,"ĠfÃ¼r":10842,"Ġdis":10843,"ĠBog":10844,"ĠFrankfurt":10845,"1990":10846,"Ġexpand":10847,"Ġfarbror":10848,"ĠAnth":10849,"ĠtillfÃ¤lligt":10850,"eber":10851,"ĠTest":10852,"ĠHansson":10853,"Ġoffentligt":10854,"inet":10855,"ĠLena":10856,"Ġsamtal":10857,"fÃ¶rordningar":10858,"Ã¤na":10859,"Ġstan":10860,"sspel":10861,"ĠÃ¤ta":10862,"ĠJÃ¤m":10863,"Ġplant":10864,"ĠkyrkogÃ¥rden":10865,"ĠuppnÃ¥":10866,"ĠXIV":10867,"ĠplÃ¶tsligt":10868,"ratt":10869,"vest":10870,"atch":10871,"ĠtrÃ¥d":10872,"ĠAut":10873,"ĠefterfÃ¶ljande":10874,"Ġintog":10875,"Ġ1835":10876,"ĠgravfÃ¤lt":10877,");":10878,"hren":10879,"ÙĦ":10880,"riket":10881,"Ġpoesi":10882,"1995":10883,"ĠVerksamheten":10884,"lista":10885,"Ġavseende":10886,"regement":10887,"Ġbekant":10888,"ĠsamlingsutstÃ¤llningar":10889,"Ġmaken":10890,"Ġkris":10891,"Ġdest":10892,"Ġbevilj":10893,"Ġmedverkar":10894,"Ġtroligtvis":10895,"akim":10896,"arkarriÃ¤r":10897,"celler":10898,"aby":10899,"Ġdeltagande":10900,"Ġrisken":10901,"Ġskala":10902,"Ġverkstad":10903,"iew":10904,"ĠSyftet":10905,"Ġbrodern":10906,"imin":10907,"skogar":10908,"Ġdramat":10909,"atorn":10910,"ĠÃħland":10911,"ĠKvarn":10912,"ĠÃ¥skÃ¥dare":10913,"eed":10914,"ogram":10915,"Ġrov":10916,"ĠberÃ¶md":10917,"ĠJugoslavien":10918,"slÃ¤g":10919,"Ġexil":10920,"ĠerhÃ¥ll":10921,"ĠÃ¥sikter":10922,"GA":10923,"ĠDig":10924,"Ġfastigheten":10925,"Ã¤dda":10926,"stÃ¤ver":10927,"Ġess":10928,"Ġredig":10929,"Ġfront":10930,"ĠFra":10931,"Ġmedlemsst":10932,"ĠHermann":10933,"ĠLuft":10934,"Ġtredjedel":10935,"Ġmal":10936,"ĠRÃ¶":10937,"Ġefterhand":10938,"ĠMagdalen":10939,"ĠlÃ¶sning":10940,"vuxen":10941,"ĠGiovanni":10942,"Ġsnabba":10943,"Ġbatalj":10944,"Ġkore":10945,"ĠManu":10946,"Ġ1808":10947,"Ġblek":10948,"ĠRost":10949,"ĠEinar":10950,"Ġdirigent":10951,"atre":10952,"iseras":10953,"Ġutredning":10954,"strakt":10955,"ĠMilano":10956,"Ġinbj":10957,"Ġsekelskiftet":10958,"ĠSta":10959,"ĠfÃ¶rlÃ¤gg":10960,"Ġsocialt":10961,"Ġ1837":10962,"Ġrevir":10963,"Ġtraditioner":10964,"Ġsatell":10965,"Ġliberala":10966,"eksand":10967,"vÃ¥ningen":10968,"ebra":10969,"verken":10970,"ĠkommunalfÃ¶rordningar":10971,"Ġmunicipalsam":10972,"ĠâĢĻ":10973,"ĠArab":10974,"Ġgeograf":10975,"ĠSyrien":10976,"Ġfaktiskt":10977,"ĠRumÃ¤nien":10978,"hielm":10979,"dist":10980,"vel":10981,"ĠPennsylvan":10982,"ĠfÃ¶rslaget":10983,"Ã¶kan":10984,"Ġundervisade":10985,"punkter":10986,"Ġsov":10987,"ĠElekt":10988,"ĠSimp":10989,"Ð¸Ñ":10990,"ĠfÃ¶rekommit":10991,"ĠKungl":10992,"ĠBromma":10993,"Ġinnefattar":10994,"Ġflygflottilj":10995,"1996":10996,"ĠstenÃ¥ldern":10997,"ĠNuvarande":10998,"Ġdomstolen":10999,"cir":11000,"Ġqu":11001,"handa":11002,"Ġkampen":11003,"ĠHard":11004,"ĠLj":11005,"ĠYng":11006,"Ġtermin":11007,"kanalen":11008,"ĠFj":11009,"ĠTeg":11010,"andes":11011,"Ġkonkurr":11012,"Ġspridning":11013,"ĠÃħngermanland":11014,"ES":11015,"ĠByn":11016,"ove":11017,"ĠframgÃ¥r":11018,"alten":11019,"Ġfemton":11020,"Ġbuddh":11021,"Ġukra":11022,"Ã¥nger":11023,"1991":11024,"ĠEricsson":11025,"sprocess":11026,"raff":11027,"Ġkonsthall":11028,"Ġinspirerad":11029,"ional":11030,"Ġomt":11031,"Ġomval":11032,"vernÃ¶r":11033,"Ġdrabbade":11034,"ĠkÃ¤nslor":11035,"ĠbÃ¤gge":11036,"ĠShe":11037,"Ġelit":11038,"Ġkulturen":11039,"iatiska":11040,"ĠstÃ¤ngdes":11041,"Ġdialekt":11042,"direktÃ¶r":11043,"Å¾":11044,"ĠunderstÃ¶d":11045,"ĠÃ¶vergÃ¥ng":11046,"ĠvÃ¤xa":11047,"Ġ1836":11048,"ĠFotboll":11049,"Ã¤ggdjur":11050,"1997":11051,"Ġfysiska":11052,"áĥ":11053,"iserades":11054,"asen":11055,"ĠAlt":11056,"achus":11057,"armÃ©n":11058,"CC":11059,"edlem":11060,"Ġlet":11061,"agne":11062,"Ġutsedd":11063,"lÃ¤nder":11064,"ĠFA":11065,"ĠreligiÃ¶s":11066,"Ġarrangerade":11067,"ĠtillÃ¤g":11068,"iknande":11069,"ĠJÃ¶r":11070,"gs":11071,"Ġstru":11072,"Ġ1832":11073,"ires":11074,"Ġgjut":11075,"ĠArch":11076,"rump":11077,"asien":11078,"Ġrefer":11079,"ĠVÃ¤":11080,"Ġgrundad":11081,"Ġ53":11082,"ĠOlymp":11083,"yndigheten":11084,"ĠÃĸstersjÃ¶n":11085,"Ġstoppa":11086,"ates":11087,"itim":11088,"ĠPop":11089,"sing":11090,"Ġeuro":11091,"ĠIP":11092,"Ġhavs":11093,"result":11094,"Ġresurser":11095,"Ġtyskarna":11096,"Ġkemiska":11097,"ĠmÃ¶rkare":11098,"Ð¾Ð²":11099,"dals":11100,"Ġskift":11101,"Ġfornt":11102,"ĠÃ¶versÃ¤ttare":11103,"Ġsakristia":11104,"skans":11105,"ĠPil":11106,"ĠRick":11107,"ĠchefredaktÃ¶r":11108,"rÃ¶relse":11109,"Ġtvingade":11110,"Ġvalt":11111,"ĠKast":11112,"Ġdetaljer":11113,"Ġreal":11114,"Ġreaktion":11115,"Ġskivbolag":11116,"box":11117,"ĠHalland":11118,"ĠfÃ¶retrÃ¤dare":11119,"gitar":11120,"ĠKÃ¤nneteck":11121,"ĠVita":11122,"ĠuppÃ¥t":11123,"ĠBolaget":11124,"Ġutgivna":11125,"ĠEugen":11126,"nik":11127,"yre":11128,"svik":11129,"Ġplacerad":11130,"nos":11131,"Ġ57":11132,"Ġlagt":11133,"ĠMike":11134,"ĠLake":11135,"Ġgenast":11136,"aplan":11137,"ĠSchles":11138,"Ġrasen":11139,"Ġpatri":11140,"Ġkomponerade":11141,"etens":11142,"ĠSara":11143,"ĠbegÃ¥":11144,"Ġlyft":11145,"Ġprinsessan":11146,"skande":11147,"ĠIndiv":11148,"Ġhoppade":11149,"ĠtillvÃ¤xt":11150,"ĠutgÃ¥r":11151,"Ġbefint":11152,"ĠSev":11153,"alleriet":11154,"Ġnationalpark":11155,"gÃ¶tlands":11156,"ĠParty":11157,"Ġparallellt":11158,"ektioner":11159,"ĠStorm":11160,"Ã¤mbetet":11161,"Ġrost":11162,"vÃ¤rns":11163,"ĠFalken":11164,"ĠBrittiska":11165,"Ġvag":11166,"ĠspÃ¤n":11167,"sfÃ¶ret":11168,"Ġwh":11169,"Ġrelationer":11170,"Ġ1833":11171,"ĠkonstnÃ¤rliga":11172,"ĠdÃ¥liga":11173,"ĠbenÃ¤mning":11174,"ĠbenÃ¤mns":11175,"ĠkvÃ¤llen":11176,"jas":11177,"ĠNam":11178,"ivor":11179,"ĠJeff":11180,"Ġ54":11181,"ĠMarg":11182,"Ġsprida":11183,"ĠPetrus":11184,"Ġgross":11185,"oniska":11186,"ĠLan":11187,"ulen":11188,"Ġtrag":11189,"ĠAre":11190,"ĠvÃ¤xande":11191,"ĠMotala":11192,"Ġknut":11193,"rogen":11194,"ĠhÃ¶gtid":11195,"Ġvanligare":11196,"Ġ1831":11197,"TH":11198,"Ġster":11199,"Ġka":11200,"ĠLÃ¶v":11201,"teckningar":11202,"Ġvandring":11203,"Ġbrann":11204,"ĠVÃ¤l":11205,"right":11206,"ĠMaur":11207,"ĠupptÃ¤ckt":11208,"Ġisrael":11209,"ĠBatt":11210,"Ġ1816":11211,"Ġungerska":11212,"Ġriksdagens":11213,"Ġuppfyll":11214,"Ġinfanteri":11215,"fÃ¶ra":11216,"sliv":11217,"Ġtiderna":11218,"verkning":11219,"ĠsjÃ¶ar":11220,"Ġutrikesminister":11221,"EC":11222,"Ġavhandlingen":11223,"ĠLett":11224,"ĠLive":11225,"Ġstriden":11226,"Erik":11227,"ĠWay":11228,"rant":11229,"oppen":11230,"ichte":11231,"juter":11232,"ĠMarcus":11233,"elett":11234,"barhet":11235,"ĠFalun":11236,"Ġpappa":11237,"--":11238,"ĠlÃ¶st":11239,"ĠLis":11240,"ĠÃ¥rtion":11241,"ĠframgÃ¥ngsrikt":11242,"Ġpositiva":11243,"ĠPlat":11244,"inois":11245,"disk":11246,"dex":11247,"llt":11248,"Ġpul":11249,"Ġ56":11250,"ĠkÃ¶rdes":11251,"ĠhÃ¤nger":11252,"ĠCass":11253,"Ġnyare":11254,"ianus":11255,"ĠUtifrÃ¥n":11256,"Ġriksdagsman":11257,".âĢĿ":11258,"ĠRÃ¶n":11259,"produkt":11260,"Ġsidorna":11261,"Ġtidigaste":11262,"ĠEtymologi":11263,"Ġtilltal":11264,"ansas":11265,"ĠnÃ¤ring":11266,"ĠfrÃ¤mmande":11267,"ĠLindberg":11268,"Ġdokumenter":11269,"Ġkonflikter":11270,"ĠTorp":11271,"ĠOld":11272,"akta":11273,"Ġkostnad":11274,"ĠbÃ¶j":11275,"Ġlust":11276,"Ã¥rsj":11277,"Ġfilmerna":11278,"ĠJosÃ©":11279,"zj":11280,"enberg":11281,"ĠsÃ¤tter":11282,"Ġdrottningen":11283,"landss":11284,"cio":11285,"Ġhotade":11286,"ĠTorsten":11287,"ĠTrafik":11288,"ĠLasse":11289,"ĠGÃ¥rd":11290,"Ġ1813":11291,"Ġflytande":11292,"ylind":11293,"ĠtÃ¤vla":11294,"Ġspetsen":11295,"Ġeventuellt":11296,"ĠDresden":11297,"GP":11298,"sÃ¶":11299,"Ġfara":11300,"dets":11301,"ovo":11302,"smet":11303,"Ã¶vde":11304,"Ġrecensioner":11305,"ĠRÃ¶r":11306,"ĠstadsfullmÃ¤ktige":11307,"iano":11308,"juka":11309,"undersÃ¶k":11310,"ĠÃ¥ttonde":11311,"DR":11312,"Ġmetal":11313,"amerikansk":11314,"Ġsag":11315,"igar":11316,"ĠstjÃ¤r":11317,"Ġarkeologiska":11318,"ĠPennsylvania":11319,"ĠhjÃ¤rn":11320,"fver":11321,"ĠPak":11322,"ĠÃ¶l":11323,"ext":11324,"mina":11325,"Ġmusikaliska":11326,"levande":11327,"chefen":11328,"Ġidentitet":11329,"Ġorigin":11330,"',":11331,"ĠKin":11332,"alax":11333,"ĠMain":11334,"mis":11335,"Ġlej":11336,"Ġskolans":11337,"amentet":11338,"ĠsÃ¶m":11339,"juden":11340,"ĠCharlotta":11341,"hyd":11342,"Ã¤rken":11343,"ĠlÃ¤ger":11344,"LA":11345,"ĠfrÃ¤mja":11346,"Ġ1838":11347,"ĠFootball":11348,"achusetts":11349,"De":11350,"reven":11351,"spartiet":11352,"ĠTop":11353,"Ġhedersdoktor":11354,"oid":11355,"aniet":11356,"ĠSah":11357,"ĠBurg":11358,"ĠPrim":11359,"Ġ1828":11360,"ĠJonsson":11361,"ĠbelÃ¤gna":11362,"fÃ¤st":11363,"ĠTen":11364,"ĠLeopold":11365,"Ġsjunga":11366,"ĠbesvÃ¤r":11367,"prov":11368,"Ġresan":11369,"Ġbrukade":11370,"ĠReich":11371,"Ġgammalt":11372,"ĠkÃ¤nnetecknas":11373,"Ġlibrett":11374,"Ġflagga":11375,"ĠinfÃ¶rlivades":11376,"turn":11377,"Ġked":11378,"ĠHÃ¤rn":11379,"Ġunderjord":11380,"handlingarna":11381,"ĠdrÃ¶j":11382,"ĠSyl":11383,"andy":11384,"ĠMir":11385,"imer":11386,"ĠbrÃ¤nn":11387,"auer":11388,"ĠFrederik":11389,"nÃ¶j":11390,"somrÃ¥de":11391,"igi":11392,"adelph":11393,"ĠbÃ¶n":11394,"Ġutmed":11395,"ĠLife":11396,"Ã¤kter":11397,"avtal":11398,"racing":11399,"ĠbÃ¥tar":11400,"ikel":11401,"ĠstÃ¥ende":11402,"banken":11403,"ĠConnectic":11404,"ĠNA":11405,"ĠlÃ¶per":11406,"ĠMassachusetts":11407,"eor":11408,"Î¿":11409,"ĠØ":11410,"etik":11411,"ĠÃ¶verenskomm":11412,"ĠFox":11413,"Ġkoncept":11414,"ĠSkarab":11415,"formade":11416,"vÃ¤rm":11417,"Ġkriterier":11418,"ĠÃ¥tervÃ¤nder":11419,"Ġtjug":11420,"ĠFritz":11421,"TS":11422,"ĠBomb":11423,"Ġfastlandet":11424,"Ġtvingas":11425,"ĠsjÃ¤lvstÃ¤ndiga":11426,"ĠJacques":11427,"nation":11428,"Ð´":11429,"ĠskÃ¶t":11430,"Ġbygget":11431,"Ã¥kers":11432,"Î±":11433,"Ġfranske":11434,"Ġtalang":11435,"1993":11436,"Ġgrafiker":11437,"Ġrykte":11438,"Ġaff":11439,"oland":11440,"avÃ¤gen":11441,"Ġskadades":11442,"Ġrenovering":11443,"ae":11444,"Ġ1818":11445,"ĠOri":11446,"ĠUpplands":11447,"ouri":11448,"Ġelektriska":11449,"skogen":11450,"Ġgymnasium":11451,"EM":11452,"sverket":11453,"ĠKomp":11454,"ĠvÃ¤rder":11455,"ĠSkÃ¥n":11456,"ĠEkman":11457,"Ġborgen":11458,"ĠInstitutet":11459,"ĠHamm":11460,"ĠvarifrÃ¥n":11461,"ĠJar":11462,"ĠfÃ¶rsÃ¶kt":11463,"onto":11464,"Ġhalvt":11465,"ĠpÃ¥verkade":11466,"Ġkurs":11467,"ĠfÃ¶rvaltnings":11468,"Ġkollekt":11469,"Ġintellig":11470,"ĠLewis":11471,"ĠDÃ¼":11472,"ĠSkivan":11473,"Ġkrigsf":11474,"1992":11475,"Ġtanke":11476,"Ġturkiska":11477,"FA":11478,"Ġhe":11479,"ĠStrÃ¤ng":11480,"okument":11481,"Ġradie":11482,"Ġskicka":11483,"iffer":11484,"Ġenskild":11485,"Ġdomsaga":11486,"regering":11487,"sbergs":11488,"erligen":11489,"anes":11490,"ĠberÃ¤knas":11491,"Ġtitlar":11492,"ĠBroad":11493,"shuset":11494,"teckning":11495,"Ġrepresentanter":11496,"ĠEleonora":11497,"Ġtob":11498,"Ġdryck":11499,"ĠfÃ¤rgen":11500,"Ġfurst":11501,"Ġnyckel":11502,"ĠVel":11503,"ĠJun":11504,"Ġarmen":11505,"ology":11506,"Ġhusen":11507,"ĠPhiladelph":11508,"kusten":11509,"bent":11510,"grav":11511,"Ġverkligheten":11512,"ĠSerbien":11513,"ĠExempelvis":11514,"Ġbutiker":11515,"Ġkvartsf":11516,"RI":11517,"rÃ©n":11518,"edy":11519,"ĠDef":11520,"ĠTak":11521,"Ġwith":11522,"ĠChristopher":11523,"ĠsÃ¤kra":11524,"ĠColumbia":11525,"ĠSkellefteÃ¥":11526,"amet":11527,"Ġglad":11528,"idrag":11529,"ĠLux":11530,"ĠuppehÃ¥ll":11531,"respond":11532,"ĠFranÃ§ois":11533,"dorf":11534,"lit":11535,"ido":11536,"olja":11537,"ĠfrÃ¤mre":11538,"Ġsocialdemokratiska":11539,"Ġvilla":11540,"Ġpatienter":11541,"ĠHolland":11542,"leg":11543,"ĠpÃ¥ve":11544,"Ġjordens":11545,"Ġutbildad":11546,"ĠTokyo":11547,"ĠgiftermÃ¥l":11548,"ĠEld":11549,"Ġgravid":11550,"ĠLandskrona":11551,"ĠJoakim":11552,"ĠLovisa":11553,"Ġutformning":11554,"ĠIngrid":11555,"ĠfÃ¶rvÃ¤rvade":11556,"Ġparad":11557,"ĠfÃ¶rebild":11558,"Ġtanken":11559,"ĠGood":11560,"ĠSkara":11561,"trÃ¤de":11562,"ĠbestÃ¤mm":11563,"ĠPehr":11564,"hold":11565,"ĠHult":11566,"vÃ¤gar":11567,"mÃ¤rken":11568,"ĠsÃ¤teri":11569,"ĠKongo":11570,"ĠmÃ¶rdades":11571,"ĠSamtliga":11572,"pin":11573,"Ã¤gna":11574,"ĠBoy":11575,"ĠfÃ¶rluster":11576,"kron":11577,"Ġbeskrivning":11578,"Ġsommarspelen":11579,"ÅĦ":11580,"Ġsu":11581,"redje":11582,"ĠmÃ¥lning":11583,"hon":11584,"Ġplund":11585,"ysant":11586,"Ġbens":11587,"oto":11588,"ĠNÃ¤sta":11589,"100":11590,"Ġorol":11591,"Ġhandlingen":11592,"ĠutfÃ¶rt":11593,"ĠTime":11594,"familjen":11595,"Ġpropag":11596,"\"-":11597,"ĠmÃ¶tet":11598,"Ġhall":11599,"Ġkaff":11600,"ĠGP":11601,"Ġbered":11602,"ĠSweden":11603,"ĠlÃ¤ste":11604,"Ġnoll":11605,"aco":11606,"idae":11607,"roman":11608,"ĠGerhard":11609,"Ġriddare":11610,"gÃ¤rd":11611,"Ġdepress":11612,"Ġkampanj":11613,"ĠJÃ¤mtlands":11614,"wick":11615,"ĠÄ":11616,"ĠBrÃ¤n":11617,"Ã¤ndsk":11618,"Ġ1790":11619,"ĠIllinois":11620,"ghan":11621,"ĠlandshÃ¶vding":11622,"Ã¨s":11623,"Ġtrafiken":11624,"Ġutrop":11625,"ĠProgram":11626,"Ġstilen":11627,"Ġskillnader":11628,"ĠtillgÃ¤nglig":11629,"ĠRiddar":11630,"ĠÃ¶gonen":11631,"Ġvingar":11632,"1920":11633,"ĠinvÃ¥narna":11634,"regionen":11635,"sor":11636,"skoll":11637,"ĠLP":11638,"Ġexkl":11639,"ĠDj":11640,"isto":11641,"varor":11642,"Ġfarfar":11643,"ĠfÃ¶rsvaret":11644,"ĠfÃ¶rklara":11645,"Ġtab":11646,"ĠslÃ¤ppt":11647,"ĠTaylor":11648,"Ġboplats":11649,"Ġinsk":11650,"genom":11651,"stena":11652,"ĠrÃ¤ttegÃ¥ng":11653,"FS":11654,"Ġgata":11655,"etti":11656,"uma":11657,"partiets":11658,"ĠElect":11659,"Ã¥p":11660,"Ġstim":11661,"ĠkonstfÃ¶rening":11662,"ĠintrÃ¤dde":11663,"Ġsmekn":11664,"planet":11665,"1979":11666,"Ġsammanslagning":11667,"ĠuppvÃ¤xt":11668,"ĠmoderfÃ¶rsamling":11669,"livet":11670,"zi":11671,"ĠSak":11672,"ĠCem":11673,"ĠUdde":11674,"ĠStrid":11675,"sbolag":11676,"Ġaktuella":11677,"ĠOperation":11678,"anvÃ¤nd":11679,"styp":11680,"Ġrecept":11681,"slÃ¤ngden":11682,"redningen":11683,"linje":11684,"ube":11685,"1973":11686,"ĠNet":11687,"cenen":11688,"ĠLittle":11689,"ĠdÃ¤rav":11690,"almers":11691,"ĠAtlant":11692,"ĠHonor":11693,"Ġteorin":11694,"splatsen":11695,"Ġakademiska":11696,"plac":11697,"Ġfett":11698,"Ġmedier":11699,"Ġredovis":11700,"1982":11701,"ĠLinnÃ©":11702,"ĠAS":11703,"kta":11704,"ulin":11705,"oviÄĩ":11706,"anny":11707,"Ġ85":11708,"Ã¶nstret":11709,"km":11710,"fel":11711,"demar":11712,"Ġenlighet":11713,"ĠMarl":11714,"Ġkong":11715,"valv":11716,"ĠhÃ¶rn":11717,"ĠutnÃ¤mnd":11718,"ĠprÃ¶v":11719,"ĠSÃ¥ngen":11720,"idnapp":11721,"ĠTull":11722,"Ġflotta":11723,"Ġtycker":11724,"ĠPor":11725,"Ġboskap":11726,"Ġstranden":11727,"Ġtennis":11728,"Ġfavorit":11729,"hed":11730,"slig":11731,"ĠKai":11732,"ĠhÃ¤sten":11733,"kapten":11734,"ĠDemokrat":11735,"ĠdÃ¤ggdjur":11736,"enner":11737,"byrÃ¥n":11738,"ĠSvenskt":11739,"1980":11740,"Ġkandidatexamen":11741,"smot":11742,"ĠUtbildning":11743,"Ġfullbord":11744,"Ġmaterialet":11745,"Ġsjukdomen":11746,"ĠKristianstad":11747,"Ã¶relse":11748,"inds":11749,"ĠvÃ¥ra":11750,"opt":11751,"ption":11752,"omrÃ¥dena":11753,"Ġomgivande":11754,"dor":11755,"ĠfrÃ¶n":11756,"rater":11757,"fÃ¶rlust":11758,"usson":11759,"ĠÃ¶ns":11760,"Ġmanu":11761,"ĠlÃ¥gt":11762,"Ġmoral":11763,"ĠberÃ¤ttelsen":11764,"ĠfÃ¶rklarar":11765,"ĠNedre":11766,"ĠPhiladelphia":11767,"cast":11768,"Ġfoster":11769,"Ġpalats":11770,"Ġ1819":11771,"Ġframt":11772,"ebre":11773,"ĠÃ¤ndra":11774,"ĠHelge":11775,"ĠsvÃ¥righeter":11776,"ĠLÃ¶f":11777,"Ġpassagerare":11778,"ough":11779,"Ġkryss":11780,"ĠJr":11781,"eback":11782,"korea":11783,"ĠKoppar":11784,"fÃ¶rsÃ¶k":11785,"Ġutfor":11786,"Ġ66":11787,"ĠKyrkans":11788,"ĠChampions":11789,"oment":11790,"aland":11791,"emoni":11792,"Ġbarns":11793,"Ġinvolver":11794,"ĠNorrbotten":11795,"ĠMÃ¥r":11796,"Ġlandsbygden":11797,"ÃŃa":11798,"Ġklarade":11799,"ĠStiftelsen":11800,"Ġavdelningen":11801,"ĠSem":11802,"ĠLas":11803,"Ġkonsten":11804,"ĠHun":11805,"nard":11806,"sbild":11807,"fessor":11808,"ĠMelodif":11809,"Ġfunnit":11810,"onerna":11811,"Ġalb":11812,"1989":11813,"Ġgymnasiet":11814,"Ġupprepade":11815,"adder":11816,"ĠRem":11817,"ĠframstÃ¤llning":11818,"Ġbredvid":11819,"Ġhyres":11820,"ĠTommy":11821,"Ġtillbak":11822,"sbeslutet":11823,"onser":11824,"ĠTomas":11825,"ĠRay":11826,"Ġdeltar":11827,"ragment":11828,"Ġstudierna":11829,"Ġbyggnads":11830,"ĠfÃ¶reslag":11831,"ĠmÃ¤sterskapen":11832,"Ġtillverkningen":11833,"Ġkomplic":11834,"stuga":11835,"iansen":11836,"ĠTÃ¤t":11837,"ĠKamp":11838,"Ġutse":11839,"ĠNer":11840,"upt":11841,"ĠsÃ¤nda":11842,"iserar":11843,"ĠskÃ¥nska":11844,"ĠundersÃ¶ka":11845,"skamper":11846,"brÃ¤n":11847,"bury":11848,"Ġsikt":11849,"atz":11850,"edalen":11851,"rupper":11852,"Ġsamarbetade":11853,"Ġdebutalbum":11854,"Ġomtalas":11855,"nien":11856,"ĠkÃ¤nn":11857,"ĠPite":11858,"ĠÃ¤garen":11859,"Ġsemifinalen":11860,"Ġflyger":11861,"ĠuppmÃ¤rksammades":11862,"bock":11863,"lubb":11864,"ĠflÃ¶g":11865,"ĠNikolaj":11866,"ĠutfÃ¤rd":11867,"ĠhovrÃ¤tt":11868,"ĠÃĸstersund":11869,"ĠSmed":11870,"Ã¥rige":11871,"ĠPass":11872,"ĠHanna":11873,"ĠvÃ¤rm":11874,"acher":11875,"ĠtjÃ¤nsten":11876,"Ġstannar":11877,"Ġlegend":11878,"kre":11879,"Ġoavsett":11880,"ĠLÃ¤r":11881,"samlingar":11882,"Ġ1829":11883,"Ġanknytning":11884,"storps":11885,"olph":11886,"ĠskrÃ¤ck":11887,"ĠKem":11888,"ĠLyck":11889,"Ġ68":11890,"Ġklassen":11891,"1985":11892,"Joh":11893,"attan":11894,"ĠBulgar":11895,"ĠarmÃ©ns":11896,"ĠuppsÃ¤ttning":11897,"spopulationen":11898,"Ġspeg":11899,"iansk":11900,"ĠbegrÃ¤nsade":11901,"ikal":11902,"ĠDur":11903,"cipl":11904,"cka":11905,"Ġkyrkbyn":11906,"joki":11907,"Ġseriet":11908,"Ġstudiet":11909,"Ġ1827":11910,"Ġtagits":11911,"Ġerfarenhet":11912,"ĠKonstakademien":11913,"ĠPomm":11914,"Ġtran":11915,"onder":11916,"ĠKell":11917,"Ġkunskaper":11918,"Ġpopulationen":11919,"ĠSÃ¶dermanland":11920,"vÃ¥g":11921,"Ġmorm":11922,"rÃ¤dd":11923,"ĠstÃ¶rst":11924,"shistoria":11925,"MA":11926,"ote":11927,"ĠCer":11928,"ĠstÃ¤lle":11929,"ĠSÃ¶dermanlands":11930,"ĠsÃ¤kert":11931,"fullt":11932,"ĠspÃ¥":11933,"ĠNorrlands":11934,"ĠersÃ¤ttning":11935,"ĠAcademy":11936,"FF":11937,"gÃ¶ta":11938,"ĠDay":11939,"ersen":11940,"ĠframfÃ¶rdes":11941,"ĠdÃ¶dade":11942,"vÃ¤rder":11943,"Ġantika":11944,"Ġnaturvetenskap":11945,"ĠSjuk":11946,"Ã£o":11947,"ĠSalt":11948,"ĠAlger":11949,"ĠfÃ¶rÃ¤ldrarna":11950,"ĠutgÃ¥ngsp":11951,"ĠPlats":11952,"ĠVo":11953,"ĠAwards":11954,"medaljen":11955,"Ġmut":11956,"ĠfÃ¶rhandlingar":11957,"raven":11958,"ĠnÃ¤rings":11959,"ĠOlika":11960,"ĠLandslag":11961,"Ġ1825":11962,"ĠtillfÃ¤llet":11963,"ĠUlrika":11964,"ĠGustafsson":11965,"Ġfiskar":11966,"Ġdefinition":11967,"Th":11968,"ĠDenne":11969,"ĠsvÃ¤ng":11970,"ĠkonstnÃ¤rlig":11971,"Ġrummet":11972,"ĠpionjÃ¤r":11973,"ĠstÃ¶tt":11974,"ĠfÃ¤ngelset":11975,"Ġintellekt":11976,"stans":11977,"agerar":11978,"Ã¡r":11979,"ĠupptÃ¤ckts":11980,"ĠGreat":11981,"cus":11982,"ĠBrad":11983,"ĠFant":11984,"Ġhantera":11985,"olutionen":11986,"Ġ1789":11987,"Ġinstitutioner":11988,"ĠsÃ¤ljs":11989,"ĠSeparat":11990,"yder":11991,"ĠÃħl":11992,"isse":11993,"ĠLinde":11994,"ĠAmerica":11995,"si":11996,"witz":11997,"Ġrust":11998,"ofon":11999,"ĠsÃ¤llskapet":12000,"inspekt":12001,"styrka":12002,"fÃ¶rklar":12003,"ĠSaab":12004,"Ġtorde":12005,"ucky":12006,"ĠBraun":12007,"illing":12008,"ikk":12009,"egraf":12010,"ĠGolden":12011,"ĠOhio":12012,"ĠHÃ¤ss":12013,"Ġskull":12014,"ĠMarin":12015,"ĠfÃ¶rekomma":12016,"Ġaggress":12017,"Ġunderarter":12018,"ĠbesÃ¶ker":12019,"ĠSebast":12020,"ĠLeeds":12021,"Ġadress":12022,"Ã¥sen":12023,"itud":12024,"ĠKull":12025,"Ġskillnaden":12026,"Ġmedicinsk":12027,"ĠÃ¶vervint":12028,"Ġmas":12029,"sfor":12030,"Ġofficerare":12031,"mond":12032,"Ġtimmer":12033,"Ġhindra":12034,"bus":12035,"Ġtyst":12036,"1987":12037,"Ġintroducerade":12038,"Ġgymnasie":12039,"Ġkommersiella":12040,"infl":12041,"ifest":12042,"ĠfolkhÃ¶gskola":12043,"ĠÃ¤ldste":12044,"Ġtalas":12045,"Ġriktade":12046,"Ġ1826":12047,"fÃ¶rsÃ¤lj":12048,"ĠÃĦlvsborgs":12049,"BS":12050,"hytt":12051,"Ġskuld":12052,"syra":12053,"Ġflygplanet":12054,"Ġmobil":12055,"orerna":12056,"ĠÃ¥terfÃ¶ren":12057,"Ġbiblioteket":12058,"ĠlÃ¤kt":12059,"spets":12060,"Ġupplagor":12061,"ĠKaj":12062,"eva":12063,"etery":12064,"ĠWitt":12065,"uva":12066,"ĠChalmers":12067,"byrÃ¥":12068,"Ġflyga":12069,"ights":12070,"Ġetablerades":12071,"Ġham":12072,"andal":12073,"ĠVide":12074,"ĠUtt":12075,"varen":12076,"rage":12077,"Ġsvamp":12078,"Ġoffens":12079,"ĠsjukvÃ¥rd":12080,"Ġhittade":12081,"1960":12082,"Ġproducerar":12083,"ĠmiljÃ¶er":12084,"Ġbibe":12085,"ĠdrÃ¶jde":12086,"ĠbÃ¶rd":12087,"Ġuppskattas":12088,"stal":12089,"Ġlind":12090,"Ġprofil":12091,"ĠColor":12092,"ĠHÃ¤rnÃ¶s":12093,"ĠMest":12094,"Ġproport":12095,"ĠbesÃ¶kt":12096,"Ġ1821":12097,"Ġpersonlig":12098,"ĠCemetery":12099,"Ġkejser":12100,"Ġ1817":12101,"Ġbrans":12102,"ĠPeru":12103,"Ġcentralt":12104,"Ġbeskydd":12105,"Ġkirurg":12106,"Ġvarar":12107,"ĠPel":12108,"Ġbakre":12109,"ĠprimÃ¤r":12110,"fÃ¶rsamlingen":12111,"1900":12112,"Ġsittande":12113,"inea":12114,"ĠInspel":12115,"vitt":12116,"ĠbÃ¥g":12117,"ĠLav":12118,"Ġberodde":12119,"Ġinomhus":12120,"Ġordningen":12121,"Ġtema":12122,"museet":12123,"Ġstyra":12124,"utstÃ¤llning":12125,"Ġkonk":12126,"1975":12127,"ollegium":12128,"Ġdanske":12129,"Ġtil":12130,"Ġhuruvida":12131,"Ġservice":12132,"Ġskjuta":12133,"Ġbudget":12134,"Ġkamer":12135,"Ġhemlighet":12136,"Ġsonson":12137,"ĠbokstÃ¤ver":12138,"ĠrÃ¶ra":12139,"Ġ1824":12140,"Ġmotorcy":12141,"Ġkontinuer":12142,"bour":12143,"grens":12144,"ĠslÃ¶t":12145,"ĠAnderson":12146,"ĠSloven":12147,"2015":12148,"Ġunion":12149,"Ġutomhus":12150,"ĠKil":12151,"Ġeffekter":12152,"ĠMusiken":12153,"ĠaffÃ¤rer":12154,"iers":12155,"Ġdiff":12156,"ĠZÃ¼":12157,"ĠpjÃ¤ser":12158,"Ġmytologi":12159,"ĠBÃ¤ck":12160,"ĠstÃ¶rt":12161,"husets":12162,"ĠNÃ¤ringsliv":12163,"institutet":12164,"ĠMod":12165,"ĠOut":12166,"ĠBlue":12167,"Ġnark":12168,"neby":12169,"ĠingÃ¥ng":12170,"ĠHallands":12171,"Ġfaktorer":12172,"inter":12173,"lÃ¶f":12174,"Ġflicka":12175,"ume":12176,"aktt":12177,"ĠslÃ¤ppa":12178,"ĠmÃ¶ten":12179,"bry":12180,"karna":12181,"anon":12182,"ĠAst":12183,"ĠIsa":12184,"ĠÃĸvrigt":12185,"con":12186,"ĠHop":12187,"Ġevenemang":12188,"rium":12189,"ally":12190,"ĠlÃ¤ngsta":12191,"linjer":12192,"Ġbekost":12193,"byt":12194,"stÃ¥g":12195,"ĠbevÃ¤p":12196,"ĠWeb":12197,"Ġplat":12198,"ĠbestÃ¤mt":12199,"ĠTheatre":12200,"Ġytterst":12201,"ĠomgÃ¥ngar":12202,"blomm":12203,"ossen":12204,"Ġfrukter":12205,"mÃ¤nn":12206,"ĠTon":12207,"Ġspekul":12208,"Ġbarock":12209,"Ġ130":12210,"trÃ¤da":12211,"Ġmuslimska":12212,"gilt":12213,"ĠBirgitta":12214,"ener":12215,"Ġoklart":12216,"Ġkidnapp":12217,"verna":12218,"ĠChe":12219,"Ġfolkom":12220,"1968":12221,"ĠTyr":12222,"ĠHann":12223,"haus":12224,"ĠRegeringen":12225,"ĠerkÃ¤nde":12226,"skeppet":12227,"fjÃ¤rden":12228,"Ã¤mm":12229,"Ġnamnen":12230,"Ġpresidentvalet":12231,"Ġbrigad":12232,"ossa":12233,"Ġjordbruket":12234,"faller":12235,"Ġ1792":12236,"ĠPhilipp":12237,"ante":12238,"entin":12239,"ĠStrind":12240,"Ġproff":12241,"1918":12242,"byggt":12243,"Ġchansen":12244,"Ġdomkyrka":12245,"regiss":12246,"atra":12247,"ĠSkÃ¶vde":12248,"Ġ1806":12249,"strafik":12250,"Ġast":12251,"ĠSÃ¤rskilt":12252,"asy":12253,"Ġutbildningen":12254,"planen":12255,"Ġogift":12256,"Ġgreps":12257,"sgÃ¥rd":12258,"Ġmix":12259,"Ġmarm":12260,"ĠJam":12261,"ĠAfghan":12262,"Ġargument":12263,"ĠKÃ¶nig":12264,"ĠFyra":12265,"Ġceller":12266,"ĠbestÃ¥":12267,"ĠlÃ¥ngsamt":12268,"Ġgenerellt":12269,"Ġ1823":12270,"ĠrÃ¶strÃ¤tt":12271,"motorer":12272,"ĠTimes":12273,"ĠAtlanten":12274,"ĠDouglas":12275,"grad":12276,"oren":12277,"Ġgla":12278,"oke":12279,"ĠbeslÃ¤kt":12280,"ĠGener":12281,"Ġrapport":12282,"Ġgravar":12283,"ĠSE":12284,"Ġspektral":12285,"ĠstrÃ¤":12286,"unionens":12287,"ĠLeo":12288,"Ġfriher":12289,"Ġdistribut":12290,"kning":12291,"Ġ350":12292,"Ġryggrad":12293,"lock":12294,"ĠfÃ¥nga":12295,"ssal":12296,"fÃ¶reningar":12297,"ĠSÃ¸":12298,"ĠVÃ¤sterbottens":12299,"Ġtydliga":12300,"fÃ¶renings":12301,"Ã¥da":12302,"ĠPir":12303,"sÃ¤tts":12304,"1971":12305,"Sch":12306,"dikt":12307,"Ġekv":12308,"ensis":12309,"ĠWalk":12310,"ĠChi":12311,"1986":12312,"1908":12313,"modellen":12314,"Ġud":12315,"ĠDÃ¶d":12316,"ĠRang":12317,"landslaget":12318,"egÃ¥ngen":12319,"essa":12320,"Ġbranden":12321,"Ġ63":12322,"ĠSpan":12323,"fÃ¶ljd":12324,"ĠDisney":12325,"eser":12326,"Ġgrunda":12327,"ĠGuy":12328,"Ġgeografiska":12329,"ĠhÃ¤lft":12330,"ĠBark":12331,"ĠsÃ¤ttet":12332,"1988":12333,"Ġrestaurering":12334,"ĠJulia":12335,"ĠPrivatliv":12336,"ĠtÃ¥r":12337,"ĠpÃ¤r":12338,"ĠutfÃ¤r":12339,"ĠÃ¤gna":12340,"Ġorange":12341,"Ġbyggda":12342,"ĠfÃ¶rsÃ¤m":12343,"formad":12344,"ĠSub":12345,"ologie":12346,"rosoft":12347,"ĠKristiania":12348,"forskning":12349,"festival":12350,"ĠÃĺ":12351,"Ġbyggs":12352,"ĠbrÃ¶ts":12353,"1921":12354,"ĠMagdalena":12355,"kamrat":12356,"ĠbesÃ¶ka":12357,"ression":12358,"1972":12359,"hems":12360,"Ġjudisk":12361,"sarv":12362,"ĠMach":12363,"Ġkvinnlig":12364,"Ġafrikanska":12365,"Ġosk":12366,"Ġgator":12367,"Ġstipendium":12368,"ĠBÃ¶rj":12369,"ĠÃ¤kta":12370,"Ġbroder":12371,"Ġmorgonen":12372,"pj":12373,"itte":12374,"ningsfÃ¶r":12375,"sher":12376,"Ġ110":12377,"ĠMedlem":12378,"arinnan":12379,"Ġkarta":12380,"Ġdispon":12381,"nberg":12382,"Ġtrakt":12383,"Ġutbredning":12384,"ĠregissÃ¶ren":12385,"dÃ¥":12386,"ijer":12387,"ĠHay":12388,"ĠstÃ¥t":12389,"ssjuk":12390,"senare":12391,"ĠArena":12392,"ĠHÃ¶gsta":12393,"Ġrapporterade":12394,"bjÃ¶rn":12395,"Ã¶rs":12396,"ĠHom":12397,"ĠFame":12398,"avdelningen":12399,"ĠsÃ¥ngaren":12400,"1984":12401,"Ġavsev":12402,"ĠfÃ¶rklaring":12403,"ĠFlorens":12404,"Ġrektangul":12405,"hÃ¥ller":12406,"Ġomlopp":12407,"ĠmÃ¤ngden":12408,"havaren":12409,"Ġkristendomen":12410,"rÃ¸":12411,"Ġhorn":12412,"Ġdie":12413,"Ġhelgon":12414,"Ġsvansen":12415,"ĠMedia":12416,"ĠToronto":12417,"Ġdrabbas":12418,"Ġinspirerade":12419,"Ġkardinal":12420,"DS":12421,"lic":12422,"work":12423,"innor":12424,"Ġchans":12425,"ĠutfÃ¶rs":12426,"Ġbevarad":12427,"Ġarrangerades":12428,"Ġgrenar":12429,"ĠSigur":12430,"asÃ¥":12431,"Ġsken":12432,"ĠKenn":12433,"sfabrik":12434,"Ã¶me":12435,"ĠStorbritanniens":12436,"rorna":12437,"Ð¹":12438,"ĠKum":12439,"ĠfÃ¶rbjud":12440,"ĠTechn":12441,"Ġexpert":12442,"processen":12443,"ynt":12444,"ĠtÃ¤tt":12445,"Ġbevara":12446,"vikens":12447,"prÃ¤g":12448,"Ġbilj":12449,"Ġ1811":12450,"ĠhÃ¶gra":12451,"ĠhÃ¤nseende":12452,"1905":12453,"ĠprÃ¤stvig":12454,"ĠÃ¶verlevde":12455,"ĠHad":12456,"ĠFartyg":12457,"ĠÃħt":12458,"ĠMarock":12459,"Ġaktivitet":12460,"ĠDjurgÃ¥rden":12461,"Ġteologie":12462,"ĠStÃ¶rre":12463,"skv":12464,"ĠSerie":12465,"Ġarren":12466,"ventionen":12467,"ĠstrÃ¤cka":12468,"stab":12469,"ĠdÃ¤rtill":12470,"Ġ58":12471,"Ġurval":12472,"Ġekonomin":12473,"1964":12474,"ĠfullstÃ¤ndigt":12475,"Ġfrom":12476,"udden":12477,"ifiera":12478,"Ġpartner":12479,"ĠKÃ¶penhamns":12480,"ĠnivÃ¥er":12481,"ĠMast":12482,"Ġstaty":12483,"Ġcirk":12484,"uan":12485,"ĠtrÃ¤nings":12486,"1983":12487,"Ġsound":12488,"Ġkalen":12489,"ĠAur":12490,"ĠÃħs":12491,"ĠsjÃ¶nk":12492,"ĠReb":12493,"orma":12494,"Ġbuk":12495,"Ġnat":12496,"odellen":12497,"1978":12498,"ĠWhit":12499,"ĠfÃ¶redrag":12500,"ĠMicrosoft":12501,"eton":12502,"ĠSz":12503,"otisk":12504,"bered":12505,"umt":12506,"Ġdatum":12507,"urister":12508,"Ġstallet":12509,"1911":12510,"Ã¶tterna":12511,"ĠrÃ¤knades":12512,"ĠPalest":12513,"ĠfÃ¶redrar":12514,"Ġflyttat":12515,"kademiens":12516,"brid":12517,"kost":12518,"eslag":12519,"antisk":12520,"Ġsvenskarna":12521,"Ġkyrkom":12522,"ĠupptrÃ¤der":12523,"1976":12524,"ĠStudent":12525,"Ġtork":12526,"embl":12527,"Ġvilda":12528,"ĠInf":12529,"ĠlÃ¤tta":12530,"Ġkoal":12531,"Ġsuccessivt":12532,"ralt":12533,"ĠSalv":12534,"ĠEllen":12535,"ĠnÃ¤rvaro":12536,"ĠstÃ¤ller":12537,"Ġmarsch":12538,"Ġstyv":12539,"skomp":12540,"talande":12541,"ĠCham":12542,"1974":12543,"sla":12544,"iern":12545,"Ġnordisk":12546,"Ġbredare":12547,"ĠlÃ¤ggs":12548,"ĠupphÃ¤v":12549,"Ġryt":12550,"Ġbrit":12551,"ĠZag":12552,"Ġkunglig":12553,"Ġfolkmusik":12554,"1962":12555,"Ġvetenskaplig":12556,"uka":12557,"Ġved":12558,"edi":12559,"ikum":12560,"ribu":12561,"okaler":12562,"ugan":12563,"ĠfortsÃ¤ttning":12564,"Ġhemliga":12565,"ĠJuni":12566,"ĠRoos":12567,"Ġintresset":12568,"ĠmÃ¤nnen":12569,"1981":12570,"bundna":12571,"yv":12572,"ĠHof":12573,"ĠRal":12574,"ĠslÃ¤tt":12575,"ĠÃ¥ld":12576,"Ġsoldat":12577,"onden":12578,"ĠHudd":12579,"Ġungarna":12580,"ĠNeapel":12581,"Ġ1822":12582,"ĠjÃ¤mfÃ¶relse":12583,"regeringen":12584,"Ġfritid":12585,"yen":12586,"ĠMindre":12587,"ĠStÃ¥l":12588,"1950":12589,"ĠsprÃ¥ken":12590,"ĠvÃ¤lgÃ¶r":12591,"ĠNorrkÃ¶pings":12592,"Ġyngsta":12593,"Ġkatt":12594,"ĠstjÃ¤l":12595,"1910":12596,"mÃ¥lare":12597,"Ġavsedda":12598,"ĠOrganisationen":12599,"Ġlo":12600,"Ġverklighet":12601,"ĠDagbladet":12602,"cern":12603,"ĠtÃ¤nder":12604,"ĠkommunfullmÃ¤ktige":12605,"unnel":12606,"ĠfÃ¶rbindelse":12607,"ĠBulgarien":12608,"Ġdras":12609,"Ġgult":12610,"ĠFjÃ¤r":12611,"ĠbestÃ¥nd":12612,"innare":12613,"Ġvald":12614,"ĠÃĸstergÃ¶tlands":12615,"Ġproduceras":12616,"Ġkinesisk":12617,"ti":12618,"Ġhertigen":12619,"smuseet":12620,"cip":12621,"Ġflygplatsen":12622,"Ġkoppling":12623,"ĠResultatet":12624,"ĠMeg":12625,"Ġorsakar":12626,"Ġkup":12627,"ĠNiger":12628,"Ġsloven":12629,"ants":12630,"produkter":12631,"ĠKommunikationer":12632,"operan":12633,"ĠPC":12634,"Ġ1770":12635,"regl":12636,"Ġautonom":12637,"Ġskilde":12638,"esa":12639,"ĠCit":12640,"resor":12641,"Ġ95":12642,"ĠutfÃ¶rd":12643,"Ġskulpturer":12644,"hab":12645,"Ġinvad":12646,"ĠMaxim":12647,"ĠGem":12648,"ĠGordon":12649,"Ġombud":12650,"ĠArts":12651,"snittet":12652,"Ġtypiska":12653,"AF":12654,"the":12655,"ĠMex":12656,"ulera":12657,"Ġgeomet":12658,"Ġtestamen":12659,"ĠprÃ¤glas":12660,"ĠMelodifestivalen":12661,"rari":12662,"skÃ¶ter":12663,"Ġvart":12664,"ĠPaulus":12665,"ĠBosnien":12666,"uminium":12667,"Ġakvarell":12668,"bÃ¥ts":12669,"somrÃ¥det":12670,"ĠstrÃ¤v":12671,"ĠArb":12672,"judet":12673,"Ġbedriver":12674,"1963":12675,"Ġdatorer":12676,"NS":12677,"Ġpunkter":12678,"Ġutlandet":12679,"ĠAlp":12680,"ĠVÃ¤sttyskland":12681,"ĠlÃ¤genheter":12682,"Ġdittills":12683,"ĠTol":12684,"Ġgerman":12685,"fÃ¤rgad":12686,"Ġakut":12687,"Ġpalatset":12688,"rif":12689,"sparken":12690,"Ġspred":12691,"ĠOrsak":12692,"vÃ¤xten":12693,"Ġproducerat":12694,"modell":12695,"crantz":12696,"ĠSic":12697,"Ġlikheter":12698,"sfÃ¶rsamling":12699,"ĠConnecticut":12700,"ĠAkadem":12701,"ĠHerbert":12702,"Ġkritiserade":12703,"ĠvÃ¤lkÃ¤nda":12704,"Ġ|":12705,"isar":12706,"ruv":12707,"Ã¤nka":12708,"ĠSamman":12709,"Ġprotester":12710,"Ġhat":12711,"ĠAT":12712,"ĠTrakten":12713,"ĠRapp":12714,"ekon":12715,"Ġ69":12716,"sfrÃ¥gor":12717,"ĠJohnny":12718,"Ġindividuella":12719,"nandet":12720,"Ġvanns":12721,"porten":12722,"1977":12723,"kÃ¶r":12724,"Ġhals":12725,"ĠTenn":12726,"ĠGrim":12727,"Ġallians":12728,"Ġoperation":12729,"Ġhalva":12730,"ĠBengtsson":12731,"ĠFelix":12732,"mol":12733,"Ġuppvisar":12734,"Ġavslutas":12735,"ĠSkaraborgs":12736,"struktur":12737,"Ġtusentals":12738,"ĠVitt":12739,"Ġration":12740,"ĠJimm":12741,"1914":12742,"parti":12743,"1965":12744,"Ġpraktiska":12745,"fabriken":12746,"god":12747,"Ġtrav":12748,"ĠLys":12749,"artiklar":12750,"Ġrekonst":12751,"ampa":12752,"ĠbelÃ¤gg":12753,"Ġky":12754,"ĠBara":12755,"ĠFab":12756,"ivna":12757,"slÃ¤kt":12758,"ĠkommittÃ©":12759,"ĠCurt":12760,"Ġutgjordes":12761,"Ġbildats":12762,"ĠRune":12763,"ams":12764,"ĠBast":12765,"ĠBach":12766,"sprodu":12767,"ÃŃn":12768,"perioden":12769,"Ġvikingat":12770,"Ġveter":12771,"ĠPeder":12772,"Ġmotorn":12773,"ĠProduktion":12774,"ĠSjÃ¤lva":12775,"anjen":12776,"akar":12777,"spar":12778,"vÃ¤rde":12779,"Ġutgivare":12780,"Ġgratis":12781,"fj":12782,"enligt":12783,"ĠProgrammet":12784,"Ġrang":12785,"uds":12786,"Ġsamtid":12787,"ĠLeif":12788,"1966":12789,"Ġiv":12790,"Ġskylt":12791,"ĠBenj":12792,"Ġ*":12793,"skiva":12794,"avi":12795,"yrer":12796,"ĠÃĸres":12797,"Ġindust":12798,"ĠhÃ¶jden":12799,"stillstÃ¥nd":12800,"linge":12801,"yth":12802,"Ġtyske":12803,"ĠLitau":12804,"cos":12805,"ĠPress":12806,"Ġupplys":12807,"ĠÃ¶nskade":12808,"Ġofficiell":12809,"lyst":12810,"jo":12811,"ĠMeck":12812,"ĠBrian":12813,"ĠGÃ¤st":12814,"ĠbÃ¥ts":12815,"ĠKÃ¶ln":12816,"Ġpap":12817,"owski":12818,"uppgifter":12819,"ĠWid":12820,"unge":12821,"Ġskapas":12822,"ĠIsab":12823,"Ġvetenskapligt":12824,"Ġpositivt":12825,"ĠfÃ¶rmÃ¶genhet":12826,"ĠDals":12827,"ĠpÃ¥gÃ¥r":12828,"ĠMuseet":12829,"une":12830,"givna":12831,"Ġ1805":12832,"ĠlÃ¥nades":12833,"ienten":12834,"Ġhoris":12835,"ĠAna":12836,"Ġ1780":12837,"ĠÃ¤lskar":12838,"fack":12839,"Ġalldeles":12840,"ĠfÃ¤rdiga":12841,"ĠBruce":12842,"Ġgodset":12843,"pad":12844,"Ġgam":12845,"Ġinspekt":12846,"enting":12847,"ĠateljÃ©":12848,"handeln":12849,"divisionen":12850,"oa":12851,"Ġloj":12852,"ĠHir":12853,"ĠRio":12854,"ulation":12855,"Ġoblig":12856,"ĠRoberts":12857,"Ġregisserade":12858,"Ġutrymme":12859,"ĠMorg":12860,"ĠChap":12861,"sprojekt":12862,"ĠÅł":12863,"ĠDist":12864,"rice":12865,"ĠfÃ¶restÃ¤llningar":12866,"Ġplattform":12867,"ĠBundes":12868,"Ġti":12869,"Ġdamm":12870,"Ġpunk":12871,"Ġrena":12872,"ĠfÃ¶rsÃ¥gs":12873,"ĠvÃ¤xel":12874,"Ġkrigets":12875,"republiken":12876,"Ġtrettio":12877,"ĠFÃ¶dan":12878,"ĠBrig":12879,"ĠJess":12880,"Ġpersonlighet":12881,"ĠhÃ¶rnet":12882,"Ġloss":12883,"Ã¤tare":12884,"ĠrÃ¶rde":12885,"aliserades":12886,"ĠinsÃ¥g":12887,"ĠtillÃ¥ter":12888,"artist":12889,"ĠWol":12890,"laus":12891,"ĠInne":12892,"Ġscience":12893,"ĠCambridge":12894,"Ġdesto":12895,"ĠRou":12896,"Ã©m":12897,"Ġbesitt":12898,"Ġkontrollen":12899,"Ġdigitala":12900,"ĠWalt":12901,"ariet":12902,"revs":12903,"Ġuniform":12904,"arbank":12905,"ĠVerksamhet":12906,"sminist":12907,"ĠvÃ¤ggar":12908,"Ġspektralklass":12909,"uman":12910,"sbanan":12911,"vÃ¤rt":12912,"ĠJansson":12913,"Ġvideo":12914,"Ġtall":12915,"ĠKejs":12916,"Ġutgick":12917,"Ġflottilj":12918,"Ġnegativa":12919,"Ġhypot":12920,"ĠTredje":12921,"Ġkvinnorna":12922,"Ġovanlig":12923,"ppe":12924,"Ġkommissionen":12925,"Ġorganist":12926,"Ġbesegrades":12927,"ĠKunst":12928,"universitetet":12929,"Ġgrip":12930,"ĠVia":12931,"Ġansiktet":12932,"1961":12933,"ĠTrell":12934,"ĠHim":12935,"ĠTau":12936,"revet":12937,"Ġegendomen":12938,"ĠgÃ¤lla":12939,"1958":12940,"ĠsÃ¶t":12941,"ugn":12942,"Ġ73":12943,"Ġbibl":12944,"Ġbidragit":12945,"Ġpseudony":12946,"Ġ67":12947,"orkester":12948,"Ġkated":12949,"1969":12950,"Ã¤nktes":12951,"ĠFÃ¥gelns":12952,"CO":12953,"ĠdelÃ¤gare":12954,"klund":12955,"Ġ61":12956,"Ġapost":12957,"ĠpÃ¥verkas":12958,"Ġstreck":12959,"eterna":12960,"ĠGenÃ¨":12961,"2017":12962,"Ġalternativt":12963,"asinet":12964,"ĠDub":12965,"sser":12966,"Ġspelets":12967,"Ġ62":12968,"Ġpsykiat":12969,"Ġdemokratiska":12970,"mal":12971,"sÃ¤g":12972,"wich":12973,"Ġgrafik":12974,"Ġsamlas":12975,"Ġbaron":12976,"Ġ140":12977,"ĠvÃ¤nstra":12978,"Ã³w":12979,"ĠSerg":12980,"ĠTjeckoslov":12981,"ĠCatharina":12982,"Ġ...":12983,"rud":12984,"ĠGrÃ¥":12985,"ĠVII":12986,"landskap":12987,"Ã©t":12988,"ĠZetter":12989,"Ġsnick":12990,"Ġkapacitet":12991,"ĠlÃ¤ten":12992,"hults":12993,"kultur":12994,"ĠvÃ¤nd":12995,"Ġkrom":12996,"Ġtillika":12997,"ĠPower":12998,"Ġdators":12999,"ĠWarszawa":13000,"Ġtionde":13001,"ĠHamp":13002,"utstÃ¤llningen":13003,"Ġspreds":13004,"ple":13005,"Ġ125":13006,"TO":13007,"litteratur":13008,"ualitet":13009,"Ġsorg":13010,"ĠglÃ¶m":13011,"ahr":13012,"Ġhemmet":13013,"Ġtvung":13014,"branschen":13015,"hanter":13016,"jar":13017,"skulpt":13018,"Ġsamarbetet":13019,"Ġ1803":13020,"aktionen":13021,"Ġsmala":13022,"fÃ¤rgade":13023,"ĠâĢĶ":13024,"Ġexisterar":13025,"emann":13026,"Ġuppfin":13027,"Ġja":13028,"ĠÃ¶versv":13029,"ĠtrÃ¤ffa":13030,"ĠArnold":13031,"omon":13032,"oser":13033,"ĠWy":13034,"Ġvinkel":13035,"ĠÂ§":13036,"Ġhundar":13037,"ĠSydney":13038,"ĠĠĠĠĠĠĠĠĠĠĠĠĠĠĠĠ":13039,"Ġkontrollera":13040,"ĠhjÃ¤rta":13041,"Ġhj":13042,"ulus":13043,"ĠanvÃ¤ndare":13044,"ĠfÃ¤rre":13045,"Ġ1807":13046,"1906":13047,"Ġbalett":13048,"Ġstyrkorna":13049,"ĠBeatles":13050,"ivia":13051,"Ġkolonier":13052,"Ġbedrivs":13053,"à¸":13054,"ĠCall":13055,"Ġspann":13056,"ĠinfÃ¶ra":13057,"ĠBrygg":13058,"Ġpatent":13059,"Ġfysi":13060,"Ġerfarenheter":13061,"ĠAG":13062,"ĠMilj":13063,"ĠNÃ¤":13064,"irs":13065,"Ġdotterbolag":13066,"ĠfÃ¶rsvarsbeslutet":13067,"trÃ¤sk":13068,"1967":13069,"Ġorsaken":13070,"skÃ¤rm":13071,"ĠFolkets":13072,"atÃ¶rer":13073,"ĠHjort":13074,"ĠFager":13075,"Ġutskott":13076,"ĠLÃ¥t":13077,"rukturen":13078,"ĠSovjetunionens":13079,"ĠVÃ¥ren":13080,"speg":13081,"ligtvis":13082,"ugga":13083,"regler":13084,"ĠlÃ¤genhet":13085,"ty":13086,"Ġri":13087,"arne":13088,"ĠHil":13089,"urit":13090,"1917":13091,"1912":13092,"ĠmanusfÃ¶rfattare":13093,"europa":13094,"ĠKÃ¤nnetecken":13095,"PA":13096,"brygg":13097,"stjÃ¤rna":13098,"Ġvaria":13099,"Ġradiop":13100,"olycka":13101,"ĠLem":13102,"kommen":13103,"Fran":13104,"Ġgymnastik":13105,"ningsomrÃ¥den":13106,"aps":13107,"Ġdies":13108,"Ġbostadshus":13109,"Ġmorgon":13110,"ktig":13111,"ĠWim":13112,"sbro":13113,"Ġliter":13114,"Ġfamiljens":13115,"ĠutsÃ¥g":13116,"Ġhustrun":13117,"Ġbutik":13118,"ĠKru":13119,"ĠWerner":13120,"Ġspons":13121,"Ġhittat":13122,"ĠÃ¶nsk":13123,"Ġinstitution":13124,"rÃ¶stningen":13125,"Ġstand":13126,"ĠMask":13127,"ĠPors":13128,"Ġorg":13129,"ĠÃĸland":13130,"ĠSchum":13131,"Ġangrepp":13132,"gade":13133,"Ġfre":13134,"ĠWi":13135,"ĠWer":13136,"Ġplanerna":13137,"ĠhÃ¤starna":13138,"1939":13139,"Ġbetraktades":13140,"umenterade":13141,"Ġlut":13142,"ĠFen":13143,"ĠsjÃ¶m":13144,"ĠArbetet":13145,"ĠOpera":13146,"worth":13147,"indel":13148,"Ã¶rerna":13149,"foni":13150,"papp":13151,"viv":13152,"Ġkyl":13153,"ysik":13154,"Ġvikten":13155,"Ġamerikanske":13156,"ĠJÃ¶nsson":13157,"Ġallvarligt":13158,"Ġmarg":13159,"Ġantyder":13160,"ĠrÃ¶stade":13161,"ĠPatrick":13162,"Ġsubstant":13163,"itysk":13164,"ĠGÃ¥rden":13165,"Ġplock":13166,"stÃ¤lle":13167,"Ġbelys":13168,"ĠKropp":13169,"sholm":13170,"yram":13171,"ĠMÃ¶l":13172,"ĠRose":13173,"fakt":13174,"natt":13175,"anlÃ¤ggning":13176,"Ġhatt":13177,"ssystemet":13178,"ĠMyr":13179,"ĠNas":13180,"1919":13181,"Ġnoveller":13182,"Ġtillverkar":13183,"Ġregeringstid":13184,"Ġagent":13185,"personer":13186,"Ġinkorporerades":13187,"dans":13188,"Ġotill":13189,"Ġilla":13190,"Ġparas":13191,"ĠCarlo":13192,"ĠLady":13193,"plantning":13194,"Ġextremt":13195,"komster":13196,"Ġfilmens":13197,"ĠLindgren":13198,"ĠTrond":13199,"ĠSamhÃ¤llet":13200,"ĠutbrÃ¶t":13201,"Ġbidrar":13202,"ĠfÃ¤stning":13203,"Ġjuridiska":13204,"ĠKvarter":13205,"iast":13206,"ĠMick":13207,"osaurus":13208,"ĠtvÃ¤tt":13209,"Ġ1793":13210,"ĠHandelshÃ¶gskolan":13211,"vÃ¤v":13212,"Ġkyr":13213,"Ġ1802":13214,"Ġstatsminister":13215,"ĠMilitÃ¤r":13216,"Ġskandinav":13217,"ĠÃ¶versatte":13218,"jÃ¤ra":13219,"Ġantis":13220,"Ã¶gon":13221,"Ġtillverkare":13222,"ĠMichigan":13223,"Ġlicens":13224,"trans":13225,"onna":13226,"ĠdÃ¶k":13227,"roit":13228,"Ġherrar":13229,"ĠfÃ¶rhÃ¥llandet":13230,"ĠBenjamin":13231,"dragen":13232,"ĠstÃ¥tt":13233,"Ġstatsk":13234,"Ġteckning":13235,"Ġorsaka":13236,"Ġmeddelades":13237,"Ġdemokratisk":13238,"ĠfÃ¶rutsÃ¤ttningar":13239,"Ġlanserade":13240,"ĠnÃ¤rbel":13241,"Ġspelats":13242,"ĠCha":13243,"ieu":13244,"fried":13245,"Ġfjort":13246,"Ġcamp":13247,"ĠHarvard":13248,"Ġspecifika":13249,"ĠVe":13250,"Ġcover":13251,"Ġutsikt":13252,"ĠfÃ¶rbjÃ¶ds":13253,"Ġbritterna":13254,"ĠBalk":13255,"ioxid":13256,"ĠsÃ¤gas":13257,"Ġavvik":13258,"robot":13259,"Ġvattent":13260,"ĠFÃ¶rbundet":13261,"ĠÃ¶gat":13262,"ĠEmanuel":13263,"ĠCorpor":13264,"egen":13265,"ĠInc":13266,"rica":13267,"ĠfÃ¶rsvarade":13268,"Ġbehandlade":13269,"ĠHotel":13270,"rerad":13271,"etisk":13272,"entuna":13273,"ovs":13274,"Ġvisserligen":13275,"ĠKristine":13276,"ĠÃ¶ron":13277,"ĠVÃ¤rldspopulationen":13278,"ektionen":13279,"Ġadlades":13280,"Ġopin":13281,"Ġsiste":13282,"ĠbekrÃ¤ftade":13283,"vap":13284,"Ġurin":13285,"ĠGame":13286,"Ã©b":13287,"Ġbehovet":13288,"svetenskapsakademien":13289,"ĠUtanfÃ¶r":13290,"ĠAfghanistan":13291,"Ġtop":13292,"Ġinser":13293,"ĠHÃ¤n":13294,"ĠBÃ¤sta":13295,"ĠWa":13296,"Ġkonvention":13297,"Ġkanoner":13298,"ĠhÃ¥llas":13299,"ĠfÃ¶rsvinner":13300,"ĠbegÃ¤ran":13301,"ĠHoward":13302,"Ġhelikopter":13303,"etz":13304,"eka":13305,"apest":13306,"ĠkÃ¤rnkraft":13307,"ĠPj":13308,"ierad":13309,"riset":13310,"Ġverksamma":13311,"1948":13312,"Ġprocessen":13313,"ĠRap":13314,"ĠMedelhavet":13315,"1902":13316,"ĠMorris":13317,"Ġentrepren":13318,"hÃ¤star":13319,"ĠavgÃ¥ng":13320,"ĠPitt":13321,"Ġvolym":13322,"ĠÃ¥rhundraden":13323,"Ġtje":13324,"ĠHÃ¤gg":13325,"ĠÃ¤pp":13326,"Ġsinglar":13327,"Ġkronprins":13328,"ningsplats":13329,"Ġkvadratmeter":13330,"ynn":13331,"1946":13332,"Ġutnyttja":13333,"ĠFabrik":13334,"ĠRot":13335,"umma":13336,"Ġkvant":13337,"konserv":13338,"rasch":13339,"ĠkÃ¤rnvapen":13340,"ĠnÃ¶dvÃ¤ndigt":13341,"ĠStephen":13342,"ores":13343,"skild":13344,"ĠSqu":13345,"Ġgol":13346,"ĠArsen":13347,"Ãª":13348,"ĠMunk":13349,"ĠCron":13350,"ĠJe":13351,"icin":13352,"Ġklor":13353,"ĠYour":13354,"Ġryssarna":13355,"Ġfiction":13356,"ĠbjÃ¶r":13357,"Ã¤gar":13358,"icka":13359,"hai":13360,"Ġspridda":13361,"ĠnederlÃ¤ndsk":13362,"ĠSat":13363,"ĠUtmÃ¤rk":13364,"byggdes":13365,"hÃ¤ngande":13366,"Ġillustrat":13367,"bÃ¤v":13368,"buss":13369,"ĠMission":13370,"Ġbeund":13371,"1957":13372,"ĠuppmÃ¤rksammad":13373,"ĠanstrÃ¤ng":13374,"bÃ¥ten":13375,"ione":13376,"arkivet":13377,"ĠMinnesota":13378,"ĠFlem":13379,"ĠGert":13380,"ograph":13381,"ydlig":13382,"Ã¤ckande":13383,"Ġljusa":13384,"Ġmajoriteten":13385,"kammaren":13386,"don":13387,"berna":13388,"Ġ89":13389,"Ġtalman":13390,"Ġovanliga":13391,"numera":13392,"Ġterritorium":13393,"ĠPresident":13394,"ĠmÃ¤nniskorna":13395,"Ġunionens":13396,"Ġeffektivt":13397,"Ġdemokrati":13398,"ĠStudio":13399,"splatser":13400,"Or":13401,"oin":13402,"Ġment":13403,"Ġtam":13404,"ĠMÃ¤nn":13405,"ĠGrÃ¤":13406,"ouren":13407,"ĠEuropean":13408,"ĠAllan":13409,"Ġ1795":13410,"miss":13411,"stjÃ¤rn":13412,"Ġ1801":13413,"ĠSher":13414,"Ġstriderna":13415,"1947":13416,"Ġlyder":13417,"ved":13418,"2016":13419,"ky":13420,"litter":13421,"erns":13422,"ĠGren":13423,"Ġbryter":13424,"sakade":13425,"Ġnaturlig":13426,"Ġturnering":13427,"Ġeuropeisk":13428,"tak":13429,"iteln":13430,"ĠLer":13431,"âĢĶ":13432,"ifer":13433,"ymnasiet":13434,"Ġbalans":13435,"ĠsÃ¤llsynta":13436,"Ġfriluft":13437,"Ġbasket":13438,"Le":13439,"nÃ¤bb":13440,"ĠBush":13441,"ĠFrÃ¤m":13442,"berger":13443,"Ġgenerals":13444,"ĠbrÃ¤nsle":13445,"horn":13446,"kna":13447,"ĠRis":13448,"fÃ¶rinnan":13449,"ĠStav":13450,"ĠElf":13451,"Ġstenen":13452,"sbyggnaden":13453,"hÃ¤tt":13454,"ĠMycket":13455,"Ġ('":13456,"fÃ¶rde":13457,"Ġ1772":13458,"roms":13459,"helmina":13460,"inopel":13461,"ĠColomb":13462,"Ġdecennier":13463,"ĠLaurent":13464,"Ġlid":13465,"ĠNev":13466,"stÃ¤lldes":13467,"ĠLincol":13468,"remiÃ¤r":13469,"Ġhuvudbyggnaden":13470,"kandid":13471,"Ã½":13472,"stjÃ¤rnan":13473,"ĠIda":13474,"ĠÃ¥k":13475,"kontoret":13476,"ĠElitserien":13477,"ĠStrÃ¤ngnÃ¤s":13478,"ĠScen":13479,"Ġstammar":13480,"ĠFjÃ¤ll":13481,"Ġstrids":13482,"stugan":13483,"skÃ¥despelare":13484,"ÏĤ":13485,"etiskt":13486,"ĠCur":13487,"ĠmiljÃ¶n":13488,"ptom":13489,"ĠLundberg":13490,"Ã¥kning":13491,"Ġfient":13492,"ĠGlad":13493,"ĠVig":13494,"Ġsamlingen":13495,"Ġkommission":13496,"Ġ59":13497,"vidd":13498,"Ġorienter":13499,"gers":13500,"Ġfog":13501,"ĠGib":13502,"skrivna":13503,"ĠAdolfs":13504,"Ġskeppet":13505,"ĠbefÃ¤let":13506,"Ġkonflikten":13507,"ĠkÃ¤nsla":13508,"ĠNazitysk":13509,"ĠmÃ¤st":13510,"cho":13511,"ĠMora":13512,"emen":13513,"Ġformat":13514,"Ġkatastrof":13515,"Ġtekniker":13516,"Ġsemin":13517,"Ġdigital":13518,"ĠMarocko":13519,"ĠCyper":13520,"riga":13521,"ĠRegion":13522,"ĠfÃ¶rvaras":13523,"gavs":13524,"landen":13525,"Ġmusikalbum":13526,"Ġsexuella":13527,"Ġpraktisk":13528,"ĠSalts":13529,"à¤":13530,"lack":13531,"ĠfÃ¶rsÃ¤kring":13532,"Ġbrorson":13533,"ĠentrÃ©":13534,"Ġrestes":13535,"Ġtyngre":13536,"cle":13537,"ĠfÃ¶rare":13538,"uls":13539,"ohen":13540,"ĠÃĦg":13541,"orde":13542,"ĠSÃ¤llskapet":13543,"ĠnÃ¥d":13544,"uge":13545,"ĠEnt":13546,"ĠvÃ¤rdefulla":13547,"ĠBrita":13548,"fotograf":13549,"Ġtunnelban":13550,"Ġexplos":13551,"ĠBudapest":13552,"ete":13553,"Ġasp":13554,"beteck":13555,"hausen":13556,"Ġredaktion":13557,"ĠMoore":13558,"Ġklarar":13559,"ĠHuman":13560,"Ġabb":13561,"Ġdubbla":13562,"Ġadeln":13563,"ĠhÃ¤mtade":13564,"bys":13565,"stru":13566,"rine":13567,"Ġalg":13568,"ĠThail":13569,"ĠBerlins":13570,"Ġsamlings":13571,"1923":13572,"Â³":13573,"Ġenorm":13574,"riften":13575,"finalen":13576,"ĠstrÃ¤ckte":13577,"ĠRysslands":13578,"Ġmotorer":13579,"Ġhedrar":13580,"ĠSmÃ¥lands":13581,"Ã¶stern":13582,"ĠfrÃ¶":13583,"ĠvÃ¥t":13584,"Ġkansl":13585,"unskap":13586,"ĠSpÃ¥r":13587,"ublin":13588,"ĠbelÃ¶":13589,"ĠVÃ¤stmanland":13590,"Ġoperativ":13591,"Ġbefintliga":13592,"atj":13593,"Ġven":13594,"ĠSala":13595,"Ã¤nrik":13596,"ĠRÃ¥d":13597,"Ġliggande":13598,"Ġmisstag":13599,"ĠskilsmÃ¤ss":13600,"ĠmÃ¶tes":13601,"kok":13602,"mand":13603,"Ġrim":13604,"ĠDark":13605,"Ġblott":13606,"onenter":13607,"asp":13608,"ĠGÃ¤ll":13609,"1907":13610,"Ġbetecknar":13611,"ĠTermen":13612,"car":13613,"xor":13614,"chichte":13615,"odi":13616,"ĠfÃ¶rlÃ¤ngdes":13617,"Ġbatt":13618,"1913":13619,"Ġalfa":13620,"1956":13621,"Ġallvarliga":13622,"ĠdvÃ¤rg":13623,"ĠfÃ¶rnÃ¤m":13624,"ĠDC":13625,"Ġsnitt":13626,"ĠVadstena":13627,"ĠKonstantinopel":13628,"Ġkansli":13629,"tvÃ¥":13630,"Ġfra":13631,"ĠGul":13632,"fÃ¶rÃ¤nd":13633,"rÃ¤ttigheter":13634,"ulture":13635,"1940":13636,"ĠFerrari":13637,"Ġmelodi":13638,"taget":13639,"Ġmemo":13640,"ĠRan":13641,"Ġflygvapnet":13642,"ĠfÃ¤rdigt":13643,"ĠCaes":13644,"ĠutmÃ¤rkte":13645,"ĠUddevalla":13646,"ned":13647,"wart":13648,"agon":13649,"ĠPin":13650,"ĠRic":13651,"ĠVa":13652,"annan":13653,"auf":13654,"Ġkross":13655,"Ġ1788":13656,"Ġpreussiska":13657,"Ġinh":13658,"Ġskar":13659,"ogÃ¥rden":13660,"ĠVatt":13661,"1959":13662,"house":13663,"lÃ¤mnade":13664,"ĠFolke":13665,"ĠBibeln":13666,"hant":13667,"ĠtillÃ¤t":13668,"islav":13669,"Ġtidpunkten":13670,"Ġvisats":13671,"Ġansvarar":13672,"1955":13673,"kval":13674,"real":13675,"ĠTack":13676,"sert":13677,"ĠKristi":13678,"uperad":13679,"ĠavgÃ¶ra":13680,"ĠKrono":13681,"Ġtretton":13682,"ĠSibi":13683,"ĠAftonbladet":13684,"Ġpet":13685,"termin":13686,"adjÃ¤r":13687,"ĠNacka":13688,"ĠbestÃ¤mma":13689,"ĠStudios":13690,"ĠtÃ¤torten":13691,"kontrakt":13692,"midt":13693,"Ġutbrytning":13694,"Ġbacken":13695,"1930":13696,"Ġpartierna":13697,"ĠmissnÃ¶j":13698,"1909":13699,"ljus":13700,"Ġpund":13701,"Ġutdel":13702,"ĠStone":13703,"Ġbete":13704,"Ġhanden":13705,"ĠsvÃ¥rare":13706,"folket":13707,"Ġdraft":13708,"ĠElsa":13709,"Ġstatlig":13710,"ĠmÃ¶rkt":13711,"Ġbandy":13712,"Ġfotbolls":13713,"Ġtrycktes":13714,"Ġ$":13715,"Ġsyr":13716,"betal":13717,"Ġdistrik":13718,"ĠvÃ¤rnplikt":13719,"mig":13720,"xamen":13721,"ĠLiss":13722,"ody":13723,"2018":13724,"ĠmunicipalsamhÃ¤lle":13725,"Ð¼":13726,"ĠuppfÃ¶rde":13727,"ĠNÃ¥gon":13728,"vic":13729,"Ñĥ":13730,"ĠLuther":13731,"ĠarbetslÃ¶s":13732,"ĠtrÃ¤ning":13733,"kov":13734,"ĠskÃ¥l":13735,"ĠKraft":13736,"ationens":13737,"uda":13738,"Ġmetoden":13739,"ĠIndones":13740,"ĠMoz":13741,"ĠMario":13742,"ĠkÃ¥r":13743,"ĠArist":13744,"ĠKuba":13745,"uropa":13746,"Ġabstrakt":13747,"Ġdeltagarna":13748,"ĠutÃ¶vade":13749,"Ġbibel":13750,"kal":13751,"ĠUg":13752,"bers":13753,"ĠCarlos":13754,"Ġsammanfatt":13755,"Ġbeslutades":13756,"ĠAbd":13757,"Ġinstitutionen":13758,"Ġvuxit":13759,"ĠfÃ¶renade":13760,"ĠMexico":13761,"jande":13762,"ĠDomin":13763,"embran":13764,"ĠBMW":13765,"Don":13766,"smiljÃ¶":13767,"ĠkÃ¶pt":13768,"ĠsamhÃ¤lls":13769,"Ġunika":13770,"Ġboet":13771,"Ġsannolik":13772,"tainment":13773,"ĠHMS":13774,"ĠStyr":13775,"sval":13776,"Ġfortsatta":13777,"ĠÃ¤mbetet":13778,"Ġpojkar":13779,"ĠGor":13780,"utÃ¶ver":13781,"Ġrunda":13782,"vÃ¤sendet":13783,"Ġ101":13784,"ĠAust":13785,"Ġspor":13786,"Ġheltid":13787,"sgÃ¥rden":13788,"ĠNielsen":13789,"bos":13790,"Ġstadsteater":13791,"ĠfÃ¶rlaget":13792,"Ġpublicerat":13793,"ĠslÃ¤kting":13794,"ĠBrÃ¶d":13795,"Ġtrummor":13796,"Ġvagnar":13797,"ĠHong":13798,"ffÃ¤ren":13799,"Ġkonstruerade":13800,"fib":13801,"sÃ¤lj":13802,"unst":13803,"ĠRek":13804,"ifikation":13805,"Ġstorhet":13806,"ijk":13807,"ĠhÃ¤ndelsen":13808,"Ġskaffa":13809,"Ġarrangemang":13810,"ropp":13811,"ikerar":13812,"ĠrÃ¤ttigheterna":13813,"orial":13814,"Ġskickas":13815,"Ġpartiledare":13816,"handlaren":13817,"ĠbehÃ¶va":13818,"Ġkonkurren":13819,"Ġmongol":13820,"ĠupprÃ¤ttades":13821,"ĠBerÃ¤tt":13822,"Ġtypisk":13823,"ĠnederbÃ¶rd":13824,"bÃ¶r":13825,"Ġvalen":13826,"ansvar":13827,"ĠÃ¥klag":13828,"ĠRoman":13829,"ĠmilitÃ¤ren":13830,"ferensen":13831,"ĠAlbanien":13832,"aton":13833,"ĠmÃ¤ter":13834,"ĠSix":13835,"ĠUlla":13836,"straff":13837,"Ġrepresentera":13838,"Ġbiskopen":13839,"Ġerbjuda":13840,"Ġexpansion":13841,"La":13842,"amt":13843,"Ġnionde":13844,"veckan":13845,"ĠfÃ¶rbunds":13846,"ĠriksrÃ¥det":13847,"ĠpÃ¥pek":13848,"Ġsamlar":13849,"ĠStens":13850,"annes":13851,"Ġfilmatis":13852,"ĠSÃ¶derberg":13853,"Ġjustiti":13854,"ĠJimmy":13855,"regel":13856,"ĠBri":13857,"ĠingÃ¥ende":13858,"ĠSval":13859,"ikat":13860,"imar":13861,"vÃ¥ning":13862,"Ġimmun":13863,"Ġhandeln":13864,"befolkningen":13865,"ĠMuse":13866,"1953":13867,"lÃ¤k":13868,"Ġbrasil":13869,"ĠDagen":13870,"ĠanfÃ¶ll":13871,"Ġanda":13872,"ĠterrÃ¤ng":13873,"Ġtypiskt":13874,"Ġgradvis":13875,"Ġseparata":13876,"spolitik":13877,"ĠMes":13878,"ĠKinas":13879,"unnen":13880,"evin":13881,"Ġsitta":13882,"musiker":13883,"Ġregisserades":13884,"ĠÃ¤ra":13885,"Ġhanar":13886,"egas":13887,"ird":13888,"ĠlandsvÃ¤g":13889,"ĠAnledningen":13890,"ĠGÃ¶tal":13891,"ĠÃ¶nskan":13892,"bunden":13893,"ĠkrÃ¤vdes":13894,"Ġdrama":13895,"hag":13896,"ibliotek":13897,"ĠKons":13898,"ĠSkill":13899,"Ġhistorie":13900,"Ġbaseras":13901,"ĠsjÃ¶fart":13902,"1952":13903,"Ġdistribu":13904,"mb":13905,"pack":13906,"Ġ#":13907,"Ġpir":13908,"artid":13909,"Ġgenre":13910,"vÃ¤rn":13911,"Ġartnamn":13912,"ĠbakÃ¥t":13913,"acht":13914,"insats":13915,"kritiker":13916,"Ġakademien":13917,"ĠHoff":13918,"utgÃ¥":13919,"spol":13920,"ĠBeach":13921,"behandling":13922,"ĠutmÃ¤rkelser":13923,"Ġlejon":13924,"ĠZÃ¼rich":13925,"mos":13926,"Ġsup":13927,"Ġverksamheter":13928,"ĠsamhÃ¤llen":13929,"Ġbesegra":13930,"Ġnutida":13931,"set":13932,"torp":13933,"Ġuppkom":13934,"ĠBefolkningen":13935,"ĠEtiop":13936,"edonien":13937,"ĠbegÃ¤rde":13938,"ĠLÃ©":13939,"ĠÃĹ":13940,"Ġslutgilt":13941,"ĠtrÃ¤dgÃ¥rden":13942,"Ġetniska":13943,"Ġansikte":13944,"inett":13945,"stock":13946,"Ġrese":13947,"Ġ1750":13948,"Ġaluminium":13949,"ĠGeorgia":13950,"ĠSlottet":13951,"tens":13952,"iggande":13953,"dagens":13954,"Ġfastigheter":13955,"Ġfasc":13956,"lenburg":13957,"Ġinfluenser":13958,"vagns":13959,"Ġpseudonymen":13960,"vensen":13961,"ĠRena":13962,"ĠRoth":13963,"Ġsyre":13964,"ifornia":13965,"Ġvacker":13966,"Ã¥rsjubileum":13967,"ĠPlatsen":13968,"Ġts":13969,"Ġlyr":13970,"iki":13971,"ĠMov":13972,"ĠFair":13973,"br":13974,"jakt":13975,"vir":13976,"ĠSÃ¥d":13977,"ĠKant":13978,"ĠRand":13979,"sbank":13980,"Ġskrivet":13981,"ĠKerstin":13982,"ĠavsevÃ¤rt":13983,"Ol":13984,"ĠHund":13985,"avilj":13986,"1925":13987,"Ġdagstid":13988,"ĠKarls":13989,"asarett":13990,"gat":13991,"via":13992,"stig":13993,"ĠPac":13994,"rÃ¤st":13995,"slivet":13996,"Ġstatligt":13997,"ĠrÃ¤kning":13998,"ebyggelse":13999,"Ġsaga":14000,"attack":14001,"ĠGÃ¼":14002,"avrinningsomrÃ¥det":14003,"manu":14004,"Ġkyrkligt":14005,"ricitet":14006,"sdjur":14007,"ĠfjÃ¤rr":14008,"ĠKristianstads":14009,"skador":14010,"ĠlÃ¤mplig":14011,"Ġexistens":14012,"Ġsorters":14013,"Ġbind":14014,"ebe":14015,"skriven":14016,"mekan":14017,"ĠhjÃ¤rnan":14018,"ĠDy":14019,"sslut":14020,"Ġ1799":14021,"ĠrÃ¥dde":14022,"ĠUppvÃ¤xt":14023,"unneln":14024,"ĠBlan":14025,"ĠPrecis":14026,"Ġnegativ":14027,"ĠPeking":14028,"direkt":14029,"sek":14030,"srÃ¶relsen":14031,"anterna":14032,"Ġkristall":14033,"ĠMaz":14034,"ĠTai":14035,"artilleri":14036,"ĠfÃ¶dda":14037,"Ġpartis":14038,"ĠUlrik":14039,"ĠtÃ¤nker":14040,"ĠStadens":14041,"Ġbuken":14042,"Ġfans":14043,"Ġiaktt":14044,"alter":14045,"rÃ¤des":14046,"Ġris":14047,"estads":14048,"imo":14049,"Ġgudom":14050,"ĠÃĸrn":14051,"Ġkavalleri":14052,"ĠHK":14053,"Ġarenan":14054,"Ġsexton":14055,"Ġofficers":14056,"ĠSundby":14057,"Ġrestauranger":14058,"ĠanlÃ¤ggning":14059,"ĠMÃ¤laren":14060,"kÃ¤ll":14061,"ĠCob":14062,"Ġpoly":14063,"Ġanti":14064,"Ġgenerald":14065,"Ġbeteckning":14066,"Ġkvalificerade":14067,"ĠEntertainment":14068,"start":14069,"Ġnom":14070,"ĠHanen":14071,"Ġkonspir":14072,"ĠÃ¤gt":14073,"Ġfilosofiska":14074,"Ġ1791":14075,"skom":14076,"Ġult":14077,"Ġuppdat":14078,"ĠStats":14079,"issarie":14080,"Ġsena":14081,"Ġ1794":14082,"Ġgranit":14083,"Ġexperimente":14084,"gul":14085,"Ġflyttas":14086,"Ġbomull":14087,"ĠSigurd":14088,"ĠCorporation":14089,"Ġhinder":14090,"ĠfÃ¶rhÃ¶r":14091,"ĠstjÃ¤rnan":14092,"Ġkroatiska":14093,"ĠStein":14094,"Ġproblemet":14095,"Ġmaskiner":14096,"Ġinspelningar":14097,"Ġshow":14098,"ĠmarknadsfÃ¶ring":14099,"ĠTjeckien":14100,"ĠAugusta":14101,"ĠVladimir":14102,"anor":14103,"Ġpara":14104,"itus":14105,"ĠChrister":14106,"ĠmÃ¥nen":14107,"lett":14108,"ĠDetroit":14109,"ĠpremiÃ¤rvisades":14110,"Ġdomineras":14111,"ĠFÃ¶retag":14112,"ĠvÃ¤rldscupen":14113,"Ġtobak":14114,"padd":14115,"Ġinc":14116,"yton":14117,"FÃ¶r":14118,"Ġfing":14119,"itÃ©":14120,"Ġtillverkad":14121,"leken":14122,"Ġammun":14123,"ĠHolstein":14124,"Ġnarkot":14125,"CD":14126,"ĠpÃ¥stod":14127,"ĠVest":14128,"artav":14129,"ĠbokfÃ¶r":14130,"Ġfotbollsspelare":14131,"1904":14132,"Ġexklus":14133,"Ġbysant":14134,"essor":14135,"Ġvisste":14136,"ĠUniversitet":14137,"Ġfartygen":14138,"Ġkniv":14139,"Ġvariera":14140,"Ġkoordin":14141,"ĠkÃ¤mpade":14142,"Ġundersida":14143,"1903":14144,"Ġpraktiskt":14145,"Ġviken":14146,"ĠkrÃ¤ft":14147,"utbildningen":14148,"ĠWild":14149,"Ġeleg":14150,"Ġregerande":14151,"ĠIndian":14152,"Ġdelstatens":14153,"ĠkrÃ¶nt":14154,"Ġdamer":14155,"ĠMuss":14156,"ĠTrol":14157,
[...]
